{
  "type": "unicode_bpe",
  "token_to_id": {
    "<|endoftext|>": 0,
    "\t": 1,
    "\n": 2,
    " ": 3,
    "!": 4,
    "\"": 5,
    "#": 6,
    "&": 7,
    "'": 8,
    "(": 9,
    ")": 10,
    "*": 11,
    "+": 12,
    ",": 13,
    "-": 14,
    ".": 15,
    "/": 16,
    "0": 17,
    "1": 18,
    "2": 19,
    "3": 20,
    "4": 21,
    "5": 22,
    "6": 23,
    "7": 24,
    "8": 25,
    "9": 26,
    ":": 27,
    ";": 28,
    "<": 29,
    "=": 30,
    ">": 31,
    "?": 32,
    "@": 33,
    "A": 34,
    "B": 35,
    "C": 36,
    "D": 37,
    "E": 38,
    "F": 39,
    "G": 40,
    "H": 41,
    "I": 42,
    "J": 43,
    "K": 44,
    "L": 45,
    "M": 46,
    "N": 47,
    "O": 48,
    "P": 49,
    "Q": 50,
    "R": 51,
    "S": 52,
    "T": 53,
    "U": 54,
    "V": 55,
    "W": 56,
    "X": 57,
    "Y": 58,
    "Z": 59,
    "[": 60,
    "\\": 61,
    "]": 62,
    "^": 63,
    "_": 64,
    "`": 65,
    "a": 66,
    "b": 67,
    "c": 68,
    "d": 69,
    "e": 70,
    "f": 71,
    "g": 72,
    "h": 73,
    "i": 74,
    "j": 75,
    "k": 76,
    "l": 77,
    "m": 78,
    "n": 79,
    "o": 80,
    "p": 81,
    "q": 82,
    "r": 83,
    "s": 84,
    "t": 85,
    "u": 86,
    "v": 87,
    "w": 88,
    "x": 89,
    "y": 90,
    "z": 91,
    "{": 92,
    "|": 93,
    "}": 94,
    "~": 95,
    "ª": 96,
    "«": 97,
    "°": 98,
    "¶": 99,
    "·": 100,
    "º": 101,
    "»": 102,
    "¼": 103,
    "À": 104,
    "Á": 105,
    "Æ": 106,
    "È": 107,
    "É": 108,
    "Ì": 109,
    "Ò": 110,
    "Ó": 111,
    "Ù": 112,
    "Ú": 113,
    "Ý": 114,
    "à": 115,
    "á": 116,
    "â": 117,
    "ã": 118,
    "ä": 119,
    "æ": 120,
    "ç": 121,
    "è": 122,
    "é": 123,
    "ê": 124,
    "ë": 125,
    "ì": 126,
    "í": 127,
    "î": 128,
    "ï": 129,
    "ñ": 130,
    "ò": 131,
    "ó": 132,
    "ô": 133,
    "õ": 134,
    "ù": 135,
    "ú": 136,
    "û": 137,
    "ý": 138,
    "ĩ": 139,
    "œ": 140,
    "‑": 141,
    "‒": 142,
    "–": 143,
    "—": 144,
    "‘": 145,
    "’": 146,
    "‚": 147,
    "“": 148,
    "”": 149,
    "…": 150,
    "‹": 151,
    "›": 152,
    "∞": 153,
    "☉": 154,
    "✶": 155,
    "❘": 156,
    "er": 157,
    "on": 158,
    "an": 159,
    "di": 160,
    "en": 161,
    "to": 162,
    "ch": 163,
    "al": 164,
    "in": 165,
    "re": 166,
    "  ": 167,
    "el": 168,
    "la": 169,
    "te": 170,
    "si": 171,
    "co": 172,
    "che": 173,
    "ta": 174,
    "ti": 175,
    "qu": 176,
    "li": 177,
    "ri": 178,
    "ra": 179,
    "es": 180,
    "ci": 181,
    "le": 182,
    "do": 183,
    "per": 184,
    "ro": 185,
    "se": 186,
    "ar": 187,
    "mo": 188,
    "po": 189,
    "lo": 190,
    "de": 191,
    "con": 192,
    "no": 193,
    "    ": 194,
    "gli": 195,
    "del": 196,
    "ma": 197,
    "so": 198,
    "il": 199,
    "ca": 200,
    "un": 201,
    "io": 202,
    "me": 203,
    "pi": 204,
    "da": 205,
    "vi": 206,
    "uo": 207,
    "non": 208,
    "sa": 209,
    "ono": 210,
    "tu": 211,
    "ano": 212,
    "va": 213,
    "men": 214,
    "mi": 215,
    "pa": 216,
    "vo": 217,
    "tto": 218,
    "ve": 219,
    "ere": 220,
    "l'": 221,
    "zi": 222,
    "gi": 223,
    "fa": 224,
    "tra": 225,
    "qual": 226,
    "a,": 227,
    "ne": 228,
    "one": 229,
    "ce": 230,
    "        ": 231,
    "ni": 232,
    "na": 233,
    "quel": 234,
    "endo": 235,
    "su": 236,
    "or": 237,
    "tro": 238,
    "nel": 239,
    "ran": 240,
    "chi": 241,
    "ver": 242,
    "ques": 243,
    "ess": 244,
    "as": 245,
    "tà": 246,
    "mente": 247,
    "za": 248,
    "tan": 249,
    "fi": 250,
    "man": 251,
    "ven": 252,
    "era": 253,
    "tta": 254,
    "sta": 255,
    "ssi": 256,
    "par": 257,
    "pre": 258,
    "bi": 259,
    "una": 260,
    "fu": 261,
    "i,": 262,
    "della": 263,
    "gu": 264,
    "min": 265,
    "mol": 266,
    "ter": 267,
    "du": 268,
    "av": 269,
    "sse": 270,
    "e,": 271,
    "\n\n": 272,
    "loro": 273,
    "tti": 274,
    "ando": 275,
    "come": 276,
    "gno": 277,
    "ten": 278,
    "cor": 279,
    "gio": 280,
    "ac": 281,
    "d'": 282,
    "tri": 283,
    "vol": 284,
    "sono": 285,
    "re,": 286,
    "gran": 287,
    "to,": 288,
    "suo": 289,
    "cu": 290,
    "ino": 291,
    "bb": 292,
    "pro": 293,
    "ché": 294,
    "tte": 295,
    "tre": 296,
    "go": 297,
    "pe": 298,
    "ero": 299,
    "zione": 300,
    "sc": 301,
    "alla": 302,
    "fe": 303,
    "com": 304,
    "sen": 305,
    "oni": 306,
    "cos": 307,
    "pu": 308,
    "quale": 309,
    "ali": 310,
    "gen": 311,
    "gni": 312,
    "im": 313,
    "for": 314,
    "anno": 315,
    "de'": 316,
    "pri": 317,
    "cia": 318,
    "ga": 319,
    "te,": 320,
    "ave": 321,
    "più": 322,
    "ren": 323,
    "lu": 324,
    "quali": 325,
    "eri": 326,
    "ini": 327,
    "ti,": 328,
    "tem": 329,
    "ani": 330,
    "ad": 331,
    "por": 332,
    "sto": 333,
    "                ": 334,
    "questo": 335,
    "ciò": 336,
    "ed": 337,
    "egli": 338,
    "piú": 339,
    "sua": 340,
    "vano": 341,
    "esser": 342,
    "ben": 343,
    "perché": 344,
    "zz": 345,
    "ale": 346,
    "cio": 347,
    "am": 348,
    "col": 349,
    "ella": 350,
    "dis": 351,
    "pra": 352,
    "dal": 353,
    "esse": 354,
    "alc": 355,
    "stra": 356,
    "l’": 357,
    "tor": 358,
    "quan": 359,
    "cit": 360,
    "altri": 361,
    "sti": 362,
    "ss": 363,
    "ggi": 364,
    "que": 365,
    "uno": 366,
    "qua": 367,
    "cose": 368,
    "sso": 369,
    "Ma": 370,
    "cre": 371,
    "o,": 372,
    "detto": 373,
    "molto": 374,
    "nella": 375,
    "signo": 376,
    "bbe": 377,
    "tt": 378,
    "mon": 379,
    "ba": 380,
    "città": 381,
    "uto": 382,
    "ap": 383,
    "delle": 384,
    "gh": 385,
    "cer": 386,
    "ggio": 387,
    "ru": 388,
    "quello": 389,
    "questa": 390,
    "fo": 391,
    "bu": 392,
    "ria": 393,
    "tanto": 394,
    "dere": 395,
    "quella": 396,
    "cosa": 397,
    "gna": 398,
    "sia": 399,
    "sopra": 400,
    "gra": 401,
    "mor": 402,
    "qui": 403,
    "ssa": 404,
    "Co": 405,
    "ona": 406,
    "ha": 407,
    "rono": 408,
    "tutti": 409,
    "pen": 410,
    "st": 411,
    "Qu": 412,
    "den": 413,
    "anti": 414,
    "anco": 415,
    "desi": 416,
    "gn": 417,
    "poi": 418,
    "\n ": 419,
    "zza": 420,
    "rin": 421,
    "fatto": 422,
    "dove": 423,
    "tutto": 424,
    "erano": 425,
    "pera": 426,
    "ta,": 427,
    "uni": 428,
    "ogni": 429,
    "zia": 430,
    "mini": 431,
    "san": 432,
    "tempo": 433,
    "essere": 434,
    "glia": 435,
    "parte": 436,
    "parti": 437,
    "fare": 438,
    "sci": 439,
    "chia": 440,
    "né": 441,
    "altro": 442,
    "essi": 443,
    "ra,": 444,
    "cen": 445,
    "II": 446,
    "fra": 447,
    "molti": 448,
    "ina": 449,
    "ssimo": 450,
    "lo,": 451,
    "che,": 452,
    "giu": 453,
    "modo": 454,
    "anni": 455,
    "ine": 456,
    "mento": 457,
    "val": 458,
    "ardi": 459,
    "ch'": 460,
    "der": 461,
    "In": 462,
    "altra": 463,
    "ese": 464,
    "luo": 465,
    "gione": 466,
    "glio": 467,
    "li,": 468,
    "Fi": 469,
    "and": 470,
    "stato": 471,
    "veni": 472,
    "ste": 473,
    "far": 474,
    "oc": 475,
    "ordi": 476,
    "essendo": 477,
    "scri": 478,
    "lib": 479,
    "ssima": 480,
    "lui": 481,
    "amo": 482,
    "ano,": 483,
    "esso": 484,
    "ge": 485,
    "ser": 486,
    "ze": 487,
    "--": 488,
    "suoi": 489,
    "quando": 490,
    "fer": 491,
    "grande": 492,
    "don": 493,
    "ri,": 494,
    "Il": 495,
    "grandi": 496,
    "et": 497,
    "assa": 498,
    "medesi": 499,
    "mani": 500,
    "pon": 501,
    "quanto": 502,
    "ris": 503,
    "s'": 504,
    "dell'": 505,
    "io,": 506,
    "vole": 507,
    "due": 508,
    "cono": 509,
    "terra": 510,
    "Pi": 511,
    "a'": 512,
    "senza": 513,
    "messer": 514,
    "Per": 515,
    "alle": 516,
    "re.": 517,
    "cam": 518,
    "elle": 519,
    "ora": 520,
    "fac": 521,
    "arono": 522,
    "bas": 523,
    "manda": 524,
    "anzi": 525,
    "comin": 526,
    "fece": 527,
    "si,": 528,
    "altre": 529,
    "cosí": 530,
    "mu": 531,
    "maggio": 532,
    "rinci": 533,
    "uomini": 534,
    "nos": 535,
    "tali": 536,
    "co,": 537,
    "condo": 538,
    "cuno": 539,
    "tutte": 540,
    "nelle": 541,
    "pote": 542,
    "sì": 543,
    "ente": 544,
    "princi": 545,
    "porta": 546,
    "prima": 547,
    "zzo": 548,
    "anda": 549,
    "così": 550,
    "quelle": 551,
    "quelli": 552,
    "rio": 553,
    "esa": 554,
    "esti": 555,
    "sal": 556,
    "ancora": 557,
    "va,": 558,
    "segu": 559,
    "zioni": 560,
    "   ": 561,
    "une": 562,
    "fuo": 563,
    "zio": 564,
    "XX": 565,
    "bene": 566,
    "popo": 567,
    "assai": 568,
    "gliuo": 569,
    "ab": 570,
    "dio": 571,
    "elli": 572,
    "La": 573,
    "noi": 574,
    "vere": 575,
    "avere": 576,
    "e'": 577,
    "tura": 578,
    "avendo": 579,
    "molte": 580,
    "allo": 581,
    "capi": 582,
    "compa": 583,
    "ho": 584,
    "Di": 585,
    "gg": 586,
    "Ro": 587,
    "disse": 588,
    "van": 589,
    "aveva": 590,
    "can": 591,
    "degli": 592,
    "alcuna": 593,
    "sem": 594,
    "bile": 595,
    "tá": 596,
    "ai": 597,
    "consi": 598,
    "essa": 599,
    "ol": 600,
    "dalla": 601,
    "figliuo": 602,
    "tal": 603,
    "dendo": 604,
    "mar": 605,
    "mai": 606,
    "af": 607,
    "gente": 608,
    "hanno": 609,
    "via": 610,
    "pia": 611,
    "Fran": 612,
    "cca": 613,
    "dan": 614,
    "die": 615,
    "son": 616,
    "contra": 617,
    "dire": 618,
    "Al": 619,
    "Gio": 620,
    "ello": 621,
    "gior": 622,
    "ul": 623,
    "pare": 624,
    "questi": 625,
    "tano": 626,
    "vin": 627,
    "Firen": 628,
    "ene": 629,
    "mer": 630,
    "passa": 631,
    "genti": 632,
    "poco": 633,
    "ghi": 634,
    "nuo": 635,
    "tando": 636,
    "presso": 637,
    "fosse": 638,
    "sp": 639,
    "tur": 640,
    "unque": 641,
    "dia": 642,
    "queste": 643,
    "sola": 644,
    "uta": 645,
    "voi": 646,
    "CA": 647,
    "sue": 648,
    "San": 649,
    "già": 650,
    "meno": 651,
    "guer": 652,
    "ioren": 653,
    "però": 654,
    "tutta": 655,
    "ami": 656,
    "sol": 657,
    "d’": 658,
    "mand": 659,
    "rò": 660,
    "me,": 661,
    "spe": 662,
    "tin": 663,
    "verso": 664,
    "Ch": 665,
    "enti": 666,
    "eser": 667,
    "sempre": 668,
    "bo": 669,
    "dice": 670,
    "avea": 671,
    "caval": 672,
    "dif": 673,
    "inf": 674,
    "luogo": 675,
    "menti": 676,
    "venne": 677,
    "peri": 678,
    "lun": 679,
    "'l": 680,
    "car": 681,
    "cci": 682,
    "oro": 683,
    "secondo": 684,
    "sotto": 685,
    "tà,": 686,
    "alcuno": 687,
    "Come": 688,
    "citta": 689,
    "spa": 690,
    "dini": 691,
    "esta": 692,
    "quasi": 693,
    "sí": 694,
    "cco": 695,
    "cri": 696,
    "mostra": 697,
    "all'": 698,
    "chiama": 699,
    "vero": 700,
    "duca": 701,
    "fin": 702,
    "to.": 703,
    "eserci": 704,
    "mb": 705,
    "mondo": 706,
    "signor": 707,
    "paro": 708,
    "pos": 709,
    "uti": 710,
    "uomo": 711,
    "volta": 712,
    "a.": 713,
    "ci,": 714,
    "de’": 715,
    "le,": 716,
    "ppo": 717,
    "rie": 718,
    "sie": 719,
    "mente,": 720,
    "può": 721,
    "ele": 722,
    "inten": 723,
    "__": 724,
    "mano": 725,
    "cc": 726,
    "sco": 727,
    "ala": 728,
    "bili": 729,
    "cchi": 730,
    "ccio": 731,
    "nanzi": 732,
    "tori": 733,
    "trova": 734,
    "detta": 735,
    "mmo": 736,
    "pie": 737,
    "\n    ": 738,
    "RI": 739,
    "mia": 740,
    "rebbe": 741,
    "Gi": 742,
    "opera": 743,
    "Si": 744,
    "contro": 745,
    "eno": 746,
    "furono": 747,
    "presen": 748,
    "vita": 749,
    "An": 750,
    "sor": 751,
    "tino": 752,
    "ttere": 753,
    "volte": 754,
    "\n  ": 755,
    "abbi": 756,
    "bli": 757,
    "ell": 758,
    "segui": 759,
    "cin": 760,
    "cento": 761,
    "lor": 762,
    "mio": 763,
    "ssero": 764,
    "Le": 765,
    "So": 766,
    "cias": 767,
    "piac": 768,
    "tar": 769,
    "dre": 770,
    "dol": 771,
    "mil": 772,
    "za,": 773,
    "dì": 774,
    "gua": 775,
    "parla": 776,
    "tamente": 777,
    "torno": 778,
    "aver": 779,
    "pot": 780,
    "tuo": 781,
    "cagione": 782,
    "cav": 783,
    "cui": 784,
    "ma,": 785,
    "one,": 786,
    "tempi": 787,
    "zione,": 788,
    "\n                ": 789,
    "chio": 790,
    "des": 791,
    "papa": 792,
    "us": 793,
    "----": 794,
    "TO": 795,
    "alcuni": 796,
    "fusse": 797,
    "nostra": 798,
    "sa,": 799,
    "tanta": 800,
    "ber": 801,
    "mezzo": 802,
    "mina": 803,
    "ssimi": 804,
    "vir": 805,
    "Firenze": 806,
    "To": 807,
    "agli": 808,
    "be": 809,
    "fici": 810,
    "mis": 811,
    "sanza": 812,
    "Io": 813,
    "Itali": 814,
    "animo": 815,
    "enza": 816,
    "insie": 817,
    "abi": 818,
    "ce,": 819,
    "dera": 820,
    "dato": 821,
    "ordina": 822,
    "so,": 823,
    "tante": 824,
    "tto,": 825,
    "DE": 826,
    "Pa": 827,
    "face": 828,
    "medesimo": 829,
    "pere": 830,
    "CAP": 831,
    "DI": 832,
    "at": 833,
    "loro,": 834,
    "tica": 835,
    "dic": 836,
    "ere,": 837,
    "gover": 838,
    "inter": 839,
    "las": 840,
    "poten": 841,
    "simi": 842,
    "LL": 843,
    "cioè": 844,
    "fon": 845,
    "fatta": 846,
    "gl'": 847,
    "rice": 848,
    "senti": 849,
    "sul": 850,
    "compagni": 851,
    "nu": 852,
    "pur": 853,
    "tanti": 854,
    "Con": 855,
    "innanzi": 856,
    "nar": 857,
    "nec": 858,
    "ron": 859,
    "tare": 860,
    "Vi": 861,
    "ch’": 862,
    "cittadini": 863,
    "princip": 864,
    "Tu": 865,
    "de,": 866,
    "mare": 867,
    "quat": 868,
    "quattro": 869,
    "ragi": 870,
    "almente": 871,
    "appresso": 872,
    "avesse": 873,
    "esco": 874,
    "esto": 875,
    "lon": 876,
    "ordine": 877,
    "ante": 878,
    "da'": 879,
    "diver": 880,
    "lei": 881,
    "nell'": 882,
    "nostro": 883,
    "servi": 884,
    "tato": 885,
    "CAP.": 886,
    "bar": 887,
    "gono": 888,
    "giorno": 889,
    "glie": 890,
    "insieme": 891,
    "quale,": 892,
    "sé": 893,
    "tale": 894,
    "Car": 895,
    "ON": 896,
    "colo": 897,
    "fran": 898,
    "gia": 899,
    "LI": 900,
    "Li": 901,
    "biso": 902,
    "bito": 903,
    "costu": 904,
    "dono": 905,
    "forza": 906,
    "posto": 907,
    "tini": 908,
    "usa": 909,
    "Gu": 910,
    "gre": 911,
    "lin": 912,
    "pers": 913,
    "pose": 914,
    "stata": 915,
    "usci": 916,
    "elo": 917,
    "nome": 918,
    "nostri": 919,
    "ponte": 920,
    "stan": 921,
    "acqua": 922,
    "deli": 923,
    "fal": 924,
    "intorno": 925,
    "mal": 926,
    "pren": 927,
    "tò": 928,
    "tore": 929,
    "v'": 930,
    "zo": 931,
    "                                ": 932,
    "TE": 933,
    "bra": 934,
    "care": 935,
    "dar": 936,
    "entra": 937,
    "stro": 938,
    "tter": 939,
    "te.": 940,
    "tudi": 941,
    "Fioren": 942,
    "comune": 943,
    "dei": 944,
    "ebbe": 945,
    "fine": 946,
    "guerra": 947,
    "ino,": 948,
    "liber": 949,
    "mandò": 950,
    "ore": 951,
    "udi": 952,
    "bascia": 953,
    "contin": 954,
    "dette": 955,
    "fre": 956,
    "fiu": 957,
    "lasci": 958,
    "mari": 959,
    "oni,": 960,
    "paese": 961,
    "qualche": 962,
    "ragione": 963,
    "ssime": 964,
    "tratta": 965,
    "virt": 966,
    "Qui": 967,
    "ani,": 968,
    "andò": 969,
    "cast": 970,
    "cura": 971,
    "dí": 972,
    "eli": 973,
    "impera": 974,
    "mi,": 975,
    "ove": 976,
    "quegli": 977,
    "sce": 978,
    "trov": 979,
    "Giov": 980,
    "amente": 981,
    "aspe": 982,
    "duto": 983,
    "giudi": 984,
    "ing": 985,
    "quanti": 986,
    "solo": 987,
    "Chi": 988,
    "cal": 989,
    "cavali": 990,
    "dopo": 991,
    "edi": 992,
    "fanno": 993,
    "l'ar": 994,
    "lavo": 995,
    "se,": 996,
    "tr": 997,
    "Giovanni": 998,
    "VII": 999,
    "ccia": 1000,
    "gna,": 1001,
    "ori": 1002,
    "torn": 1003,
    "veri": 1004,
    "zia,": 1005,
    "bal": 1006,
    "disse:": 1007,
    "donne": 1008,
    "forte": 1009,
    "lascia": 1010,
    "lega": 1011,
    "maggiore": 1012,
    "pian": 1013,
    "rato": 1014,
    "sar": 1015,
    "ti.": 1016,
    "torna": 1017,
    "ca,": 1018,
    "casa": 1019,
    "ff": 1020,
    "indi": 1021,
    "infini": 1022,
    "rando": 1023,
    "ria,": 1024,
    "venire": 1025,
    "abb": 1026,
    "ardin": 1027,
    "dare": 1028,
    "dentro": 1029,
    "gne": 1030,
    "guar": 1031,
    "medesima": 1032,
    "rà": 1033,
    "RE": 1034,
    "bbono": 1035,
    "corte": 1036,
    "eri,": 1037,
    "morte": 1038,
    "n'": 1039,
    "onde": 1040,
    "parole": 1041,
    "popolo": 1042,
    "rime": 1043,
    "stati": 1044,
    "tru": 1045,
    "Ba": 1046,
    "Na": 1047,
    "cardin": 1048,
    "conta": 1049,
    "conosc": 1050,
    "corpo": 1051,
    "dell’": 1052,
    "donna": 1053,
    "mie": 1054,
    "stre": 1055,
    "vede": 1056,
    "alcune": 1057,
    "chè": 1058,
    "ggia": 1059,
    "la,": 1060,
    "mma": 1061,
    "ne'": 1062,
    "pp": 1063,
    "pass": 1064,
    "primo": 1065,
    "stri": 1066,
    "tua": 1067,
    "            ": 1068,
    "NO": 1069,
    "Ni": 1070,
    "Ri": 1071,
    "chi,": 1072,
    "do,": 1073,
    "guardi": 1074,
    "l'o": 1075,
    "male": 1076,
    "maggior": 1077,
    "notte": 1078,
    "posta": 1079,
    "signore": 1080,
    "zze": 1081,
    "\n                   ": 1082,
    "ambascia": 1083,
    "dimo": 1084,
    "fan": 1085,
    "propri": 1086,
    "repu": 1087,
    "sero": 1088,
    "No": 1089,
    "Non": 1090,
    "amore": 1091,
    "conte": 1092,
    "ena": 1093,
    "feci": 1094,
    "forse": 1095,
    "fort": 1096,
    "ghe": 1097,
    "merca": 1098,
    "regno": 1099,
    "ro,": 1100,
    "scu": 1101,
    "sper": 1102,
    "De": 1103,
    "ama": 1104,
    "au": 1105,
    "auto": 1106,
    "acqui": 1107,
    "asse": 1108,
    "città,": 1109,
    "cominci": 1110,
    "dello": 1111,
    "ela": 1112,
    "grandissima": 1113,
    "inte": 1114,
    "t'": 1115,
    "tene": 1116,
    "ze,": 1117,
    "Dio": 1118,
    "ado": 1119,
    "cari": 1120,
    "capitano": 1121,
    "co'": 1122,
    "cominciò": 1123,
    "dore": 1124,
    "era,": 1125,
    "messo": 1126,
    "natur": 1127,
    "pes": 1128,
    "pure": 1129,
    "solamente": 1130,
    "un'": 1131,
    "vedendo": 1132,
    "_CAP.": 1133,
    "cia,": 1134,
    "comincia": 1135,
    "corre": 1136,
    "gui": 1137,
    "mara": 1138,
    "no,": 1139,
    "pol": 1140,
    "I.": 1141,
    "Roma": 1142,
    "belli": 1143,
    "cuo": 1144,
    "certo": 1145,
    "figliuolo": 1146,
    "fuori": 1147,
    "mo,": 1148,
    "provin": 1149,
    "rare": 1150,
    "tol": 1151,
    "vil": 1152,
    "vono": 1153,
    "Mil": 1154,
    "cristi": 1155,
    "fatti": 1156,
    "ia": 1157,
    "pin": 1158,
    "pontefi": 1159,
    "signori": 1160,
    "ta.": 1161,
    "tudine": 1162,
    "..": 1163,
    "aveano": 1164,
    "bella": 1165,
    "cir": 1166,
    "conten": 1167,
    "gge": 1168,
    "gro": 1169,
    "lar": 1170,
    "m'": 1171,
    "miglia": 1172,
    "vic": 1173,
    "Se": 1174,
    "XXX": 1175,
    "arta": 1176,
    "belle": 1177,
    "cche": 1178,
    "capo": 1179,
    "di,": 1180,
    "ef": 1181,
    "fioren": 1182,
    "glo": 1183,
    "libro": 1184,
    "luoghi": 1185,
    "natura": 1186,
    "num": 1187,
    "pad": 1188,
    "picco": 1189,
    "poter": 1190,
    "zzi": 1191,
    "RO": 1192,
    "____": 1193,
    "andosi": 1194,
    "certi": 1195,
    "condu": 1196,
    "esercito": 1197,
    "forma": 1198,
    "glia,": 1199,
    "l'altra": 1200,
    "maravi": 1201,
    "mici": 1202,
    "nov": 1203,
    "nondi": 1204,
    "oltre": 1205,
    "pensa": 1206,
    "piace": 1207,
    "ssono": 1208,
    "subito": 1209,
    "ute": 1210,
    "viene": 1211,
    "12": 1212,
    "CC": 1213,
    "Franc": 1214,
    "Francia": 1215,
    "Mon": 1216,
    "Or": 1217,
    "TI": 1218,
    "abbia": 1219,
    "acciò": 1220,
    "avevano": 1221,
    "ciascuno": 1222,
    "cinque": 1223,
    "coloro": 1224,
    "dalle": 1225,
    "dente": 1226,
    "muo": 1227,
    "maes": 1228,
    "sarebbe": 1229,
    "sse,": 1230,
    "ton": 1231,
    "15": 1232,
    "CO": 1233,
    "Ca": 1234,
    "Spa": 1235,
    "anim": 1236,
    "beni": 1237,
    "dana": 1238,
    "fica": 1239,
    "ggendo": 1240,
    "giun": 1241,
    "giovan": 1242,
    "lui,": 1243,
    "mp": 1244,
    "stu": 1245,
    "sione": 1246,
    "stare": 1247,
    "terra,": 1248,
    "Lo": 1249,
    "Lu": 1250,
    "Nel": 1251,
    "allora": 1252,
    "arsi": 1253,
    "buono": 1254,
    "dere,": 1255,
    "dietro": 1256,
    "ecc": 1257,
    "ero,": 1258,
    "fec": 1259,
    "leva": 1260,
    "oggi": 1261,
    "poli": 1262,
    "rano": 1263,
    "scor": 1264,
    "ulti": 1265,
    "vi,": 1266,
    "ER": 1267,
    "Italia": 1268,
    "autori": 1269,
    "cru": 1270,
    "gue": 1271,
    "impre": 1272,
    "inizi": 1273,
    "nuovo": 1274,
    "pun": 1275,
    "ricev": 1276,
    "scritto": 1277,
    "ssino": 1278,
    "ò,": 1279,
    "accor": 1280,
    "anza": 1281,
    "campo": 1282,
    "danno": 1283,
    "detti": 1284,
    "feciono": 1285,
    "figu": 1286,
    "mila": 1287,
    "occa": 1288,
    "perciò": 1289,
    "tenere": 1290,
    "va.": 1291,
    "venuto": 1292,
    "Ar": 1293,
    "Cas": 1294,
    "VI": 1295,
    "Vo": 1296,
    "ana": 1297,
    "arma": 1298,
    "ccol": 1299,
    "cie": 1300,
    "detto,": 1301,
    "l'altro": 1302,
    "mag": 1303,
    "mori": 1304,
    "necessa": 1305,
    "op": 1306,
    "pace": 1307,
    "re;": 1308,
    "risto": 1309,
    "tosto": 1310,
    "Cesa": 1311,
    "On": 1312,
    "S.": 1313,
    "amici": 1314,
    "ancor": 1315,
    "batta": 1316,
    "dov": 1317,
    "fede": 1318,
    "fetto": 1319,
    "ferma": 1320,
    "fia": 1321,
    "maniera": 1322,
    "possa": 1323,
    "presente": 1324,
    "principe": 1325,
    "rsi": 1326,
    "rima": 1327,
    "vesti": 1328,
    "virtù": 1329,
    "Ci": 1330,
    "Mar": 1331,
    "SI": 1332,
    "a’": 1333,
    "adunque": 1334,
    "erra": 1335,
    "fatte": 1336,
    "impe": 1337,
    "inge": 1338,
    "lev": 1339,
    "mando": 1340,
    "mette": 1341,
    "mira": 1342,
    "pochi": 1343,
    "quali,": 1344,
    "tendo": 1345,
    "veder": 1346,
    "zie": 1347,
    "zza,": 1348,
    "Cor": 1349,
    "Fiorentini": 1350,
    "anche": 1351,
    "corr": 1352,
    "data": 1353,
    "grandissimo": 1354,
    "is": 1355,
    "memo": 1356,
    "mento,": 1357,
    "olo": 1358,
    "to;": 1359,
    "tti,": 1360,
    "vivere": 1361,
    "vostro": 1362,
    "Carlo": 1363,
    "Firenze,": 1364,
    "Mo": 1365,
    "Pie": 1366,
    "ali,": 1367,
    "altri,": 1368,
    "arme": 1369,
    "buona": 1370,
    "cavalli": 1371,
    "comanda": 1372,
    "conce": 1373,
    "dati": 1374,
    "deva": 1375,
    "favo": 1376,
    "faccia": 1377,
    "leggi": 1378,
    "lunga": 1379,
    "pli": 1380,
    "preso": 1381,
    "super": 1382,
    "voli": 1383,
    "volendo": 1384,
    "AN": 1385,
    "Bar": 1386,
    "Man": 1387,
    "ale,": 1388,
    "ch'io": 1389,
    "da,": 1390,
    "divi": 1391,
    "fio": 1392,
    "faci": 1393,
    "fiume": 1394,
    "governa": 1395,
    "là": 1396,
    "molta": 1397,
    "navi": 1398,
    "padre": 1399,
    "pari": 1400,
    "posi": 1401,
    "potu": 1402,
    "sino": 1403,
    "simili": 1404,
    "terre": 1405,
    "vanno": 1406,
    "vina": 1407,
    "vedere": 1408,
    "EN": 1409,
    "MO": 1410,
    "Tarta": 1411,
    "arte": 1412,
    "compagnia": 1413,
    "d'un": 1414,
    "dili": 1415,
    "dimostra": 1416,
    "dicendo": 1417,
    "diversi": 1418,
    "dubi": 1419,
    "esi": 1420,
    "este": 1421,
    "fatica": 1422,
    "gri": 1423,
    "pau": 1424,
    "possi": 1425,
    "possono": 1426,
    "resti": 1427,
    "somma": 1428,
    "spazio": 1429,
    "state": 1430,
    "stesso": 1431,
    "vuo": 1432,
    "Indi": 1433,
    "Po": 1434,
    "anima": 1435,
    "aspetta": 1436,
    "bbi": 1437,
    "ciasc": 1438,
    "comba": 1439,
    "ddi": 1440,
    "fortuna": 1441,
    "fuggi": 1442,
    "grazia": 1443,
    "numero": 1444,
    "prov": 1445,
    "ragiona": 1446,
    "rispon": 1447,
    "sos": 1448,
    "tello": 1449,
    "ttu": 1450,
    "un'altra": 1451,
    "vedu": 1452,
    "voce": 1453,
    "--------": 1454,
    "Questo": 1455,
    "TA": 1456,
    "benché": 1457,
    "cava": 1458,
    "consiglio": 1459,
    "dico": 1460,
    "dile": 1461,
    "dipin": 1462,
    "fini": 1463,
    "lingua": 1464,
    "mille": 1465,
    "negli": 1466,
    "otto": 1467,
    "persona": 1468,
    "scrivere": 1469,
    "sser": 1470,
    "truo": 1471,
    "tá,": 1472,
    "volon": 1473,
    "IN": 1474,
    "arti": 1475,
    "cose,": 1476,
    "disc": 1477,
    "ese,": 1478,
    "essero": 1479,
    "figliuoli": 1480,
    "i.": 1481,
    "meri": 1482,
    "mentre": 1483,
    "most": 1484,
    "na,": 1485,
    "occhi": 1486,
    "petto": 1487,
    "pensi": 1488,
    "quei": 1489,
    "questo,": 1490,
    "sei": 1491,
    "testa": 1492,
    "tempo,": 1493,
    "Ver": 1494,
    "accio": 1495,
    "antichi": 1496,
    "arri": 1497,
    "atten": 1498,
    "bre": 1499,
    "bri": 1500,
    "considera": 1501,
    "continu": 1502,
    "dando": 1503,
    "d'una": 1504,
    "feri": 1505,
    "gliono": 1506,
    "gnifi": 1507,
    "imper": 1508,
    "l'a": 1509,
    "lettere": 1510,
    "lungo": 1511,
    "mino": 1512,
    "onore": 1513,
    "proce": 1514,
    "que,": 1515,
    "quivi": 1516,
    "rre": 1517,
    "rata": 1518,
    "sap": 1519,
    "vio": 1520,
    "vari": 1521,
    "volere": 1522,
    "\n\n    ": 1523,
    "MA": 1524,
    "Mi": 1525,
    "Né": 1526,
    "Signo": 1527,
    "XC": 1528,
    "ato": 1529,
    "alcun": 1530,
    "appar": 1531,
    "cò": 1532,
    "cavallo": 1533,
    "cavalieri": 1534,
    "chiam": 1535,
    "confor": 1536,
    "d'oro": 1537,
    "dir": 1538,
    "franze": 1539,
    "gar": 1540,
    "guardia": 1541,
    "lie": 1542,
    "libera": 1543,
    "mine": 1544,
    "modi": 1545,
    "nondimeno": 1546,
    "pr": 1547,
    "quanta": 1548,
    "sani": 1549,
    "ssimo,": 1550,
    "’l": 1551,
    "AL": 1552,
    "Chiesa": 1553,
    "LLA": 1554,
    "Onde": 1555,
    "Pietro": 1556,
    "altru": 1557,
    "andare": 1558,
    "cro": 1559,
    "chiamato": 1560,
    "costo": 1561,
    "d'A": 1562,
    "e’": 1563,
    "erro": 1564,
    "giovane": 1565,
    "int": 1566,
    "miseri": 1567,
    "muta": 1568,
    "pal": 1569,
    "pigli": 1570,
    "piacere": 1571,
    "pontefice": 1572,
    "principio": 1573,
    "rac": 1574,
    "reli": 1575,
    "richi": 1576,
    "segno": 1577,
    "sov": 1578,
    "sorte": 1579,
    "versa": 1580,
    "vitto": 1581,
    "volesse": 1582,
    "Re": 1583,
    "Tosc": 1584,
    "aco": 1585,
    "are": 1586,
    "bisogno": 1587,
    "dai": 1588,
    "degno": 1589,
    "denti": 1590,
    "eccell": 1591,
    "fru": 1592,
    "frate": 1593,
    "lan": 1594,
    "mandato": 1595,
    "memoria": 1596,
    "miglio": 1597,
    "necessi": 1598,
    "nello": 1599,
    "occu": 1600,
    "riman": 1601,
    "schi": 1602,
    "samente": 1603,
    "sarà": 1604,
    "tati": 1605,
    "ucci": 1606,
    "ve,": 1607,
    "\n      ": 1608,
    "Bi": 1609,
    "Pro": 1610,
    "Ru": 1611,
    "aiuto": 1612,
    "caso": 1613,
    "dolo": 1614,
    "ello,": 1615,
    "facendo": 1616,
    "gener": 1617,
    "gioni": 1618,
    "l'uno": 1619,
    "mano,": 1620,
    "mini,": 1621,
    "morto": 1622,
    "nero": 1623,
    "off": 1624,
    "opere": 1625,
    "piglia": 1626,
    "potere": 1627,
    "seco": 1628,
    "simil": 1629,
    "sua,": 1630,
    "uli": 1631,
    "vare": 1632,
    "vene": 1633,
    "Fu": 1634,
    "Medi": 1635,
    "Tur": 1636,
    "abita": 1637,
    "acci": 1638,
    "autorità": 1639,
    "avanti": 1640,
    "avete": 1641,
    "cce": 1642,
    "case": 1643,
    "capitan": 1644,
    "colui": 1645,
    "costa": 1646,
    "ente,": 1647,
    "giov": 1648,
    "lla": 1649,
    "lare": 1650,
    "manif": 1651,
    "meglio": 1652,
    "mett": 1653,
    "nati": 1654,
    "pru": 1655,
    "rati": 1656,
    "scon": 1657,
    "ssimamente": 1658,
    "teri": 1659,
    "vendo": 1660,
    "veramente": 1661,
    "è,": 1662,
    "Bor": 1663,
    "aggi": 1664,
    "cano": 1665,
    "cato": 1666,
    "diven": 1667,
    "fatto,": 1668,
    "gendo": 1669,
    "gli,": 1670,
    "metter": 1671,
    "mico": 1672,
    "more": 1673,
    "pala": 1674,
    "perché,": 1675,
    "piccio": 1676,
    "potuto": 1677,
    "ricor": 1678,
    "s’": 1679,
    "sia,": 1680,
    "sospe": 1681,
    "spesso": 1682,
    "troppo": 1683,
    "vano,": 1684,
    "zione.": 1685,
    "\n\n  ": 1686,
    "Cam": 1687,
    "Cristo": 1688,
    "Do": 1689,
    "Gui": 1690,
    "Pre": 1691,
    "ando,": 1692,
    "bil": 1693,
    "disi": 1694,
    "dori": 1695,
    "fanti": 1696,
    "fino": 1697,
    "faceva": 1698,
    "giorni": 1699,
    "giusti": 1700,
    "infino": 1701,
    "nè": 1702,
    "oltra": 1703,
    "perchè": 1704,
    "pericolo": 1705,
    "popoli": 1706,
    "publi": 1707,
    "stando": 1708,
    "sape": 1709,
    "vesco": 1710,
    "vinizi": 1711,
    "veggendo": 1712,
    "vergo": 1713,
    "\".": 1714,
    "14": 1715,
    "Bolo": 1716,
    "Francesco": 1717,
    "Monte": 1718,
    "Niccol": 1719,
    "Questa": 1720,
    "V.": 1721,
    "assal": 1722,
    "buon": 1723,
    "cara": 1724,
    "castello": 1725,
    "circa": 1726,
    "cosa,": 1727,
    "credo": 1728,
    "cristiani": 1729,
    "dici": 1730,
    "elli,": 1731,
    "esa,": 1732,
    "esse,": 1733,
    "feli": 1734,
    "fussi": 1735,
    "l'altre": 1736,
    "l'una": 1737,
    "mali": 1738,
    "mise": 1739,
    "moglie": 1740,
    "necessario": 1741,
    "nobili": 1742,
    "nuova": 1743,
    "oper": 1744,
    "partico": 1745,
    "piri": 1746,
    "portano": 1747,
    "ripu": 1748,
    "ritorn": 1749,
    "rispose": 1750,
    "sin": 1751,
    "sole": 1752,
    "th": 1753,
    "uto,": 1754,
    "vien": 1755,
    "voglio": 1756,
    "-.": 1757,
    "Ber": 1758,
    "LE": 1759,
    "Milano": 1760,
    "Perché": 1761,
    "buoni": 1762,
    "conosci": 1763,
    "danari": 1764,
    "filo": 1765,
    "forni": 1766,
    "glie,": 1767,
    "glio,": 1768,
    "grandezza": 1769,
    "isto": 1770,
    "len": 1771,
    "legg": 1772,
    "letto": 1773,
    "mala": 1774,
    "mese": 1775,
    "messa": 1776,
    "mani,": 1777,
    "mili": 1778,
    "pio": 1779,
    "pena": 1780,
    "primi": 1781,
    "rno": 1782,
    "ridu": 1783,
    "segna": 1784,
    "signoria": 1785,
    "soli": 1786,
    "star": 1787,
    "t,": 1788,
    "tta,": 1789,
    "unque,": 1790,
    "venti": 1791,
    "venuta": 1792,
    "vescovo": 1793,
    "voglia": 1794,
    "Cesare": 1795,
    "Francia,": 1796,
    "IO": 1797,
    "Mich": 1798,
    "avuto": 1799,
    "bor": 1800,
    "bbli": 1801,
    "cchio": 1802,
    "concor": 1803,
    "continuo": 1804,
    "d'ogni": 1805,
    "ella,": 1806,
    "ent": 1807,
    "fanci": 1808,
    "gon": 1809,
    "guarda": 1810,
    "ingan": 1811,
    "lau": 1812,
    "manca": 1813,
    "mettere": 1814,
    "moto": 1815,
    "passare": 1816,
    "quantità": 1817,
    "quie": 1818,
    "ritorna": 1819,
    "s,": 1820,
    "sch": 1821,
    "si.": 1822,
    "ved": 1823,
    "veduto": 1824,
    "vera": 1825,
    "vostra": 1826,
    "zion": 1827,
    "._": 1828,
    "Egli": 1829,
    "Italia,": 1830,
    "Peru": 1831,
    "Tra": 1832,
    "amico": 1833,
    "anni,": 1834,
    "anno,": 1835,
    "assi": 1836,
    "cap": 1837,
    "certa": 1838,
    "ch'egli": 1839,
    "condi": 1840,
    "corso": 1841,
    "delib": 1842,
    "erebbe": 1843,
    "fati": 1844,
    "fanciul": 1845,
    "gento": 1846,
    "giudicio": 1847,
    "insino": 1848,
    "leci": 1849,
    "meno,": 1850,
    "niuna": 1851,
    "osser": 1852,
    "passi": 1853,
    "poste": 1854,
    "potre": 1855,
    "que'": 1856,
    "roni": 1857,
    "republi": 1858,
    "simile": 1859,
    "taglia": 1860,
    "vato": 1861,
    "voluto": 1862,
    "zio,": 1863,
    "CI": 1864,
    "Era": 1865,
    "Id": 1866,
    "Iddio": 1867,
    "Sal": 1868,
    "aper": 1869,
    "acca": 1870,
    "acce": 1871,
    "all’": 1872,
    "archi": 1873,
    "armi": 1874,
    "cchia": 1875,
    "cardinale": 1876,
    "certe": 1877,
    "ciascuna": 1878,
    "conoscendo": 1879,
    "dona": 1880,
    "doni": 1881,
    "duo": 1882,
    "delli": 1883,
    "diverse": 1884,
    "e.": 1885,
    "esemp": 1886,
    "ficio": 1887,
    "ga,": 1888,
    "gnuo": 1889,
    "gravi": 1890,
    "guas": 1891,
    "ingegno": 1892,
    "loro.": 1893,
    "madre": 1894,
    "mangia": 1895,
    "marche": 1896,
    "morti": 1897,
    "ne,": 1898,
    "nono": 1899,
    "patri": 1900,
    "porto": 1901,
    "poteva": 1902,
    "principi": 1903,
    "punto": 1904,
    "resta": 1905,
    "ricchi": 1906,
    "sali": 1907,
    "sè": 1908,
    "sepol": 1909,
    "speranza": 1910,
    "sso,": 1911,
    "tì": 1912,
    "uman": 1913,
    "una,": 1914,
    "uomini,": 1915,
    "via,": 1916,
    "visi": 1917,
    "voleva": 1918,
    "»,": 1919,
    "30": 1920,
    "Che": 1921,
    "Com": 1922,
    "Fili": 1923,
    "IL": 1924,
    "Nella": 1925,
    "Roma,": 1926,
    "Sa": 1927,
    "Ven": 1928,
    "abbiamo": 1929,
    "andar": 1930,
    "avano": 1931,
    "baroni": 1932,
    "bia": 1933,
    "caccia": 1934,
    "camente": 1935,
    "capp": 1936,
    "chiesa": 1937,
    "cogno": 1938,
    "costoro": 1939,
    "dano": 1940,
    "debb": 1941,
    "delibera": 1942,
    "diri": 1943,
    "dito": 1944,
    "eria": 1945,
    "fron": 1946,
    "facesse": 1947,
    "grado": 1948,
    "imag": 1949,
    "inteso": 1950,
    "marito": 1951,
    "merc": 1952,
    "niuno": 1953,
    "parte,": 1954,
    "parlare": 1955,
    "partito": 1956,
    "paura": 1957,
    "persone": 1958,
    "potesse": 1959,
    "prese": 1960,
    "qualunque": 1961,
    "rate": 1962,
    "sangue": 1963,
    "sette": 1964,
    "siano": 1965,
    "soldati": 1966,
    "sonno": 1967,
    "ssi,": 1968,
    "tenuto": 1969,
    "tonio": 1970,
    "trattato": 1971,
    "vente": 1972,
    "versi": 1973,
    "zu": 1974,
    "zzo,": 1975,
    "\n\n                ": 1976,
    "),": 1977,
    "B>": 1978,
    "ES": 1979,
    "Ed": 1980,
    "Giuli": 1981,
    "LXXX": 1982,
    "Lor": 1983,
    "Niccolò": 1984,
    "Quando": 1985,
    "Quivi": 1986,
    "RA": 1987,
    "Terra": 1988,
    "________": 1989,
    "amma": 1990,
    "ane": 1991,
    "arci": 1992,
    "ban": 1993,
    "clu": 1994,
    "costumi": 1995,
    "crudel": 1996,
    "dri": 1997,
    "dunque": 1998,
    "effetto": 1999,
    "essino": 2000,
    "fratello": 2001,
    "fuoco": 2002,
    "ggio,": 2003,
    "ghil": 2004,
    "gi,": 2005,
    "giá": 2006,
    "governo": 2007,
    "incon": 2008,
    "infer": 2009,
    "maggiori": 2010,
    "maraviglio": 2011,
    "mbardi": 2012,
    "medesimi": 2013,
    "movi": 2014,
    "nata": 2015,
    "nato": 2016,
    "nobile": 2017,
    "puo": 2018,
    "passò": 2019,
    "piacevole": 2020,
    "poe": 2021,
    "poi,": 2022,
    "potendo": 2023,
    "quad": 2024,
    "qualità": 2025,
    "rar": 2026,
    "ranno": 2027,
    "riti": 2028,
    "similmente": 2029,
    "sono,": 2030,
    "tazione": 2031,
    "tengono": 2032,
    "virtú": 2033,
    "DO": 2034,
    "Fer": 2035,
    "Inghil": 2036,
    "LIB": 2037,
    "Lombardi": 2038,
    "Loren": 2039,
    "NA": 2040,
    "Pisani": 2041,
    "Su": 2042,
    "Tartari": 2043,
    "alto": 2044,
    "bene,": 2045,
    "bisogna": 2046,
    "cacci": 2047,
    "cità": 2048,
    "credere": 2049,
    "diede": 2050,
    "difen": 2051,
    "ex": 2052,
    "essono": 2053,
    "fare,": 2054,
    "favore": 2055,
    "fonda": 2056,
    "forze": 2057,
    "franzesi": 2058,
    "gale": 2059,
    "gare": 2060,
    "go,": 2061,
    "guerra,": 2062,
    "indu": 2063,
    "intra": 2064,
    "invi": 2065,
    "l'anima": 2066,
    "l'anno": 2067,
    "lontan": 2068,
    "mpi": 2069,
    "maestro": 2070,
    "nul": 2071,
    "noi,": 2072,
    "nuove": 2073,
    "opini": 2074,
    "puni": 2075,
    "pens": 2076,
    "percio": 2077,
    "pien": 2078,
    "posa": 2079,
    "presa": 2080,
    "rea": 2081,
    "rovina": 2082,
    "sapere": 2083,
    "scere": 2084,
    "tiene": 2085,
    "tini,": 2086,
    "tura,": 2087,
    "varie": 2088,
    "veniva": 2089,
    "19": 2090,
    "Asc": 2091,
    "CON": 2092,
    "Du": 2093,
    "Filippo": 2094,
    "Giovan": 2095,
    "VE": 2096,
    "ZI": 2097,
    "avi": 2098,
    "acopo": 2099,
    "anta": 2100,
    "bon": 2101,
    "bbero": 2102,
    "cch": 2103,
    "cardinali": 2104,
    "cipi": 2105,
    "cittadi": 2106,
    "cittadini,": 2107,
    "cominciarono": 2108,
    "conser": 2109,
    "cul": 2110,
    "desse": 2111,
    "denza": 2112,
    "desider": 2113,
    "dicono": 2114,
    "dieci": 2115,
    "differ": 2116,
    "diligen": 2117,
    "fecero": 2118,
    "fossero": 2119,
    "gato": 2120,
    "gentiluo": 2121,
    "gonfal": 2122,
    "isola": 2123,
    "ina,": 2124,
    "la.": 2125,
    "licen": 2126,
    "lora": 2127,
    "magi": 2128,
    "miei": 2129,
    "mul": 2130,
    "naturale": 2131,
    "nota": 2132,
    "orono": 2133,
    "percioché": 2134,
    "piano": 2135,
    "pieno": 2136,
    "poca": 2137,
    "porre": 2138,
    "pratica": 2139,
    "presto": 2140,
    "rag": 2141,
    "resto": 2142,
    "sendo": 2143,
    "sicu": 2144,
    "solu": 2145,
    "stato,": 2146,
    "tener": 2147,
    "trovò": 2148,
    "usanza": 2149,
    "vergogna": 2150,
    "voler": 2151,
    "...": 2152,
    "Del": 2153,
    "LIBRO": 2154,
    "Milano,": 2155,
    "Nuo": 2156,
    "Por": 2157,
    "Piero": 2158,
    "Val": 2159,
    "VIII": 2160,
    "Vostra": 2161,
    "ati": 2162,
    "alquanto": 2163,
    "altro,": 2164,
    "bbe,": 2165,
    "cel": 2166,
    "chiamata": 2167,
    "cili": 2168,
    "conf": 2169,
    "dall'": 2170,
    "degl'": 2171,
    "desidera": 2172,
    "eg": 2173,
    "eroi": 2174,
    "estre": 2175,
    "essand": 2176,
    "fama": 2177,
    "gnere": 2178,
    "gradi": 2179,
    "itali": 2180,
    "imperadore": 2181,
    "l'animo": 2182,
    "mio,": 2183,
    "mone": 2184,
    "mare,": 2185,
    "menti,": 2186,
    "nomina": 2187,
    "novelle": 2188,
    "otti": 2189,
    "passato": 2190,
    "pecca": 2191,
    "priva": 2192,
    "provincia": 2193,
    "rai": 2194,
    "ri.": 2195,
    "schia": 2196,
    "sto,": 2197,
    "scoper": 2198,
    "sieno": 2199,
    "simo": 2200,
    "suo,": 2201,
    "tano,": 2202,
    "tina": 2203,
    "tis": 2204,
    "tribu": 2205,
    "vengono": 2206,
    "vo,": 2207,
    "vuole": 2208,
    "zioni,": 2209,
    "28": 2210,
    "Alessand": 2211,
    "Andre": 2212,
    "Geno": 2213,
    "Gre": 2214,
    "L'": 2215,
    "LO": 2216,
    "LXX": 2217,
    "Napoli": 2218,
    "ONE": 2219,
    "Pisa": 2220,
    "aiuta": 2221,
    "alli": 2222,
    "alt": 2223,
    "boni": 2224,
    "cando": 2225,
    "cere": 2226,
    "ch'era": 2227,
    "chiu": 2228,
    "civi": 2229,
    "consenti": 2230,
    "consider": 2231,
    "dee": 2232,
    "dimento": 2233,
    "dissero": 2234,
    "dubb": 2235,
    "ducati": 2236,
    "esperi": 2237,
    "giustizia": 2238,
    "mesti": 2239,
    "mamente": 2240,
    "misu": 2241,
    "necessità": 2242,
    "oro,": 2243,
    "pag": 2244,
    "quante": 2245,
    "ricche": 2246,
    "rio,": 2247,
    "stà": 2248,
    "sare": 2249,
    "sensi": 2250,
    "soc": 2251,
    "sse.": 2252,
    "stava": 2253,
    "stima": 2254,
    "succ": 2255,
    "tero": 2256,
    "tino,": 2257,
    "tore,": 2258,
    "une,": 2259,
    "vennero": 2260,
    "voi,": 2261,
    "zian": 2262,
    "·l": 2263,
    "Baccio": 2264,
    "Bu": 2265,
    "Can": 2266,
    "Cer": 2267,
    "Dio,": 2268,
    "Messer": 2269,
    "Pu": 2270,
    "Sof": 2271,
    "Sole": 2272,
    "alte": 2273,
    "arlo": 2274,
    "avven": 2275,
    "avvenne": 2276,
    "briga": 2277,
    "cammino": 2278,
    "chiara": 2279,
    "com'": 2280,
    "corona": 2281,
    "crede": 2282,
    "danza": 2283,
    "dica": 2284,
    "dio,": 2285,
    "dipoi": 2286,
    "diffi": 2287,
    "dipinse": 2288,
    "dolce": 2289,
    "donne,": 2290,
    "duta": 2291,
    "eramente": 2292,
    "frati": 2293,
    "gati": 2294,
    "grazio": 2295,
    "illu": 2296,
    "impresa": 2297,
    "ini,": 2298,
    "lato": 2299,
    "moni": 2300,
    "mercatan": 2301,
    "migli": 2302,
    "mura": 2303,
    "os": 2304,
    "occhio": 2305,
    "pareva": 2306,
    "poli,": 2307,
    "poss": 2308,
    "potenti": 2309,
    "quindi": 2310,
    "ritra": 2311,
    "rom": 2312,
    "roman": 2313,
    "sca": 2314,
    "s'è": 2315,
    "santa": 2316,
    "seguente": 2317,
    "sene": 2318,
    "sommo": 2319,
    "sotti": 2320,
    "solleci": 2321,
    "ssione": 2322,
    "ttura": 2323,
    "tizia": 2324,
    "um": 2325,
    "uta,": 2326,
    "uomo,": 2327,
    "vino": 2328,
    "venuti": 2329,
    "vero,": 2330,
    "vide": 2331,
    "volle": 2332,
    "volontà": 2333,
    "zii": 2334,
    "\n\n                                ": 2335,
    "18": 2336,
    "Da": 2337,
    "Della": 2338,
    "Frances": 2339,
    "Gon": 2340,
    "MI": 2341,
    "Michela": 2342,
    "Michelagno": 2343,
    "Ora": 2344,
    "TTO": 2345,
    "aman": 2346,
    "aven": 2347,
    "andava": 2348,
    "ano.": 2349,
    "bel": 2350,
    "cta": 2351,
    "cto": 2352,
    "chiamano": 2353,
    "ché,": 2354,
    "cittá": 2355,
    "compra": 2356,
    "consigli": 2357,
    "corpi": 2358,
    "correre": 2359,
    "costui": 2360,
    "d'ar": 2361,
    "dirò": 2362,
    "disor": 2363,
    "domin": 2364,
    "dor": 2365,
    "dore,": 2366,
    "dubbio": 2367,
    "ei": 2368,
    "ezian": 2369,
    "finalmente": 2370,
    "gine": 2371,
    "ghi,": 2372,
    "grave": 2373,
    "ivi": 2374,
    "impor": 2375,
    "lani": 2376,
    "lina": 2377,
    "lli": 2378,
    "lasciando": 2379,
    "lesi": 2380,
    "legato": 2381,
    "li.": 2382,
    "lità": 2383,
    "lo.": 2384,
    "lume": 2385,
    "massimamente": 2386,
    "matt": 2387,
    "mangi": 2388,
    "marchese": 2389,
    "nasce": 2390,
    "niente": 2391,
    "novella": 2392,
    "onna": 2393,
    "ppi": 2394,
    "pati": 2395,
    "parendo": 2396,
    "parole,": 2397,
    "perico": 2398,
    "piedi": 2399,
    "posso": 2400,
    "posti": 2401,
    "popolo,": 2402,
    "potenza": 2403,
    "presi": 2404,
    "prezzo": 2405,
    "prigione": 2406,
    "quar": 2407,
    "ricevuto": 2408,
    "rocca": 2409,
    "secon": 2410,
    "segn": 2411,
    "sentendo": 2412,
    "tori,": 2413,
    "ttori": 2414,
    "tue": 2415,
    "univer": 2416,
    "velo": 2417,
    "ves": 2418,
    "voci": 2419,
    "volenti": 2420,
    "ww": 2421,
    "              ": 2422,
    "Baio": 2423,
    "Baioth": 2424,
    "Baiothno": 2425,
    "Baiothnoy": 2426,
    "Cap": 2427,
    "Gli": 2428,
    "Gior": 2429,
    "Giorgio": 2430,
    "IX": 2431,
    "Inghilterra": 2432,
    "Lorenzo": 2433,
    "MCC": 2434,
    "Nar": 2435,
    "QU": 2436,
    "REN": 2437,
    "Santi": 2438,
    "a;": 2439,
    "accompa": 2440,
    "adunque,": 2441,
    "andando": 2442,
    "animi": 2443,
    "appari": 2444,
    "asti": 2445,
    "avessi": 2446,
    "bellezza": 2447,
    "braccia": 2448,
    "causa": 2449,
    "coper": 2450,
    "co’": 2451,
    "contino": 2452,
    "conven": 2453,
    "credi": 2454,
    "deci": 2455,
    "deve": 2456,
    "dinanzi": 2457,
    "dire,": 2458,
    "dover": 2459,
    "egu": 2460,
    "egli,": 2461,
    "erà": 2462,
    "erò": 2463,
    "eziandio": 2464,
    "filoso": 2465,
    "fiorentini": 2466,
    "foresti": 2467,
    "gloria": 2468,
    "gnendo": 2469,
    "immag": 2470,
    "l'acqua": 2471,
    "lazione": 2472,
    "le.": 2473,
    "legge": 2474,
    "lome": 2475,
    "messe": 2476,
    "mpa": 2477,
    "mercatanti": 2478,
    "minore": 2479,
    "mondo,": 2480,
    "nes": 2481,
    "nell’": 2482,
    "ona,": 2483,
    "ono,": 2484,
    "panni": 2485,
    "parl": 2486,
    "piè": 2487,
    "piccola": 2488,
    "pigliare": 2489,
    "potea": 2490,
    "potente": 2491,
    "proposi": 2492,
    "quant": 2493,
    "ragioni": 2494,
    "rotta": 2495,
    "scritte": 2496,
    "se'": 2497,
    "so.": 2498,
    "stelle": 2499,
    "ttan": 2500,
    "ttando": 2501,
    "temp": 2502,
    "teria": 2503,
    "trovare": 2504,
    "ture": 2505,
    "vendono": 2506,
    "vie": 2507,
    "vicino": 2508,
    "volmente": 2509,
    "».": 2510,
    "      ": 2511,
    "13": 2512,
    "25": 2513,
    "AR": 2514,
    "CH": 2515,
    "Cosí": 2516,
    "III.": 2517,
    "Indiani": 2518,
    "Medici": 2519,
    "NOVE": 2520,
    "SE": 2521,
    "Un": 2522,
    "altrui": 2523,
    "avversa": 2524,
    "bate": 2525,
    "braccio": 2526,
    "cendo": 2527,
    "cata": 2528,
    "camera": 2529,
    "cinquanta": 2530,
    "cinquecento": 2531,
    "colle": 2532,
    "congiu": 2533,
    "conveni": 2534,
    "continuamente": 2535,
    "cuore": 2536,
    "dimora": 2537,
    "disce": 2538,
    "domanda": 2539,
    "dolente": 2540,
    "enza,": 2541,
    "farsi": 2542,
    "fosse,": 2543,
    "gal": 2544,
    "genera": 2545,
    "gonfaloni": 2546,
    "guerre": 2547,
    "ie": 2548,
    "it": 2549,
    "ito": 2550,
    "imperio": 2551,
    "ingiu": 2552,
    "lmente": 2553,
    "lett": 2554,
    "manco": 2555,
    "mbre": 2556,
    "mettendo": 2557,
    "mici,": 2558,
    "moltitudine": 2559,
    "monta": 2560,
    "mondo.": 2561,
    "obli": 2562,
    "ppe": 2563,
    "para": 2564,
    "passo": 2565,
    "padre,": 2566,
    "partita": 2567,
    "pontefice,": 2568,
    "qua,": 2569,
    "quin": 2570,
    "rina": 2571,
    "scono": 2572,
    "sten": 2573,
    "salvo": 2574,
    "servigio": 2575,
    "stò": 2576,
    "stanno": 2577,
    "tí": 2578,
    "teso": 2579,
    "testi": 2580,
    "tocca": 2581,
    "trava": 2582,
    "trovano": 2583,
    "ur": 2584,
    "vanti": 2585,
    "vita,": 2586,
    "vole,": 2587,
    "10": 2588,
    "20": 2589,
    "27": 2590,
    "Allora": 2591,
    "Cal": 2592,
    "Fed": 2593,
    "For": 2594,
    "Firenze.": 2595,
    "Iacopo": 2596,
    "II.": 2597,
    "Indie": 2598,
    "Napoli,": 2599,
    "Pisto": 2600,
    "Sofí": 2601,
    "Spagna,": 2602,
    "Tolome": 2603,
    "Turco": 2604,
    "Vinizi": 2605,
    "ago": 2606,
    "abbon": 2607,
    "acco": 2608,
    "alquanti": 2609,
    "alti": 2610,
    "alità": 2611,
    "ambi": 2612,
    "anti,": 2613,
    "animali": 2614,
    "ardo": 2615,
    "bales": 2616,
    "cti": 2617,
    "casa,": 2618,
    "ch'erano": 2619,
    "cielo": 2620,
    "collo": 2621,
    "condotto": 2622,
    "crea": 2623,
    "credendo": 2624,
    "ddo": 2625,
    "done": 2626,
    "dagli": 2627,
    "degna": 2628,
    "devano": 2629,
    "disa": 2630,
    "diffici": 2631,
    "discor": 2632,
    "discre": 2633,
    "disordi": 2634,
    "dolore": 2635,
    "eter": 2636,
    "fri": 2637,
    "fiumi": 2638,
    "fussino": 2639,
    "fuoco,": 2640,
    "fuor": 2641,
    "gini": 2642,
    "glorio": 2643,
    "grande,": 2644,
    "guada": 2645,
    "hi": 2646,
    "ia,": 2647,
    "igno": 2648,
    "lino": 2649,
    "lag": 2650,
    "lari": 2651,
    "luogo,": 2652,
    "magnifi": 2653,
    "minu": 2654,
    "nate": 2655,
    "nazioni": 2656,
    "narra": 2657,
    "nol": 2658,
    "nostre": 2659,
    "notte,": 2660,
    "of": 2661,
    "pron": 2662,
    "partì": 2663,
    "porti": 2664,
    "prendere": 2665,
    "pros": 2666,
    "rone": 2667,
    "ragion": 2668,
    "resi": 2669,
    "renta": 2670,
    "republica": 2671,
    "risposta": 2672,
    "rono,": 2673,
    "spen": 2674,
    "siamo": 2675,
    "stella": 2676,
    "stanza": 2677,
    "storie": 2678,
    "subi": 2679,
    "succe": 2680,
    "sulla": 2681,
    "ta;": 2682,
    "tenne": 2683,
    "teneva": 2684,
    "ti;": 2685,
    "tiran": 2686,
    "tolo": 2687,
    "tosi": 2688,
    "tras": 2689,
    "turba": 2690,
    "tuttavia": 2691,
    "venir": 2692,
    "\t\t": 2693,
    "             ": 2694,
    "29": 2695,
    "Are": 2696,
    "Antonio": 2697,
    "Bre": 2698,
    "D'": 2699,
    "DEL": 2700,
    "El": 2701,
    "Fe": 2702,
    "Federi": 2703,
    "Mas": 2704,
    "Mori": 2705,
    "Maria": 2706,
    "Marco": 2707,
    "Nuova": 2708,
    "ONI": 2709,
    "Porto": 2710,
    "Romani": 2711,
    "Ruber": 2712,
    "Ter": 2713,
    "XL": 2714,
    "atto": 2715,
    "acqua,": 2716,
    "accordo": 2717,
    "affa": 2718,
    "alloggia": 2719,
    "ambasciadori": 2720,
    "ana,": 2721,
    "anci": 2722,
    "arme,": 2723,
    "avvi": 2724,
    "besti": 2725,
    "bandi": 2726,
    "basso": 2727,
    "battaglia": 2728,
    "cco,": 2729,
    "cele": 2730,
    "cesso": 2731,
    "clina": 2732,
    "cra": 2733,
    "campa": 2734,
    "canto": 2735,
    "cerca": 2736,
    "combattere": 2737,
    "dè": 2738,
    "dea": 2739,
    "debbe": 2740,
    "descri": 2741,
    "desiderio": 2742,
    "diligenza": 2743,
    "dugento": 2744,
    "duoi": 2745,
    "effe": 2746,
    "enzia": 2747,
    "essione": 2748,
    "famiglia": 2749,
    "forti": 2750,
    "ger": 2751,
    "gazione": 2752,
    "gente,": 2753,
    "generale": 2754,
    "gnità": 2755,
    "hai": 2756,
    "ido": 2757,
    "infra": 2758,
    "infinite": 2759,
    "infiniti": 2760,
    "intenzione": 2761,
    "l'esercito": 2762,
    "l'ordine": 2763,
    "libertà": 2764,
    "magistra": 2765,
    "media": 2766,
    "mercan": 2767,
    "misero": 2768,
    "mobile": 2769,
    "montan": 2770,
    "monti,": 2771,
    "ne’": 2772,
    "nimici": 2773,
    "nocen": 2774,
    "ogn": 2775,
    "overo": 2776,
    "ordini": 2777,
    "poni": 2778,
    "ppa": 2779,
    "perare": 2780,
    "possibile": 2781,
    "prati": 2782,
    "promesso": 2783,
    "proprio": 2784,
    "provincie": 2785,
    "pul": 2786,
    "quest'": 2787,
    "r.": 2788,
    "scio": 2789,
    "spiri": 2790,
    "santo": 2791,
    "se.": 2792,
    "sicura": 2793,
    "spaven": 2794,
    "ssima,": 2795,
    "stessa": 2796,
    "tate": 2797,
    "testo": 2798,
    "terzo": 2799,
    "to:": 2800,
    "vecchi": 2801,
    "vi.": 2802,
    "vista": 2803,
    "vità": 2804,
    "viaggio": 2805,
    "vittoria": 2806,
    "volto": 2807,
    "volentieri": 2808,
    "”.": 2809,
    "       ": 2810,
    "           ": 2811,
    "Andrea": 2812,
    "Cap.": 2813,
    "DELL": 2814,
    "Ess": 2815,
    "Eu": 2816,
    "FI": 2817,
    "Gran": 2818,
    "Machi": 2819,
    "Mosco": 2820,
    "PO": 2821,
    "PRI": 2822,
    "Pon": 2823,
    "Pisa,": 2824,
    "Ra": 2825,
    "Sim": 2826,
    "Te": 2827,
    "Ve": 2828,
    "Viniziani": 2829,
    "ZA": 2830,
    "_Come": 2831,
    "abitatori": 2832,
    "acc": 2833,
    "accompagna": 2834,
    "amoro": 2835,
    "animali,": 2836,
    "appare": 2837,
    "arla": 2838,
    "banda": 2839,
    "bell": 2840,
    "bocca": 2841,
    "bru": 2842,
    "buone": 2843,
    "capitani": 2844,
    "ch'è": 2845,
    "cogni": 2846,
    "comune,": 2847,
    "comuni": 2848,
    "confi": 2849,
    "conti": 2850,
    "conviene": 2851,
    "contrario": 2852,
    "dde": 2853,
    "dà": 2854,
    "d'esser": 2855,
    "date": 2856,
    "davanti": 2857,
    "dallo": 2858,
    "dall’": 2859,
    "dersi": 2860,
    "dimenti": 2861,
    "divina": 2862,
    "doppo": 2863,
    "dosso": 2864,
    "dott": 2865,
    "dovesse": 2866,
    "dubita": 2867,
    "d’ogni": 2868,
    "enti,": 2869,
    "entrò": 2870,
    "eso": 2871,
    "essi,": 2872,
    "facilmente": 2873,
    "fuora": 2874,
    "fuori,": 2875,
    "gin": 2876,
    "galee": 2877,
    "getta": 2878,
    "gentili": 2879,
    "gno,": 2880,
    "iddi": 2881,
    "istesso": 2882,
    "incontro": 2883,
    "inganna": 2884,
    "intelle": 2885,
    "line": 2886,
    "lasciò": 2887,
    "luce": 2888,
    "lunghe": 2889,
    "massime": 2890,
    "manten": 2891,
    "mandando": 2892,
    "marmo": 2893,
    "mattina": 2894,
    "meni": 2895,
    "mercanzi": 2896,
    "modo,": 2897,
    "molti,": 2898,
    "mona": 2899,
    "mostrò": 2900,
    "muovere": 2901,
    "oste": 2902,
    "ordin": 2903,
    "paese,": 2904,
    "paesi": 2905,
    "perpe": 2906,
    "piazza": 2907,
    "pietà": 2908,
    "potrebbe": 2909,
    "propria": 2910,
    "quantunque": 2911,
    "quattrocento": 2912,
    "quello,": 2913,
    "rini": 2914,
    "reame": 2915,
    "reno": 2916,
    "rido": 2917,
    "ritornò": 2918,
    "romani": 2919,
    "spar": 2920,
    "studi": 2921,
    "sapeva": 2922,
    "scal": 2923,
    "scritta": 2924,
    "segni": 2925,
    "seconda": 2926,
    "sic": 2927,
    "sodis": 2928,
    "sogliono": 2929,
    "spese": 2930,
    "stette": 2931,
    "trenta": 2932,
    "tagli": 2933,
    "tato,": 2934,
    "termine": 2935,
    "toli": 2936,
    "torre": 2937,
    "tui": 2938,
    "ultimo": 2939,
    "venisse": 2940,
    "viniziani": 2941,
    "volte,": 2942,
    "'n": 2943,
    "16": 2944,
    "33": 2945,
    "</": 2946,
    "Alber": 2947,
    "Be": 2948,
    "Ben": 2949,
    "Bologna": 2950,
    "Cha": 2951,
    "Cle": 2952,
    "COR": 2953,
    "Essendo": 2954,
    "Leone": 2955,
    "Mad": 2956,
    "Machiav": 2957,
    "Michelagnolo": 2958,
    "Pe": 2959,
    "Prete": 2960,
    "Questi": 2961,
    "SER": 2962,
    "SSI": 2963,
    "Siena": 2964,
    "Spagna": 2965,
    "ZIONE": 2966,
    "atta": 2967,
    "accon": 2968,
    "accu": 2969,
    "aff": 2970,
    "aggiun": 2971,
    "almeno": 2972,
    "alo": 2973,
    "alta": 2974,
    "alcuno,": 2975,
    "ammira": 2976,
    "ancora,": 2977,
    "antiche": 2978,
    "arcivescovo": 2979,
    "bili,": 2980,
    "bilità": 2981,
    "cagioni": 2982,
    "catti": 2983,
    "cavallo,": 2984,
    "colpa": 2985,
    "conclu": 2986,
    "consu": 2987,
    "conoscere": 2988,
    "cresci": 2989,
    "dò": 2990,
    "d'acqua": 2991,
    "d'avere": 2992,
    "dante": 2993,
    "danari,": 2994,
    "debo": 2995,
    "deliber": 2996,
    "dissi": 2997,
    "divo": 2998,
    "dizione": 2999,
    "diceva": 3000,
    "dominio": 3001,
    "età": 3002,
    "endo,": 3003,
    "fero": 3004,
    "festa": 3005,
    "farlo": 3006,
    "fermo": 3007,
    "figliuola": 3008,
    "figura": 3009,
    "fortuna,": 3010,
    "frat": 3011,
    "fugg": 3012,
    "fussero": 3013,
    "giovani": 3014,
    "glieri": 3015,
    "gnuoli": 3016,
    "imperi": 3017,
    "ino.": 3018,
    "istoria": 3019,
    "l'al": 3020,
    "lagrime": 3021,
    "lasciare": 3022,
    "lavora": 3023,
    "levò": 3024,
    "lungamente": 3025,
    "mandarono": 3026,
    "mia,": 3027,
    "morì": 3028,
    "mostrando": 3029,
    "mostrare": 3030,
    "movimento": 3031,
    "ncipi": 3032,
    "nac": 3033,
    "nemici": 3034,
    "nomi": 3035,
    "nondimeno,": 3036,
    "nulla": 3037,
    "oscu": 3038,
    "occi": 3039,
    "onne": 3040,
    "opinione": 3041,
    "p.": 3042,
    "parti,": 3043,
    "piangendo": 3044,
    "piccolo": 3045,
    "poveri": 3046,
    "portato": 3047,
    "prí": 3048,
    "príncipi": 3049,
    "quo": 3050,
    "quelli,": 3051,
    "quella,": 3052,
    "rá": 3053,
    "raccon": 3054,
    "re:": 3055,
    "rever": 3056,
    "religio": 3057,
    "rie,": 3058,
    "risti": 3059,
    "sale": 3060,
    "sdegno": 3061,
    "sera": 3062,
    "sini": 3063,
    "s'ap": 3064,
    "s'era": 3065,
    "sacri": 3066,
    "savio": 3067,
    "salute": 3068,
    "scher": 3069,
    "sepoltura": 3070,
    "signore,": 3071,
    "sorti": 3072,
    "sosten": 3073,
    "sua.": 3074,
    "tone": 3075,
    "tata": 3076,
    "terza": 3077,
    "tornò": 3078,
    "trar": 3079,
    "trovar": 3080,
    "truovano": 3081,
    "tte,": 3082,
    "ttista": 3083,
    "tto.": 3084,
    "tutti,": 3085,
    "ubbi": 3086,
    "udito": 3087,
    "vale": 3088,
    "vel": 3089,
    "vò": 3090,
    "v'è": 3091,
    "varia": 3092,
    "valoro": 3093,
    "venendo": 3094,
    "venire,": 3095,
    "verti": 3096,
    "vile": 3097,
    "viva": 3098,
    "vivono": 3099,
    "vizz": 3100,
    "vogliono": 3101,
    "volu": 3102,
    "zo,": 3103,
    "zi,": 3104,
    "\n\n     ": 3105,
    "'m": 3106,
    "Alessandro": 3107,
    "Bon": 3108,
    "Bologna,": 3109,
    "Cat": 3110,
    "Cre": 3111,
    "Camil": 3112,
    "Chaam": 3113,
    "DA": 3114,
    "ET": 3115,
    "Lucca": 3116,
    "Maes": 3117,
    "Machiavelli": 3118,
    "PER": 3119,
    "Pau": 3120,
    "Ta": 3121,
    "Tal": 3122,
    "Tor": 3123,
    "Ur": 3124,
    "Ungh": 3125,
    "Urb": 3126,
    "Va": 3127,
    "ara": 3128,
    "aria": 3129,
    "accetta": 3130,
    "affe": 3131,
    "almente,": 3132,
    "ambasciadore": 3133,
    "amore,": 3134,
    "andarono": 3135,
    "andasse": 3136,
    "argo": 3137,
    "armata": 3138,
    "arriva": 3139,
    "artefici": 3140,
    "asino": 3141,
    "assai,": 3142,
    "avuta": 3143,
    "bio": 3144,
    "barba": 3145,
    "basta": 3146,
    "cani": 3147,
    "caci": 3148,
    "caro": 3149,
    "cate": 3150,
    "cati": 3151,
    "cavano": 3152,
    "ccio,": 3153,
    "cemente": 3154,
    "ciascun": 3155,
    "copia": 3156,
    "cotali": 3157,
    "compagnia,": 3158,
    "contento": 3159,
    "d'arme": 3160,
    "d'oro,": 3161,
    "dava": 3162,
    "danna": 3163,
    "dita": 3164,
    "div": 3165,
    "diletta": 3166,
    "donna,": 3167,
    "dui": 3168,
    "eccellenti": 3169,
    "eglino": 3170,
    "eni": 3171,
    "erano,": 3172,
    "eri.": 3173,
    "errori": 3174,
    "esto,": 3175,
    "facevano": 3176,
    "frutti": 3177,
    "gl’": 3178,
    "giudic": 3179,
    "gola": 3180,
    "gonfaloniere": 3181,
    "grandissimi": 3182,
    "guisa": 3183,
    "imi": 3184,
    "iu": 3185,
    "inclina": 3186,
    "inimici": 3187,
    "l'opera": 3188,
    "legno": 3189,
    "lei,": 3190,
    "mba": 3191,
    "mas": 3192,
    "materia": 3193,
    "mane": 3194,
    "manifesta": 3195,
    "medi": 3196,
    "mesi": 3197,
    "mente.": 3198,
    "minori": 3199,
    "mosso": 3200,
    "monte": 3201,
    "moneta": 3202,
    "morte,": 3203,
    "nando": 3204,
    "n'andò": 3205,
    "nei": 3206,
    "nessu": 3207,
    "nimico": 3208,
    "nove": 3209,
    "ov": 3210,
    "ognuno": 3211,
    "onori": 3212,
    "ordinato": 3213,
    "parenti": 3214,
    "pensando": 3215,
    "piacer": 3216,
    "pietre": 3217,
    "posse": 3218,
    "portar": 3219,
    "portate": 3220,
    "presta": 3221,
    "presenti": 3222,
    "principale": 3223,
    "provve": 3224,
    "quaranta": 3225,
    "racco": 3226,
    "rap": 3227,
    "razione": 3228,
    "rico": 3229,
    "ritorno": 3230,
    "ricchezze": 3231,
    "santi": 3232,
    "sche": 3233,
    "sfor": 3234,
    "spo": 3235,
    "scritti": 3236,
    "secre": 3237,
    "senten": 3238,
    "sità": 3239,
    "speci": 3240,
    "spezi": 3241,
    "stran": 3242,
    "stavano": 3243,
    "supp": 3244,
    "successo": 3245,
    "superfici": 3246,
    "tran": 3247,
    "tten": 3248,
    "tema": 3249,
    "termina": 3250,
    "tiranni": 3251,
    "trecento": 3252,
    "trovato": 3253,
    "ttano": 3254,
    "ttore": 3255,
    "un’": 3256,
    "utile": 3257,
    "vella": 3258,
    "valenti": 3259,
    "vennono": 3260,
    "viniziani,": 3261,
    "vivere,": 3262,
    "vola": 3263,
    "vostri": 3264,
    "xi": 3265,
    "                 ": 3266,
    "----------------": 3267,
    "17": 3268,
    "<B>": 3269,
    "</B>": 3270,
    "Bianci": 3271,
    "Biancifio": 3272,
    "Cristi": 3273,
    "Cesare,": 3274,
    "Colon": 3275,
    "Discor": 3276,
    "Ferra": 3277,
    "Fece": 3278,
    "Figliuo": 3279,
    "GLI": 3280,
    "Genti": 3281,
    "Genova": 3282,
    "Giulio": 3283,
    "Las": 3284,
    "Men": 3285,
    "Mess": 3286,
    "Mor": 3287,
    "Manto": 3288,
    "Medici,": 3289,
    "Oim": 3290,
    "Papa": 3291,
    "Pari": 3292,
    "Ser": 3293,
    "Santa": 3294,
    "TU": 3295,
    "Terra,": 3296,
    "Toscana": 3297,
    "Vol": 3298,
    "XV": 3299,
    "age": 3300,
    "accidente": 3301,
    "affi": 3302,
    "aggiu": 3303,
    "allegre": 3304,
    "altrui,": 3305,
    "antica": 3306,
    "appa": 3307,
    "arono,": 3308,
    "averebbe": 3309,
    "bello": 3310,
    "bass": 3311,
    "battaglia,": 3312,
    "biasi": 3313,
    "bile,": 3314,
    "breve": 3315,
    "bus": 3316,
    "cau": 3317,
    "cchio,": 3318,
    "certamente": 3319,
    "chiaro": 3320,
    "cotal": 3321,
    "colla": 3322,
    "comm": 3323,
    "congiun": 3324,
    "coni": 3325,
    "conqui": 3326,
    "concordia": 3327,
    "conserva": 3328,
    "considerando": 3329,
    "corro": 3330,
    "croce": 3331,
    "cupi": 3332,
    "deri": 3333,
    "dero": 3334,
    "d'aver": 3335,
    "davano": 3336,
    "da’": 3337,
    "degne": 3338,
    "disegna": 3339,
    "dità": 3340,
    "dicea": 3341,
    "dispera": 3342,
    "dovi": 3343,
    "entrata": 3344,
    "ere.": 3345,
    "essendosi": 3346,
    "fallo": 3347,
    "ffi": 3348,
    "ffici": 3349,
    "fami": 3350,
    "facciata": 3351,
    "fargli": 3352,
    "fedeli": 3353,
    "gento,": 3354,
    "gentile": 3355,
    "ggono": 3356,
    "giorno,": 3357,
    "giovine": 3358,
    "grafia": 3359,
    "iddii": 3360,
    "infi": 3361,
    "inna": 3362,
    "insegn": 3363,
    "infeli": 3364,
    "innanzi,": 3365,
    "intende": 3366,
    "lí": 3367,
    "levar": 3368,
    "liberamente": 3369,
    "loro;": 3370,
    "l’altra": 3371,
    "mò": 3372,
    "materi": 3373,
    "maraviglia": 3374,
    "mbra": 3375,
    "menta": 3376,
    "menti.": 3377,
    "moti": 3378,
    "monti": 3379,
    "naturalmente": 3380,
    "nobil": 3381,
    "nuovi": 3382,
    "odio": 3383,
    "padri": 3384,
    "patria": 3385,
    "pene": 3386,
    "perio": 3387,
    "person": 3388,
    "piena": 3389,
    "povero": 3390,
    "potrà": 3391,
    "potestà": 3392,
    "preda": 3393,
    "presono": 3394,
    "propor": 3395,
    "provi": 3396,
    "pruden": 3397,
    "pubbli": 3398,
    "rari": 3399,
    "rebbono": 3400,
    "regno,": 3401,
    "rii": 3402,
    "rimase": 3403,
    "rimedio": 3404,
    "rispose:": 3405,
    "rovin": 3406,
    "sapu": 3407,
    "saria": 3408,
    "satis": 3409,
    "sempli": 3410,
    "signifi": 3411,
    "signora": 3412,
    "sospetto": 3413,
    "spesse": 3414,
    "stru": 3415,
    "storia": 3416,
    "subitamente": 3417,
    "tario": 3418,
    "tanza": 3419,
    "tenuti": 3420,
    "terra.": 3421,
    "trattare": 3422,
    "truova": 3423,
    "ttono": 3424,
    "ttova": 3425,
    "usi": 3426,
    "ultima": 3427,
    "v.": 3428,
    "var": 3429,
    "valente": 3430,
    "vedi": 3431,
    "vettova": 3432,
    "vedendosi": 3433,
    "verità": 3434,
    "vive": 3435,
    "vorre": 3436,
    "\n   ": 3437,
    "\n     ": 3438,
    "               ": 3439,
    ").": 3440,
    "Ala": 3441,
    "Ang": 3442,
    "Bene": 3443,
    "Battista": 3444,
    "Berna": 3445,
    "CE": 3446,
    "Cio": 3447,
    "Chiesa,": 3448,
    "Dante": 3449,
    "Dona": 3450,
    "DELLA": 3451,
    "EDI": 3452,
    "Fab": 3453,
    "Fiorenza": 3454,
    "Ger": 3455,
    "L’": 3456,
    "Ma,": 3457,
    "Me": 3458,
    "NOVELLA": 3459,
    "Nostra": 3460,
    "Otto": 3461,
    "Par": 3462,
    "Pio": 3463,
    "Però": 3464,
    "Poi": 3465,
    "Raffa": 3466,
    "SO": 3467,
    "Sar": 3468,
    "Sono": 3469,
    "Santo": 3470,
    "Sole,": 3471,
    "Tro": 3472,
    "Tartari,": 3473,
    "US": 3474,
    "Voi": 3475,
    "XII": 3476,
    "adietro": 3477,
    "ate": 3478,
    "atte": 3479,
    "aia": 3480,
    "allegra": 3481,
    "altri.": 3482,
    "amante": 3483,
    "ana.": 3484,
    "anza,": 3485,
    "andavano": 3486,
    "animale": 3487,
    "anzi,": 3488,
    "appe": 3489,
    "appo": 3490,
    "arro": 3491,
    "bo,": 3492,
    "battu": 3493,
    "basti": 3494,
    "bassà": 3495,
    "bian": 3496,
    "cella": 3497,
    "carboni": 3498,
    "carne": 3499,
    "castella": 3500,
    "ch’erano": 3501,
    "cittadino": 3502,
    "cora": 3503,
    "compi": 3504,
    "consue": 3505,
    "conosce": 3506,
    "costume": 3507,
    "cresce": 3508,
    "crescere": 3509,
    "d'O": 3510,
    "d'uno": 3511,
    "debito": 3512,
    "debba": 3513,
    "dena": 3514,
    "diamo": 3515,
    "disegno": 3516,
    "dite": 3517,
    "distru": 3518,
    "disse,": 3519,
    "donde": 3520,
    "dovico": 3521,
    "dubitando": 3522,
    "eccellente": 3523,
    "eletto": 3524,
    "ellano": 3525,
    "eloqu": 3526,
    "enzia,": 3527,
    "entrare": 3528,
    "eran": 3529,
    "eremo": 3530,
    "etter": 3531,
    "fante": 3532,
    "famo": 3533,
    "fazione": 3534,
    "fare.": 3535,
    "farebbe": 3536,
    "fatiche": 3537,
    "fatto.": 3538,
    "ficato": 3539,
    "figliuolo,": 3540,
    "fiorini": 3541,
    "forte,": 3542,
    "franzesi,": 3543,
    "frutto": 3544,
    "furo": 3545,
    "furon": 3546,
    "gagli": 3547,
    "genti,": 3548,
    "gia,": 3549,
    "governatore": 3550,
    "grazia,": 3551,
    "grandi,": 3552,
    "greco": 3553,
    "ign": 3554,
    "impedi": 3555,
    "imperadore,": 3556,
    "incredi": 3557,
    "incontan": 3558,
    "interpre": 3559,
    "invidia": 3560,
    "l'altra,": 3561,
    "lati": 3562,
    "lasciato": 3563,
    "levan": 3564,
    "lettera": 3565,
    "lici": 3566,
    "lio": 3567,
    "libri": 3568,
    "lontano": 3569,
    "luoghi,": 3570,
    "mangiare": 3571,
    "marina": 3572,
    "mendo": 3573,
    "mità": 3574,
    "muro": 3575,
    "nasc": 3576,
    "offen": 3577,
    "onesta": 3578,
    "orecchi": 3579,
    "parimente": 3580,
    "perduto": 3581,
    "persua": 3582,
    "picca": 3583,
    "polo": 3584,
    "potri": 3585,
    "pover": 3586,
    "pongono": 3587,
    "poté": 3588,
    "prie": 3589,
    "pugna": 3590,
    "qui,": 3591,
    "quell'": 3592,
    "regni": 3593,
    "reina": 3594,
    "religione": 3595,
    "ricom": 3596,
    "riso": 3597,
    "riusci": 3598,
    "riputazione": 3599,
    "risponde": 3600,
    "romano": 3601,
    "sacche": 3602,
    "scul": 3603,
    "solo,": 3604,
    "sop": 3605,
    "solda": 3606,
    "ssime,": 3607,
    "strin": 3608,
    "statue": 3609,
    "stimo": 3610,
    "studio": 3611,
    "sé,": 3612,
    "tre,": 3613,
    "tali,": 3614,
    "tardi": 3615,
    "tedes": 3616,
    "tempera": 3617,
    "tenea": 3618,
    "tiva": 3619,
    "tra'": 3620,
    "ttendo": 3621,
    "ttò": 3622,
    "uso": 3623,
    "v’": 3624,
    "vedute": 3625,
    "vendetta": 3626,
    "verrà": 3627,
    "vere,": 3628,
    "virtuo": 3629,
    "volse": 3630,
    "zione;": 3631,
    "zzi,": 3632,
    "·lla": 3633,
    "         ": 3634,
    "          ": 3635,
    ".\"": 3636,
    ".it": 3637,
    "1.": 3638,
    "3.": 3639,
    "Aposto": 3640,
    "Aqui": 3641,
    "Av": 3642,
    "Ascali": 3643,
    "Ascel": 3644,
    "Ascalion": 3645,
    "Bavero": 3646,
    "Bernab": 3647,
    "Borgo": 3648,
    "Cosimo": 3649,
    "E,": 3650,
    "ERI": 3651,
    "Ene": 3652,
    "Et": 3653,
    "ENTI": 3654,
    "ESSER": 3655,
    "Federigo": 3656,
    "GI": 3657,
    "Ga": 3658,
    "Go": 3659,
    "Gonnella": 3660,
    "Illu": 3661,
    "Illustri": 3662,
    "India": 3663,
    "MESSER": 3664,
    "Mal": 3665,
    "Mario": 3666,
    "NE": 3667,
    "PI": 3668,
    "Parigi,": 3669,
    "Perugini": 3670,
    "Queste": 3671,
    "STO": 3672,
    "Sci": 3673,
    "Sien": 3674,
    "TTA": 3675,
    "Ti": 3676,
    "Tutta": 3677,
    "VO": 3678,
    "Verona": 3679,
    "________________": 3680,
    "ag": 3681,
    "abband": 3682,
    "abito": 3683,
    "acque": 3684,
    "acquistato": 3685,
    "ador": 3686,
    "affli": 3687,
    "altera": 3688,
    "altezza": 3689,
    "altret": 3690,
    "ane,": 3691,
    "anto": 3692,
    "andato": 3693,
    "andomi": 3694,
    "appro": 3695,
    "arne": 3696,
    "ascol": 3697,
    "ass": 3698,
    "assali": 3699,
    "aspettando": 3700,
    "aspettare": 3701,
    "avessero": 3702,
    "aveva,": 3703,
    "ba,": 3704,
    "beri": 3705,
    "bol": 3706,
    "battaglie": 3707,
    "bellissime": 3708,
    "benissimo": 3709,
    "brigata": 3710,
    "casi": 3711,
    "ch'ella": 3712,
    "chiesa,": 3713,
    "città.": 3714,
    "co;": 3715,
    "coltà": 3716,
    "commo": 3717,
    "concio": 3718,
    "cone": 3719,
    "contemp": 3720,
    "conto": 3721,
    "condizione": 3722,
    "conosciuto": 3723,
    "contado": 3724,
    "continovo": 3725,
    "correr": 3726,
    "coste": 3727,
    "creduto": 3728,
    "crudeltà": 3729,
    "d'intorno": 3730,
    "dalli": 3731,
    "deliberò": 3732,
    "dere.": 3733,
    "dice,": 3734,
    "difficile": 3735,
    "dodici": 3736,
    "dottrina": 3737,
    "ebbero": 3738,
    "ebbono": 3739,
    "ecce": 3740,
    "evi": 3741,
    "enze": 3742,
    "esercito,": 3743,
    "essimo": 3744,
    "eterna": 3745,
    "faccendo": 3746,
    "facea": 3747,
    "fede,": 3748,
    "figure": 3749,
    "fossi": 3750,
    "fu,": 3751,
    "fui": 3752,
    "gasti": 3753,
    "gere": 3754,
    "gitta": 3755,
    "giornata": 3756,
    "giorni,": 3757,
    "igi": 3758,
    "impa": 3759,
    "incontanente": 3760,
    "inganno": 3761,
    "innamo": 3762,
    "insieme,": 3763,
    "l'amore": 3764,
    "l'avesse": 3765,
    "l'hanno": 3766,
    "l'in": 3767,
    "l'oro": 3768,
    "l'arte": 3769,
    "lare,": 3770,
    "larga": 3771,
    "laude": 3772,
    "messi": 3773,
    "maggiore,": 3774,
    "male,": 3775,
    "mandar": 3776,
    "mandare": 3777,
    "me.": 3778,
    "meco": 3779,
    "mercanzie": 3780,
    "mercatanzie": 3781,
    "mettono": 3782,
    "miei,": 3783,
    "migliore": 3784,
    "minor": 3785,
    "moglie,": 3786,
    "molto,": 3787,
    "morta": 3788,
    "morto,": 3789,
    "morire": 3790,
    "n’": 3791,
    "nazione": 3792,
    "notizia": 3793,
    "nostri,": 3794,
    "o.": 3795,
    "obbe": 3796,
    "occor": 3797,
    "occasione": 3798,
    "occupa": 3799,
    "ondo": 3800,
    "orna": 3801,
    "ordine,": 3802,
    "panno": 3803,
    "pone": 3804,
    "papa,": 3805,
    "parve": 3806,
    "parea": 3807,
    "parola": 3808,
    "passar": 3809,
    "passati": 3810,
    "pensiero": 3811,
    "perdere": 3812,
    "peroc": 3813,
    "pianto": 3814,
    "piccoli": 3815,
    "podes": 3816,
    "ponendo": 3817,
    "porta,": 3818,
    "portò": 3819,
    "portava": 3820,
    "posero": 3821,
    "prender": 3822,
    "propin": 3823,
    "quarta": 3824,
    "raccol": 3825,
    "rato,": 3826,
    "ragionamenti": 3827,
    "res": 3828,
    "riano": 3829,
    "riche": 3830,
    "ritrova": 3831,
    "riceve": 3832,
    "rispetto": 3833,
    "rompere": 3834,
    "sanno": 3835,
    "sano": 3836,
    "sforza": 3837,
    "savi": 3838,
    "sala": 3839,
    "salva": 3840,
    "scrittori": 3841,
    "sito": 3842,
    "sogge": 3843,
    "soper": 3844,
    "sovente": 3845,
    "sommamente": 3846,
    "sorte,": 3847,
    "sostenere": 3848,
    "stampa": 3849,
    "stessi": 3850,
    "suddi": 3851,
    "sulle": 3852,
    "suoi,": 3853,
    "superficie": 3854,
    "tel": 3855,
    "tere": 3856,
    "tanto,": 3857,
    "teme": 3858,
    "temendo": 3859,
    "tempi,": 3860,
    "tenendo": 3861,
    "terreno": 3862,
    "timore": 3863,
    "togli": 3864,
    "tolta": 3865,
    "tornar": 3866,
    "trado": 3867,
    "tu,": 3868,
    "tuoi": 3869,
    "umani": 3870,
    "usc": 3871,
    "ute,": 3872,
    "uti,": 3873,
    "unche": 3874,
    "valore": 3875,
    "vecchio": 3876,
    "vedo": 3877,
    "vedeva": 3878,
    "veduta": 3879,
    "velocità": 3880,
    "vivo": 3881,
    "vicini": 3882,
    "vinto": 3883,
    "voci,": 3884,
    "z,": 3885,
    "\n\n   ": 3886,
    "//": 3887,
    "//ww": 3888,
    "//www": 3889,
    "//www.": 3890,
    "://www.": 3891,
    "Arri": 3892,
    "Bocca": 3893,
    "Boni": 3894,
    "Cen": 3895,
    "Cin": 3896,
    "Clau": 3897,
    "Cro": 3898,
    "Camillo": 3899,
    "Claudio": 3900,
    "Costu": 3901,
    "Così": 3902,
    "Conte": 3903,
    "Deh": 3904,
    "Die": 3905,
    "Disse": 3906,
    "Fra": 3907,
    "Filo": 3908,
    "GNO": 3909,
    "ITO": 3910,
    "LA": 3911,
    "Lib": 3912,
    "Lodovico": 3913,
    "Luigi": 3914,
    "Moro": 3915,
    "MCCC": 3916,
    "Magna": 3917,
    "Nor": 3918,
    "Nov": 3919,
    "PRO": 3920,
    "PRIMO": 3921,
    "Paulo": 3922,
    "Perciò": 3923,
    "Ridol": 3924,
    "Rosso": 3925,
    "Ruberto": 3926,
    "Sarsi": 3927,
    "Spiri": 3928,
    "Sansov": 3929,
    "TRI": 3930,
    "UO": 3931,
    "UTO": 3932,
    "amen": 3933,
    "arebbe": 3934,
    "atti": 3935,
    "ava": 3936,
    "avari": 3937,
    "aband": 3938,
    "abitano": 3939,
    "accidenti": 3940,
    "addosso": 3941,
    "adora": 3942,
    "allegrezza": 3943,
    "altro.": 3944,
    "animo,": 3945,
    "antichi,": 3946,
    "arbo": 3947,
    "artiglieri": 3948,
    "assicura": 3949,
    "attendere": 3950,
    "avrebbe": 3951,
    "bassa": 3952,
    "boc": 3953,
    "bellissima": 3954,
    "buono,": 3955,
    "celli": 3956,
    "ca.": 3957,
    "carico": 3958,
    "caritá": 3959,
    "castello,": 3960,
    "cavalc": 3961,
    "cavaliere": 3962,
    "cavalieri,": 3963,
    "celebra": 3964,
    "centro": 3965,
    "cercando": 3966,
    "cercare": 3967,
    "chio,": 3968,
    "chiamava": 3969,
    "ch’egli": 3970,
    "cie,": 3971,
    "cognizione": 3972,
    "colori": 3973,
    "confe": 3974,
    "conse": 3975,
    "convene": 3976,
    "conduce": 3977,
    "consuma": 3978,
    "contrarie": 3979,
    "corte,": 3980,
    "credeva": 3981,
    "cresc": 3982,
    "dunque,": 3983,
    "dicendo:": 3984,
    "difesa": 3985,
    "difficul": 3986,
    "diremo": 3987,
    "dissono": 3988,
    "divini": 3989,
    "doti": 3990,
    "dormi": 3991,
    "dovea": 3992,
    "empi": 3993,
    "eti": 3994,
    "elo,": 3995,
    "entro": 3996,
    "era.": 3997,
    "espe": 3998,
    "est": 3999,
    "estra": 4000,
    "esecu": 4001,
    "essa,": 4002,
    "fes": 4003,
    "ffa": 4004,
    "fabb": 4005,
    "fasti": 4006,
    "farà": 4007,
    "farò": 4008,
    "fedel": 4009,
    "fecto": 4010,
    "fine,": 4011,
    "fiorentino": 4012,
    "fondo": 4013,
    "fresco": 4014,
    "fronte": 4015,
    "fuggire": 4016,
    "gando": 4017,
    "gazioni": 4018,
    "genove": 4019,
    "gentiluomini": 4020,
    "ggiun": 4021,
    "giardi": 4022,
    "giuo": 4023,
    "giovane,": 4024,
    "gl'Indiani": 4025,
    "glorioso": 4026,
    "grossa": 4027,
    "grosse": 4028,
    "htt": 4029,
    "http": 4030,
    "ira": 4031,
    "ignu": 4032,
    "ignoran": 4033,
    "illustri": 4034,
    "imbascia": 4035,
    "imperator": 4036,
    "inando": 4037,
    "inch": 4038,
    "informa": 4039,
    "infinita": 4040,
    "lì": 4041,
    "l'af": 4042,
    "l'occhio": 4043,
    "l'altro,": 4044,
    "lavorare": 4045,
    "letta": 4046,
    "libero": 4047,
    "liberalità": 4048,
    "lui.": 4049,
    "m,": 4050,
    "muni": 4051,
    "mad": 4052,
    "mandati": 4053,
    "maravigliosa": 4054,
    "mbre,": 4055,
    "metà": 4056,
    "mediante": 4057,
    "mente;": 4058,
    "misono": 4059,
    "more,": 4060,
    "molesti": 4061,
    "monte,": 4062,
    "montagne": 4063,
    "morto.": 4064,
    "nas": 4065,
    "natura,": 4066,
    "nessuno": 4067,
    "novità": 4068,
    "noia": 4069,
    "oppo": 4070,
    "occiden": 4071,
    "ordinò": 4072,
    "ordinata": 4073,
    "pelle": 4074,
    "paci": 4075,
    "palazzo": 4076,
    "parlar": 4077,
    "parlare,": 4078,
    "particolar": 4079,
    "passata": 4080,
    "perdu": 4081,
    "perfe": 4082,
    "perni": 4083,
    "pericolo,": 4084,
    "perpetuo": 4085,
    "pesci": 4086,
    "pi,": 4087,
    "piu": 4088,
    "pigliar": 4089,
    "poiché": 4090,
    "popolani": 4091,
    "popoli,": 4092,
    "porali": 4093,
    "possiamo": 4094,
    "pruo": 4095,
    "presenza": 4096,
    "prende": 4097,
    "prigioni": 4098,
    "prima,": 4099,
    "proxi": 4100,
    "provincia,": 4101,
    "quelle,": 4102,
    "quiete": 4103,
    "rlo": 4104,
    "racconta": 4105,
    "ragionevole": 4106,
    "ref": 4107,
    "ricca": 4108,
    "riposa": 4109,
    "risposto": 4110,
    "romore": 4111,
    "rotto": 4112,
    "sco,": 4113,
    "sing": 4114,
    "spi": 4115,
    "saper": 4116,
    "sapendo": 4117,
    "saranno": 4118,
    "scan": 4119,
    "segre": 4120,
    "seguendo": 4121,
    "seguir": 4122,
    "som": 4123,
    "soldano": 4124,
    "spesa": 4125,
    "spezialmente": 4126,
    "ssimi,": 4127,
    "stantino": 4128,
    "sur": 4129,
    "suo.": 4130,
    "ttua": 4131,
    "tú": 4132,
    "tava": 4133,
    "tavano": 4134,
    "talmente": 4135,
    "tandosi": 4136,
    "tenuta": 4137,
    "tornare": 4138,
    "tradi": 4139,
    "tramontan": 4140,
    "tratto": 4141,
    "trion": 4142,
    "ttino": 4143,
    "ttero": 4144,
    "tudini": 4145,
    "tumul": 4146,
    "turi": 4147,
    "ucc": 4148,
    "udendo": 4149,
    "umana": 4150,
    "usano": 4151,
    "usar": 4152,
    "usata": 4153,
    "uscir": 4154,
    "vasi": 4155,
    "valoroso": 4156,
    "vano.": 4157,
    "varii": 4158,
    "veg": 4159,
    "veggi": 4160,
    "vendere": 4161,
    "vento": 4162,
    "ventura": 4163,
    "venezi": 4164,
    "verno": 4165,
    "viso": 4166,
    "vitu": 4167,
    "villa": 4168,
    "volta,": 4169,
    "voleano": 4170,
    "vuol": 4171,
    "zzato": 4172,
    "11": 4173,
    "123": 4174,
    "23": 4175,
    "24": 4176,
    "4.": 4177,
    "65": 4178,
    "ALI": 4179,
    "Ama": 4180,
    "Ap": 4181,
    "Avendo": 4182,
    "Alla": 4183,
    "BE": 4184,
    "Bonifa": 4185,
    "Carra": 4186,
    "Casti": 4187,
    "Certo": 4188,
    "Ché": 4189,
    "Delle": 4190,
    "DELLO": 4191,
    "Discorso": 4192,
    "Domeni": 4193,
    "Dopo": 4194,
    "Duca": 4195,
    "Ecc": 4196,
    "En": 4197,
    "Er": 4198,
    "Euro": 4199,
    "Europa": 4200,
    "FIO": 4201,
    "Flo": 4202,
    "Fiam": 4203,
    "Ghi": 4204,
    "Gae": 4205,
    "Germani": 4206,
    "Giun": 4207,
    "Giova": 4208,
    "Guas": 4209,
    "Im": 4210,
    "Ischia": 4211,
    "IIII": 4212,
    "IX.": 4213,
    "LLE": 4214,
    "Litu": 4215,
    "Mol": 4216,
    "Manu": 4217,
    "Manuzio": 4218,
    "NI": 4219,
    "Narsing": 4220,
    "Narsinga,": 4221,
    "OR": 4222,
    "Otta": 4223,
    "ONICA": 4224,
    "Passa": 4225,
    "Pes": 4226,
    "RONICA": 4227,
    "Ram": 4228,
    "Rela": 4229,
    "Raffaello": 4230,
    "Relazione": 4231,
    "SSIMO": 4232,
    "Sanesi": 4233,
    "TTE": 4234,
    "Ted": 4235,
    "Tri": 4236,
    "TOMO": 4237,
    "Tutte": 4238,
    "Vil": 4239,
    "VIII.": 4240,
    "Verona,": 4241,
    "ade": 4242,
    "adi": 4243,
    "apri": 4244,
    "aria,": 4245,
    "abbiano": 4246,
    "accade": 4247,
    "affer": 4248,
    "alber": 4249,
    "ale.": 4250,
    "altre,": 4251,
    "ammaes": 4252,
    "amicizia": 4253,
    "amo,": 4254,
    "ango": 4255,
    "andammo": 4256,
    "ano;": 4257,
    "appena": 4258,
    "apparecchia": 4259,
    "avve": 4260,
    "bara": 4261,
    "basa": 4262,
    "balestri": 4263,
    "brevi": 4264,
    "cera": 4265,
    "cadde": 4266,
    "care,": 4267,
    "casse": 4268,
    "casti": 4269,
    "cacique": 4270,
    "cagione,": 4271,
    "caldo": 4272,
    "campo,": 4273,
    "cancelli": 4274,
    "canz": 4275,
    "capo,": 4276,
    "cappella": 4277,
    "chiamati": 4278,
    "ch’era": 4279,
    "cita": 4280,
    "cittá,": 4281,
    "ciò,": 4282,
    "coli": 4283,
    "commi": 4284,
    "comandamento": 4285,
    "cominciando": 4286,
    "cominciorono": 4287,
    "cominciamento": 4288,
    "compagno": 4289,
    "consola": 4290,
    "conciosia": 4291,
    "condizioni": 4292,
    "condotta": 4293,
    "condotti": 4294,
    "condusse": 4295,
    "confedera": 4296,
    "conosco": 4297,
    "consiglio,": 4298,
    "considerare": 4299,
    "conveniente": 4300,
    "cortesia": 4301,
    "costumi,": 4302,
    "crudeli": 4303,
    "danti": 4304,
    "d'Ar": 4305,
    "d'Inghilterra": 4306,
    "d'altri": 4307,
    "darsi": 4308,
    "debbi": 4309,
    "debi": 4310,
    "decre": 4311,
    "depu": 4312,
    "debbo": 4313,
    "derono": 4314,
    "di.": 4315,
    "dimeno": 4316,
    "dino": 4317,
    "dimostrare": 4318,
    "diser": 4319,
    "disposi": 4320,
    "disposto": 4321,
    "doler": 4322,
    "esi,": 4323,
    "elfi": 4324,
    "eroni": 4325,
    "eravi": 4326,
    "erei": 4327,
    "esempio": 4328,
    "feste": 4329,
    "fè": 4330,
    "favella": 4331,
    "favole": 4332,
    "facili": 4333,
    "femine": 4334,
    "ferma,": 4335,
    "fisse": 4336,
    "filosofi": 4337,
    "fondamento": 4338,
    "fra'": 4339,
    "freddo": 4340,
    "fummo": 4341,
    "fusione": 4342,
    "gan": 4343,
    "ga.": 4344,
    "genero": 4345,
    "ggere": 4346,
    "ghe,": 4347,
    "giani": 4348,
    "gioni,": 4349,
    "gio,": 4350,
    "giornate": 4351,
    "giudicare": 4352,
    "giunse": 4353,
    "glione": 4354,
    "gna.": 4355,
    "governator": 4356,
    "grandissime": 4357,
    "guardia,": 4358,
    "http://www.": 4359,
    "isole": 4360,
    "immagine": 4361,
    "impeto": 4362,
    "impresa,": 4363,
    "indietro": 4364,
    "ingen": 4365,
    "inare": 4366,
    "ingiuria": 4367,
    "intendere": 4368,
    "iore": 4369,
    "l'autorità": 4370,
    "l'ha": 4371,
    "lago": 4372,
    "lava": 4373,
    "lancie": 4374,
    "lasciarono": 4375,
    "lavorato": 4376,
    "legna": 4377,
    "letizia": 4378,
    "lezione": 4379,
    "legati": 4380,
    "levata": 4381,
    "lido": 4382,
    "licenzia": 4383,
    "lupo": 4384,
    "mbo": 4385,
    "mes": 4386,
    "mai,": 4387,
    "masch": 4388,
    "mandava": 4389,
    "maniera,": 4390,
    "maniere": 4391,
    "manifesto": 4392,
    "masna": 4393,
    "mezza": 4394,
    "medesimo,": 4395,
    "mettersi": 4396,
    "minimi": 4397,
    "miseria": 4398,
    "misura": 4399,
    "molesta": 4400,
    "monio": 4401,
    "murata": 4402,
    "mutazioni": 4403,
    "nan": 4404,
    "nacque": 4405,
    "navigazione": 4406,
    "nemico": 4407,
    "ni,": 4408,
    "nome,": 4409,
    "noti": 4410,
    "nutri": 4411,
    "nuovo,": 4412,
    "otta": 4413,
    "offer": 4414,
    "ones": 4415,
    "onna,": 4416,
    "opera,": 4417,
    "opere,": 4418,
    "orri": 4419,
    "origin": 4420,
    "pelli": 4421,
    "pace,": 4422,
    "paga": 4423,
    "pazi": 4424,
    "padrone": 4425,
    "partendo": 4426,
    "partiti": 4427,
    "passando": 4428,
    "peni": 4429,
    "pensare": 4430,
    "pensieri": 4431,
    "perven": 4432,
    "piene": 4433,
    "pittu": 4434,
    "piacere,": 4435,
    "piacque": 4436,
    "pianu": 4437,
    "poche": 4438,
    "poco,": 4439,
    "ponti": 4440,
    "posto,": 4441,
    "potete": 4442,
    "potenzia": 4443,
    "poterono": 4444,
    "prendendo": 4445,
    "privile": 4446,
    "procura": 4447,
    "promessa": 4448,
    "promette": 4449,
    "proposito": 4450,
    "proximo": 4451,
    "puli": 4452,
    "publica": 4453,
    "quam": 4454,
    "quindici": 4455,
    "rano,": 4456,
    "rvi": 4457,
    "raggi": 4458,
    "raguna": 4459,
    "recu": 4460,
    "repli": 4461,
    "restitui": 4462,
    "richie": 4463,
    "ritornare": 4464,
    "ruba": 4465,
    "sando": 4466,
    "scia": 4467,
    "sel": 4468,
    "spera": 4469,
    "squad": 4470,
    "scel": 4471,
    "scrive": 4472,
    "scrivendo": 4473,
    "scriver": 4474,
    "scrittore": 4475,
    "sedere": 4476,
    "seguito": 4477,
    "serra": 4478,
    "servire": 4479,
    "sione,": 4480,
    "singo": 4481,
    "somigli": 4482,
    "soldati,": 4483,
    "sollecitudine": 4484,
    "sottile": 4485,
    "spalle": 4486,
    "spin": 4487,
    "stabili": 4488,
    "strada": 4489,
    "suole": 4490,
    "suppli": 4491,
    "sète": 4492,
    "tona": 4493,
    "tù": 4494,
    "tale,": 4495,
    "te;": 4496,
    "tezza": 4497,
    "termin": 4498,
    "termini": 4499,
    "terrestre": 4500,
    "tretto": 4501,
    "ttamente": 4502,
    "tti.": 4503,
    "tutto,": 4504,
    "ucchi": 4505,
    "usan": 4506,
    "universal": 4507,
    "uscire": 4508,
    "usciti": 4509,
    "utili": 4510,
    "vali": 4511,
    "vul": 4512,
    "v'era": 4513,
    "veduti": 4514,
    "venissero": 4515,
    "venivano": 4516,
    "verbi": 4517,
    "verità,": 4518,
    "verso,": 4519,
    "vicin": 4520,
    "vivi": 4521,
    "vostre": 4522,
    "volga": 4523,
    "volea": 4524,
    "xt": 4525,
    "zar": 4526,
    "zzano": 4527,
    "zze,": 4528,
    "\n\n              ": 4529,
    "                  ": 4530,
    "\",": 4531,
    "2,": 4532,
    "21": 4533,
    "8º": 4534,
    "8º.": 4535,
    "?\"": 4536,
    "ALLA": 4537,
    "Afri": 4538,
    "Ave": 4539,
    "ANDELLO": 4540,
    "BANDELLO": 4541,
    "Baiothnoy,": 4542,
    "Biancifiore,": 4543,
    "Bonifazio": 4544,
    "Breu": 4545,
    "Ce": 4546,
    "CAPITO": 4547,
    "CAPITOLO": 4548,
    "CHI": 4549,
    "Castru": 4550,
    "Chiesa.": 4551,
    "Comune": 4552,
    "Corso": 4553,
    "Dan": 4554,
    "Donna": 4555,
    "Fri": 4556,
    "Ferrara": 4557,
    "Fiand": 4558,
    "Figliuolo": 4559,
    "Fort": 4560,
    "Francesco,": 4561,
    "GH": 4562,
    "Gianni": 4563,
    "Guicci": 4564,
    "Guicciardi": 4565,
    "Ha": 4566,
    "IV.": 4567,
    "Ieroni": 4568,
    "INE": 4569,
    "India,": 4570,
    "Lombardia,": 4571,
    "MIN": 4572,
    "Magnifi": 4573,
    "Maestà": 4574,
    "Mentre": 4575,
    "Ne": 4576,
    "Noi": 4577,
    "Ol": 4578,
    "Oimè,": 4579,
    "Perugia": 4580,
    "Proven": 4581,
    "QUI": 4582,
    "Qual": 4583,
    "Quelli": 4584,
    "RIO": 4585,
    "Ris": 4586,
    "Roma.": 4587,
    "STI": 4588,
    "Sena": 4589,
    "SIGNO": 4590,
    "Sansovino": 4591,
    "Signore": 4592,
    "Spirito": 4593,
    "Tau": 4594,
    "Talam": 4595,
    "Tom": 4596,
    "Tomma": 4597,
    "Tolomeo,": 4598,
    "Tommaso": 4599,
    "Ul": 4600,
    "VI.": 4601,
    "VII.": 4602,
    "Via": 4603,
    "Viaggio": 4604,
    "aposto": 4605,
    "accen": 4606,
    "accos": 4607,
    "accioché": 4608,
    "acquisto": 4609,
    "adesso": 4610,
    "altrimenti": 4611,
    "ambizione": 4612,
    "amistà": 4613,
    "anne": 4614,
    "anime": 4615,
    "anticamente": 4616,
    "antico": 4617,
    "arlo,": 4618,
    "arra": 4619,
    "argomento": 4620,
    "avano,": 4621,
    "avessino": 4622,
    "bone": 4623,
    "barone": 4624,
    "bi,": 4625,
    "bianco": 4626,
    "bile.": 4627,
    "botte": 4628,
    "c.": 4629,
    "cadu": 4630,
    "cacciati": 4631,
    "camp": 4632,
    "cane": 4633,
    "capitano,": 4634,
    "cappelle": 4635,
    "carsi": 4636,
    "castellano": 4637,
    "ccia,": 4638,
    "ce.": 4639,
    "cenza": 4640,
    "ceré": 4641,
    "chino": 4642,
    "chie": 4643,
    "chiari": 4644,
    "chiamò": 4645,
    "chiaramente": 4646,
    "ci.": 4647,
    "co.": 4648,
    "comandò": 4649,
    "copri": 4650,
    "core": 4651,
    "cotale": 4652,
    "commesso": 4653,
    "compassione": 4654,
    "compagni,": 4655,
    "concili": 4656,
    "convenne": 4657,
    "conver": 4658,
    "congiura": 4659,
    "contessa": 4660,
    "contenta": 4661,
    "contrada": 4662,
    "cordia": 4663,
    "corti": 4664,
    "cristiani,": 4665,
    "dano,": 4666,
    "dra": 4667,
    "d'otto": 4668,
    "dapoi": 4669,
    "dev": 4670,
    "debole": 4671,
    "dell'Indie": 4672,
    "dente,": 4673,
    "denza,": 4674,
    "destra": 4675,
    "desiderava": 4676,
    "dette,": 4677,
    "detto.": 4678,
    "died": 4679,
    "diminu": 4680,
    "dipi": 4681,
    "disegni": 4682,
    "dissimo": 4683,
    "diti": 4684,
    "diate": 4685,
    "dice:": 4686,
    "difendere": 4687,
    "diligente": 4688,
    "dimost": 4689,
    "dispre": 4690,
    "discepoli": 4691,
    "disider": 4692,
    "doloro": 4693,
    "domandò": 4694,
    "doveva": 4695,
    "dura": 4696,
    "ducato": 4697,
    "dèi": 4698,
    "dí,": 4699,
    "e;": 4700,
    "edifi": 4701,
    "eria,": 4702,
    "errore,": 4703,
    "espugna": 4704,
    "esù": 4705,
    "fame": 4706,
    "fabbri": 4707,
    "faccen": 4708,
    "facto": 4709,
    "facile": 4710,
    "favori": 4711,
    "fem": 4712,
    "femina": 4713,
    "felice": 4714,
    "fiate": 4715,
    "finestre": 4716,
    "fiorentini,": 4717,
    "fossono": 4718,
    "forestieri,": 4719,
    "fortezza": 4720,
    "franc": 4721,
    "francamente": 4722,
    "franchi": 4723,
    "gelo": 4724,
    "gnon": 4725,
    "gri,": 4726,
    "geo": 4727,
    "getto": 4728,
    "gentiluomo": 4729,
    "giù": 4730,
    "giova": 4731,
    "giusta": 4732,
    "giunto": 4733,
    "gliene": 4734,
    "globo": 4735,
    "gnano": 4736,
    "gnifica": 4737,
    "grossi": 4738,
    "grosso": 4739,
    "guadagna": 4740,
    "han": 4741,
    "he": 4742,
    "her": 4743,
    "impossibile": 4744,
    "imprese": 4745,
    "ingra": 4746,
    "intaglia": 4747,
    "industri": 4748,
    "infinito": 4749,
    "ingegni": 4750,
    "insegnò": 4751,
    "intendimento": 4752,
    "intendono": 4753,
    "intorno,": 4754,
    "istorie": 4755,
    "lendo": 4756,
    "l'arme": 4757,
    "lat": 4758,
    "leggiad": 4759,
    "levare": 4760,
    "lingue": 4761,
    "los": 4762,
    "longi": 4763,
    "l’imperadore": 4764,
    "m'ha": 4765,
    "madre,": 4766,
    "maestà": 4767,
    "magnifico": 4768,
    "malva": 4769,
    "mandate": 4770,
    "marti": 4771,
    "marito,": 4772,
    "medio": 4773,
    "meglio,": 4774,
    "metta": 4775,
    "mezzo,": 4776,
    "medesimi,": 4777,
    "menzione,": 4778,
    "mercante": 4779,
    "miglia,": 4780,
    "misti": 4781,
    "minare": 4782,
    "ministra": 4783,
    "misera": 4784,
    "mossa": 4785,
    "monaco": 4786,
    "naturale,": 4787,
    "nego": 4788,
    "no.": 4789,
    "nobiltà": 4790,
    "om": 4791,
    "onor": 4792,
    "ordinaria": 4793,
    "ordinate": 4794,
    "osserva": 4795,
    "palagio": 4796,
    "pedoni": 4797,
    "peggio": 4798,
    "pezza": 4799,
    "peccato": 4800,
    "pero": 4801,
    "perse": 4802,
    "persu": 4803,
    "perocchè": 4804,
    "persona,": 4805,
    "però,": 4806,
    "pienza": 4807,
    "piaci": 4808,
    "pieto": 4809,
    "pieni": 4810,
    "pigliano": 4811,
    "più,": 4812,
    "piú,": 4813,
    "portare": 4814,
    "portarono": 4815,
    "prece": 4816,
    "presente,": 4817,
    "prime": 4818,
    "principa": 4819,
    "principali": 4820,
    "principe,": 4821,
    "produ": 4822,
    "proi": 4823,
    "procede": 4824,
    "procedere": 4825,
    "può,": 4826,
    "quer": 4827,
    "quest'opera": 4828,
    "rado": 4829,
    "regge": 4830,
    "remo": 4831,
    "restò": 4832,
    "refl": 4833,
    "repubbli": 4834,
    "ricco": 4835,
    "ricu": 4836,
    "riguar": 4837,
    "ricevere": 4838,
    "rov": 4839,
    "ronica": 4840,
    "rono.": 4841,
    "rub": 4842,
    "s.": 4843,
    "sce,": 4844,
    "sella": 4845,
    "sess": 4846,
    "svizz": 4847,
    "sacer": 4848,
    "sapienza": 4849,
    "sarebbono": 4850,
    "scando": 4851,
    "scar": 4852,
    "scen": 4853,
    "scandal": 4854,
    "scopri": 4855,
    "sconfi": 4856,
    "scusa": 4857,
    "sepa": 4858,
    "seppe": 4859,
    "setta": 4860,
    "sentì": 4861,
    "sentimento": 4862,
    "serva": 4863,
    "sforz": 4864,
    "sioni": 4865,
    "sicuramente": 4866,
    "signoria,": 4867,
    "sinistra": 4868,
    "sore": 4869,
    "solito": 4870,
    "sopra,": 4871,
    "sospetto,": 4872,
    "splendo": 4873,
    "spezie": 4874,
    "spoglia": 4875,
    "stina": 4876,
    "statua": 4877,
    "stesse": 4878,
    "storo": 4879,
    "subli": 4880,
    "sura": 4881,
    "tono": 4882,
    "tavola": 4883,
    "tarsi": 4884,
    "temi": 4885,
    "tenute": 4886,
    "terri": 4887,
    "tesoro": 4888,
    "timi": 4889,
    "tira": 4890,
    "trascor": 4891,
    "trib": 4892,
    "troppa": 4893,
    "trovando": 4894,
    "tuno": 4895,
    "tur,": 4896,
    "uficio": 4897,
    "umili": 4898,
    "ultimamente": 4899,
    "universale": 4900,
    "uscio": 4901,
    "usare": 4902,
    "uscito": 4903,
    "utilità": 4904,
    "vando": 4905,
    "v'erano": 4906,
    "vamo": 4907,
    "vanta": 4908,
    "venuta,": 4909,
    "veruno": 4910,
    "viano": 4911,
    "viceré": 4912,
    "vigo": 4913,
    "visto": 4914,
    "vicina": 4915,
    "virtù,": 4916,
    "vita.": 4917,
    "voli,": 4918,
    "vor": 4919,
    "vorrei": 4920,
    "·lloro": 4921,
    "\"pro": 4922,
    "\"progetto": 4923,
    ".it/": 4924,
    "0.": 4925,
    "2.": 4926,
    "A.": 4927,
    "AI": 4928,
    "ANO": 4929,
    "Ale": 4930,
    "Alido": 4931,
    "ANI": 4932,
    "Alc": 4933,
    "Ascelino": 4934,
    "Avvenne": 4935,
    "Bra": 4936,
    "Bartol": 4937,
    "Bengal": 4938,
    "Bernar": 4939,
    "Bernabò": 4940,
    "CHE": 4941,
    "Capi": 4942,
    "Calav": 4943,
    "Castel": 4944,
    "Ciro": 4945,
    "DU": 4946,
    "Dove": 4947,
    "Ecco": 4948,
    "Erano": 4949,
    "Eccell": 4950,
    "FA": 4951,
    "Fa": 4952,
    "FIOREN": 4953,
    "Fiorentini,": 4954,
    "GO": 4955,
    "Giad": 4956,
    "Guido": 4957,
    "Idio": 4958,
    "Ippo": 4959,
    "Ieronimo": 4960,
    "Illustrissima": 4961,
    "Indiani,": 4962,
    "Italia.": 4963,
    "LX": 4964,
    "Lau": 4965,
    "Liber": 4966,
    "Lione": 4967,
    "Lituani": 4968,
    "Mala": 4969,
    "Mam": 4970,
    "Mu": 4971,
    "Maggio": 4972,
    "Masu": 4973,
    "Matte": 4974,
    "Madonna": 4975,
    "Michele": 4976,
    "Moscovia": 4977,
    "Nav": 4978,
    "Nicuo": 4979,
    "Nota": 4980,
    "Novell": 4981,
    "Ora,": 4982,
    "PA": 4983,
    "Pol": 4984,
    "Princi": 4985,
    "Perino": 4986,
    "Pistoia": 4987,
    "Quanto": 4988,
    "Quella": 4989,
    "Quin": 4990,
    "Quiz": 4991,
    "Quizqui": 4992,
    "Ragu": 4993,
    "Ramusi": 4994,
    "Rispose": 4995,
    "Romo": 4996,
    "Russi": 4997,
    "Sala": 4998,
    "Scia": 4999,
    "Sin": 5000,
    "Suo": 5001,
    "Sí": 5002,
    "Salv.": 5003,
    "Santi,": 5004,
    "Secondo": 5005,
    "Soder": 5006,
    "Spagnuoli": 5007,
    "Tre": 5008,
    "Talamone": 5009,
    "Tombu": 5010,
    "Ungheria": 5011,
    "ata": 5012,
    "aviene": 5013,
    "abbru": 5014,
    "abitato": 5015,
    "abitazioni": 5016,
    "acconcia": 5017,
    "acquistar": 5018,
    "acquistò": 5019,
    "adopera": 5020,
    "afferma": 5021,
    "affo": 5022,
    "affezione": 5023,
    "affida": 5024,
    "affidabilità": 5025,
    "alora": 5026,
    "alza": 5027,
    "all'altra": 5028,
    "altrettanto": 5029,
    "amba": 5030,
    "angu": 5031,
    "annuo": 5032,
    "anni.": 5033,
    "app": 5034,
    "appre": 5035,
    "archite": 5036,
    "ascen": 5037,
    "assolu": 5038,
    "aspetto": 5039,
    "aspettar": 5040,
    "assalto": 5041,
    "assedio": 5042,
    "assegna": 5043,
    "avessono": 5044,
    "avea,": 5045,
    "avesse,": 5046,
    "avevamo": 5047,
    "bali": 5048,
    "be,": 5049,
    "bino": 5050,
    "brie": 5051,
    "bro": 5052,
    "batti": 5053,
    "baldanza": 5054,
    "baroni,": 5055,
    "bei": 5056,
    "bellini": 5057,
    "bellissimo": 5058,
    "bigo": 5059,
    "bianchi": 5060,
    "borgo": 5061,
    "braccia,": 5062,
    "buff": 5063,
    "c'": 5064,
    "ccar": 5065,
    "cesse": 5066,
    "cina": 5067,
    "cte": 5068,
    "cara,": 5069,
    "cassa": 5070,
    "camera,": 5071,
    "cammin": 5072,
    "carta": 5073,
    "cavall": 5074,
    "cavalli,": 5075,
    "cercò": 5076,
    "cheri": 5077,
    "chme": 5078,
    "ch'eglino": 5079,
    "chiese": 5080,
    "ch’e’": 5081,
    "circon": 5082,
    "civili": 5083,
    "copio": 5084,
    "cognosci": 5085,
    "comp": 5086,
    "comandato": 5087,
    "combatter": 5088,
    "congre": 5089,
    "consentimento": 5090,
    "corru": 5091,
    "corpo,": 5092,
    "costi": 5093,
    "cosa.": 5094,
    "dandosi": 5095,
    "desti": 5096,
    "dé": 5097,
    "d'alcuni": 5098,
    "d'essere": 5099,
    "damente": 5100,
    "dall'altra": 5101,
    "dedica": 5102,
    "degl’": 5103,
    "degni": 5104,
    "deliberazione": 5105,
    "derà": 5106,
    "destro": 5107,
    "dia,": 5108,
    "dico,": 5109,
    "dimanda": 5110,
    "dicemmo": 5111,
    "diletto": 5112,
    "diritto": 5113,
    "discen": 5114,
    "disidera": 5115,
    "diventa": 5116,
    "divisa": 5117,
    "domandato": 5118,
    "donz": 5119,
    "dì,": 5120,
    "d’un": 5121,
    "egi": 5122,
    "etto": 5123,
    "ecclesi": 5124,
    "eccetto": 5125,
    "eloquenza": 5126,
    "eno,": 5127,
    "ensi": 5128,
    "entrar": 5129,
    "erbe": 5130,
    "erati": 5131,
    "ere;": 5132,
    "es,": 5133,
    "eso,": 5134,
    "espri": 5135,
    "esso,": 5136,
    "estima": 5137,
    "etá": 5138,
    "falla": 5139,
    "fera": 5140,
    "fo,": 5141,
    "fr.": 5142,
    "famia": 5143,
    "faceano": 5144,
    "fanciulli": 5145,
    "fanno,": 5146,
    "fatica,": 5147,
    "femin": 5148,
    "ferti": 5149,
    "fiere": 5150,
    "figlio": 5151,
    "file": 5152,
    "fiata": 5153,
    "figura,": 5154,
    "finché": 5155,
    "fiori": 5156,
    "fiorentino,": 5157,
    "forza,": 5158,
    "forestieri": 5159,
    "formato": 5160,
    "fornito": 5161,
    "fortezze": 5162,
    "frati,": 5163,
    "futu": 5164,
    "fuggí": 5165,
    "gano": 5166,
    "gamba": 5167,
    "gata": 5168,
    "gava": 5169,
    "ghese": 5170,
    "ghilesi": 5171,
    "gie": 5172,
    "gion": 5173,
    "giú": 5174,
    "gner": 5175,
    "gnò": 5176,
    "grava": 5177,
    "grazie": 5178,
    "grazioso": 5179,
    "greci": 5180,
    "gue,": 5181,
    "guerra;": 5182,
    "incomincia": 5183,
    "innocen": 5184,
    "insegna": 5185,
    "intendo": 5186,
    "investi": 5187,
    "invita": 5188,
    "indiri": 5189,
    "industria": 5190,
    "infermi": 5191,
    "ingegna": 5192,
    "insieme.": 5193,
    "intelli": 5194,
    "interesse": 5195,
    "ko": 5196,
    "lani,": 5197,
    "llo": 5198,
    "l'ho": 5199,
    "l'onore": 5200,
    "l'armi": 5201,
    "lagri": 5202,
    "lazioni": 5203,
    "larghe": 5204,
    "leggendo": 5205,
    "legi": 5206,
    "legni": 5207,
    "legge,": 5208,
    "lettere,": 5209,
    "linea": 5210,
    "loda": 5211,
    "lode": 5212,
    "lui;": 5213,
    "lunghezza": 5214,
    "l’altro": 5215,
    "l’arme": 5216,
    "l’uno": 5217,
    "meravi": 5218,
    "messere": 5219,
    "m'è": 5220,
    "magn": 5221,
    "malincon": 5222,
    "mancamento": 5223,
    "mandasse": 5224,
    "marsi": 5225,
    "maravigli": 5226,
    "maravigliosamente": 5227,
    "meo": 5228,
    "mesi,": 5229,
    "mezo": 5230,
    "medesime": 5231,
    "merci": 5232,
    "mercatante": 5233,
    "miglior": 5234,
    "minera": 5235,
    "minato": 5236,
    "mos": 5237,
    "modità": 5238,
    "monas": 5239,
    "monache": 5240,
    "mormo": 5241,
    "morir": 5242,
    "mula": 5243,
    "ness": 5244,
    "narrò": 5245,
    "nelli": 5246,
    "nominato": 5247,
    "nostra,": 5248,
    "novella,": 5249,
    "obbli": 5250,
    "ora,": 5251,
    "ore,": 5252,
    "ostina": 5253,
    "ot": 5254,
    "ova": 5255,
    "onato": 5256,
    "oppor": 5257,
    "ornati": 5258,
    "ordinare": 5259,
    "orien": 5260,
    "oste,": 5261,
    "pai": 5262,
    "paren": 5263,
    "parte.": 5264,
    "partire": 5265,
    "passasse": 5266,
    "passioni": 5267,
    "paura,": 5268,
    "pezzi": 5269,
    "peccati": 5270,
    "penso": 5271,
    "perduta": 5272,
    "perio,": 5273,
    "pericoli": 5274,
    "persuad": 5275,
    "piacevoli": 5276,
    "posono": 5277,
    "podestà": 5278,
    "poeti": 5279,
    "ponimento": 5280,
    "portavano": 5281,
    "poste,": 5282,
    "potessi": 5283,
    "potevano": 5284,
    "prof": 5285,
    "promettendo": 5286,
    "prote": 5287,
    "prova": 5288,
    "quando,": 5289,
    "quattromila": 5290,
    "questa,": 5291,
    "rino": 5292,
    "ra.": 5293,
    "ragione,": 5294,
    "ragionevolmente": 5295,
    "reggi": 5296,
    "rem": 5297,
    "rendere": 5298,
    "renti": 5299,
    "ribella": 5300,
    "riferi": 5301,
    "rimo": 5302,
    "ripo": 5303,
    "ricevuta": 5304,
    "richied": 5305,
    "ricorda": 5306,
    "rimedi": 5307,
    "riputato": 5308,
    "rispondere": 5309,
    "ro;": 5310,
    "rovine": 5311,
    "rubella": 5312,
    "ste,": 5313,
    "s'egli": 5314,
    "sapesse": 5315,
    "scale": 5316,
    "scuo": 5317,
    "setti": 5318,
    "seguire": 5319,
    "seguita": 5320,
    "seguitando": 5321,
    "semplice": 5322,
    "sentenzia": 5323,
    "sera,": 5324,
    "sessanta": 5325,
    "siccome": 5326,
    "signori,": 5327,
    "soldato": 5328,
    "sovran": 5329,
    "spagnuoli": 5330,
    "sperando": 5331,
    "speranza,": 5332,
    "spero": 5333,
    "spirito": 5334,
    "stati,": 5335,
    "stantinopoli": 5336,
    "stato.": 5337,
    "suffici": 5338,
    "t.": 5339,
    "tamente,": 5340,
    "tavole": 5341,
    "talora": 5342,
    "tempio": 5343,
    "terre,": 5344,
    "terra;": 5345,
    "testa,": 5346,
    "testimoni": 5347,
    "the": 5348,
    "tista": 5349,
    "tina,": 5350,
    "tolto": 5351,
    "torono": 5352,
    "torri": 5353,
    "tori.": 5354,
    "tornando": 5355,
    "trae": 5356,
    "trasse": 5357,
    "trio": 5358,
    "trovarono": 5359,
    "trovata": 5360,
    "ttone": 5361,
    "tus": 5362,
    "udire": 5363,
    "uf": 5364,
    "ufici": 5365,
    "umano": 5366,
    "umil": 5367,
    "unità": 5368,
    "uomini.": 5369,
    "us,": 5370,
    "usanza,": 5371,
    "vada": 5372,
    "vagliono": 5373,
    "vamente": 5374,
    "vecchio,": 5375,
    "vece": 5376,
    "vedere,": 5377,
    "vener": 5378,
    "venute": 5379,
    "venticinque": 5380,
    "verbo": 5381,
    "vettovaglie": 5382,
    "viver": 5383,
    "vizio": 5384,
    "vicine": 5385,
    "viene,": 5386,
    "vittoria,": 5387,
    "voglia,": 5388,
    "voll": 5389,
    "volevano": 5390,
    "volontá": 5391,
    "volume": 5392,
    "zie,": 5393,
    "\n\n                       ": 5394,
    "     ": 5395,
    "                                    ": 5396,
    "(come": 5397,
    "(e": 5398,
    "26": 5399,
    "7.": 5400,
    "Abra": 5401,
    "ANTI": 5402,
    "Africa": 5403,
    "Alaman": 5404,
    "Alessandro,": 5405,
    "Angeli": 5406,
    "Arezzo": 5407,
    "Bardi": 5408,
    "Benti": 5409,
    "Bartolo": 5410,
    "Boccaccio": 5411,
    "Buon": 5412,
    "C.": 5413,
    "Cfr.": 5414,
    "Cus": 5415,
    "CONTA": 5416,
    "CORTE": 5417,
    "Cata": 5418,
    "Castello": 5419,
    "Castruccio": 5420,
    "Cicili": 5421,
    "Clemente": 5422,
    "Coroman": 5423,
    "Corte": 5424,
    "Coromandel": 5425,
    "Costui": 5426,
    "Cristiani": 5427,
    "Dei": 5428,
    "Deh,": 5429,
    "Dio.": 5430,
    "Domenico": 5431,
    "Ella": 5432,
    "Enea": 5433,
    "FINE": 5434,
    "Fini": 5435,
    "Ferondo": 5436,
    "Fiorenza,": 5437,
    "Franceschi": 5438,
    "Furono": 5439,
    "Gesù": 5440,
    "Giu": 5441,
    "Giovanni,": 5442,
    "Gonza": 5443,
    "Greci": 5444,
    "Innocen": 5445,
    "Ippoli": 5446,
    "Lattan": 5447,
    "Lib.": 5448,
    "Lombardia": 5449,
    "Lucca,": 5450,
    "M.": 5451,
    "MD": 5452,
    "ME": 5453,
    "Malab": 5454,
    "Malabar": 5455,
    "Mastino": 5456,
    "Matteo": 5457,
    "Messina": 5458,
    "Messina,": 5459,
    "Milano.": 5460,
    "Milano;": 5461,
    "Narsin": 5462,
    "Nondimeno": 5463,
    "Novellino": 5464,
    "Ori": 5465,
    "Ottaviano": 5466,
    "Pagan": 5467,
    "Pazzi": 5468,
    "Petrar": 5469,
    "Perché,": 5470,
    "Ponte": 5471,
    "Quizquiz": 5472,
    "Ramusio": 5473,
    "Ridolfi": 5474,
    "Romagna": 5475,
    "Russia,": 5476,
    "Sta": 5477,
    "Svizz": 5478,
    "Sag": 5479,
    "Sagr.": 5480,
    "Sangue": 5481,
    "Sarsi,": 5482,
    "Sciachme": 5483,
    "Signore,": 5484,
    "Simp.": 5485,
    "Sinan": 5486,
    "Solos": 5487,
    "Solosmeo": 5488,
    "Sua": 5489,
    "TRA": 5490,
    "Ten": 5491,
    "TER": 5492,
    "Tauris": 5493,
    "Tedes": 5494,
    "Toscana,": 5495,
    "Toscani,": 5496,
    "Turchi,": 5497,
    "Ubal": 5498,
    "Uno": 5499,
    "VA": 5500,
    "Ved": 5501,
    "Vine": 5502,
    "VITA": 5503,
    "VIII,": 5504,
    "Vir": 5505,
    "ZE": 5506,
    "_Di": 5507,
    "ada": 5508,
    "agl'": 5509,
    "agua": 5510,
    "amando": 5511,
    "apresso": 5512,
    "asi": 5513,
    "ata,": 5514,
    "abbino": 5515,
    "acer": 5516,
    "addu": 5517,
    "albergo": 5518,
    "alla,": 5519,
    "altri;": 5520,
    "altrimenti,": 5521,
    "am,": 5522,
    "amata": 5523,
    "amata,": 5524,
    "ambasciatori": 5525,
    "amendue": 5526,
    "ammazz": 5527,
    "ammirazione": 5528,
    "apparir": 5529,
    "appeti": 5530,
    "armi,": 5531,
    "arte,": 5532,
    "arebbono": 5533,
    "arrivò": 5534,
    "astu": 5535,
    "attribu": 5536,
    "augu": 5537,
    "avverti": 5538,
    "avarizia": 5539,
    "aventura": 5540,
    "avere,": 5541,
    "avvenga": 5542,
    "avvenne,": 5543,
    "batte": 5544,
    "battendo": 5545,
    "balestra": 5546,
    "balestrieri": 5547,
    "bef": 5548,
    "bev": 5549,
    "bellissimi": 5550,
    "benefi": 5551,
    "beneficio": 5552,
    "bertu": 5553,
    "blio": 5554,
    "bocca,": 5555,
    "brieve": 5556,
    "bur": 5557,
    "cla": 5558,
    "ct": 5559,
    "cadere": 5560,
    "camin": 5561,
    "capace": 5562,
    "caporali": 5563,
    "cagione.": 5564,
    "campar": 5565,
    "cancelliere": 5566,
    "cap.": 5567,
    "capitani,": 5568,
    "caritá,": 5569,
    "cavar": 5570,
    "cchi,": 5571,
    "cci,": 5572,
    "ccione": 5573,
    "chioma": 5574,
    "ch’è": 5575,
    "ciando": 5576,
    "ciano": 5577,
    "cielo,": 5578,
    "cima": 5579,
    "cissimi": 5580,
    "circos": 5581,
    "città;": 5582,
    "coda": 5583,
    "color": 5584,
    "cosse": 5585,
    "commen": 5586,
    "commessa": 5587,
    "com’": 5588,
    "comparazione": 5589,
    "concorre": 5590,
    "condan": 5591,
    "conesta": 5592,
    "confini": 5593,
    "cono,": 5594,
    "conforto": 5595,
    "conosciuta": 5596,
    "contadini": 5597,
    "contrario,": 5598,
    "coperta": 5599,
    "correzioni": 5600,
    "cortegi": 5601,
    "cose;": 5602,
    "cosí,": 5603,
    "creato": 5604,
    "cristiani.": 5605,
    "croci": 5606,
    "cuore,": 5607,
    "dessero": 5608,
    "dessi": 5609,
    "drie": 5610,
    "d'Italia": 5611,
    "d'Ara": 5612,
    "d'argento,": 5613,
    "determina": 5614,
    "dentemente": 5615,
    "dentro,": 5616,
    "dichia": 5617,
    "dienza": 5618,
    "dii": 5619,
    "dilibera": 5620,
    "dine": 5621,
    "dirà": 5622,
    "diu": 5623,
    "divenne": 5624,
    "divin": 5625,
    "dicesse": 5626,
    "dicembre": 5627,
    "dicevano": 5628,
    "dicea:": 5629,
    "differenti": 5630,
    "differenza": 5631,
    "dilette": 5632,
    "dire:": 5633,
    "dirizz": 5634,
    "dissolu": 5635,
    "distante": 5636,
    "distribu": 5637,
    "divina,": 5638,
    "dotti": 5639,
    "dovere": 5640,
    "doni,": 5641,
    "dove,": 5642,
    "due,": 5643,
    "duca,": 5644,
    "ebb": 5645,
    "e·lla": 5646,
    "ecclesiasti": 5647,
    "edifica": 5648,
    "effica": 5649,
    "elett": 5650,
    "elle,": 5651,
    "ene,": 5652,
    "endosi": 5653,
    "eranno": 5654,
    "erono": 5655,
    "errore": 5656,
    "esecuzione": 5657,
    "eserciti": 5658,
    "essero,": 5659,
    "essioni": 5660,
    "facoltà": 5661,
    "facessero": 5662,
    "facemmo": 5663,
    "falcone": 5664,
    "fanta": 5665,
    "fanti,": 5666,
    "fanciullo": 5667,
    "farmi": 5668,
    "fede.": 5669,
    "festa,": 5670,
    "fiam": 5671,
    "fice": 5672,
    "fici,": 5673,
    "fiera": 5674,
    "fila": 5675,
    "fissa": 5676,
    "ficii": 5677,
    "figliuol": 5678,
    "fine.": 5679,
    "fontan": 5680,
    "forze,": 5681,
    "fratello,": 5682,
    "fred": 5683,
    "fuggir": 5684,
    "furore": 5685,
    "gino": 5686,
    "gamb": 5687,
    "garz": 5688,
    "gente.": 5689,
    "gentil": 5690,
    "gentile,": 5691,
    "gger": 5692,
    "ghino": 5693,
    "giam": 5694,
    "gig": 5695,
    "giovare": 5696,
    "gioven": 5697,
    "giovene": 5698,
    "gione,": 5699,
    "giura": 5700,
    "giudicando": 5701,
    "giustizia,": 5702,
    "glia.": 5703,
    "gol": 5704,
    "grave,": 5705,
    "gravissimo": 5706,
    "graziosa": 5707,
    "i;": 5708,
    "ide": 5709,
    "immedia": 5710,
    "immor": 5711,
    "imagina": 5712,
    "imperio,": 5713,
    "incar": 5714,
    "incontra": 5715,
    "incre": 5716,
    "infamia": 5717,
    "inn": 5718,
    "intanto": 5719,
    "inti": 5720,
    "intro": 5721,
    "infinitamente": 5722,
    "inimici,": 5723,
    "intera": 5724,
    "interval": 5725,
    "intervenne": 5726,
    "ior": 5727,
    "italiani": 5728,
    "lenti": 5729,
    "lera": 5730,
    "lá": 5731,
    "l'amoro": 5732,
    "l'asino": 5733,
    "l'aveva": 5734,
    "l'intelle": 5735,
    "l'uni": 5736,
    "l'affecto": 5737,
    "l'arti": 5738,
    "l'opere": 5739,
    "lacri": 5740,
    "lasciano": 5741,
    "lasciate": 5742,
    "lavorando": 5743,
    "lecito": 5744,
    "leggere": 5745,
    "levante,": 5746,
    "lio,": 5747,
    "lieta": 5748,
    "lingu": 5749,
    "loco": 5750,
    "longo": 5751,
    "lontano,": 5752,
    "lontana": 5753,
    "luci": 5754,
    "m.": 5755,
    "mesco": 5756,
    "meser": 5757,
    "mata": 5758,
    "magistrati": 5759,
    "mandi": 5760,
    "mantener": 5761,
    "mantenere": 5762,
    "marmi": 5763,
    "masnadi": 5764,
    "mbo,": 5765,
    "memb": 5766,
    "medesimamente": 5767,
    "mediocre": 5768,
    "mercanti": 5769,
    "meriti": 5770,
    "mia.": 5771,
    "mico,": 5772,
    "miseramente": 5773,
    "misericordia": 5774,
    "mosco": 5775,
    "mosse": 5776,
    "monarchi": 5777,
    "montato": 5778,
    "morti,": 5779,
    "moscovi": 5780,
    "movimenti": 5781,
    "multi": 5782,
    "multipli": 5783,
    "n'ha": 5784,
    "nascere": 5785,
    "nascon": 5786,
    "navi,": 5787,
    "nemici,": 5788,
    "net": 5789,
    "necessaria": 5790,
    "nell'altra": 5791,
    "nullo": 5792,
    "obe": 5793,
    "over": 5794,
    "ozio": 5795,
    "obbedi": 5796,
    "occul": 5797,
    "offesa": 5798,
    "onesto": 5799,
    "onsi": 5800,
    "onore,": 5801,
    "operazioni": 5802,
    "oratori": 5803,
    "origine": 5804,
    "ottimamente": 5805,
    "pel": 5806,
    "pesa": 5807,
    "pesti": 5808,
    "ple": 5809,
    "plen": 5810,
    "padi": 5811,
    "paese.": 5812,
    "parente": 5813,
    "partori": 5814,
    "parendogli": 5815,
    "parlò": 5816,
    "parlamento": 5817,
    "partiene": 5818,
    "partimmo": 5819,
    "partir": 5820,
    "particolari": 5821,
    "particolarmente": 5822,
    "passano": 5823,
    "pensato": 5824,
    "pensiero,": 5825,
    "percos": 5826,
    "perde": 5827,
    "perdono": 5828,
    "perfec": 5829,
    "pervenne": 5830,
    "pesce": 5831,
    "peso": 5832,
    "piaceri": 5833,
    "piangendo,": 5834,
    "picciole": 5835,
    "pietra": 5836,
    "pigliando": 5837,
    "piutto": 5838,
    "piuttosto": 5839,
    "porte": 5840,
    "portata": 5841,
    "potenti,": 5842,
    "poterlo": 5843,
    "ppono": 5844,
    "prede": 5845,
    "predette": 5846,
    "prepara": 5847,
    "prestare": 5848,
    "presenta": 5849,
    "prestamente": 5850,
    "principio,": 5851,
    "privati": 5852,
    "prover": 5853,
    "prosperi": 5854,
    "provisione": 5855,
    "provincie,": 5856,
    "provvedenza": 5857,
    "prudenti": 5858,
    "publico,": 5859,
    "punte": 5860,
    "puoi": 5861,
    "quantità,": 5862,
    "queste,": 5863,
    "rante": 5864,
    "refra": 5865,
    "regi": 5866,
    "rego": 5867,
    "rest": 5868,
    "restare": 5869,
    "reggimento": 5870,
    "regno.": 5871,
    "republica,": 5872,
    "ridere": 5873,
    "riguarda": 5874,
    "riportate": 5875,
    "risolu": 5876,
    "risul": 5877,
    "ritornar": 5878,
    "river": 5879,
    "rivolto": 5880,
    "ricevuti": 5881,
    "ricevuti,": 5882,
    "rimanente": 5883,
    "rimettere": 5884,
    "rina,": 5885,
    "risplen": 5886,
    "ritirò": 5887,
    "ritratti": 5888,
    "roba": 5889,
    "robbe": 5890,
    "rola": 5891,
    "rotti": 5892,
    "romana": 5893,
    "spon": 5894,
    "steri": 5895,
    "sun": 5896,
    "s'a": 5897,
    "sai": 5898,
    "samente,": 5899,
    "sato": 5900,
    "sazia": 5901,
    "salu": 5902,
    "sani,": 5903,
    "saputo": 5904,
    "sarò": 5905,
    "scrittura": 5906,
    "seguitato": 5907,
    "seguitò": 5908,
    "sempre,": 5909,
    "senato": 5910,
    "sentire": 5911,
    "sentito": 5912,
    "serba": 5913,
    "servono": 5914,
    "si;": 5915,
    "significa": 5916,
    "sicchè": 5917,
    "sicur": 5918,
    "simigli": 5919,
    "similitudine": 5920,
    "sof": 5921,
    "soggio": 5922,
    "soccorso": 5923,
    "soggetti": 5924,
    "solen": 5925,
    "sopradetto": 5926,
    "sospi": 5927,
    "sottili": 5928,
    "sovra": 5929,
    "spagnuo": 5930,
    "spavente": 5931,
    "ssero,": 5932,
    "ssima.": 5933,
    "stanze": 5934,
    "storia,": 5935,
    "strani": 5936,
    "stretto": 5937,
    "sugge": 5938,
    "suo;": 5939,
    "superbi": 5940,
    "tela": 5941,
    "toni": 5942,
    "tagliar": 5943,
    "tanza,": 5944,
    "tempor": 5945,
    "terà": 5946,
    "testo.": 5947,
    "tiche": 5948,
    "tirò": 5949,
    "tografia": 5950,
    "tosc": 5951,
    "torto": 5952,
    "tornano": 5953,
    "tornarono": 5954,
    "tornato": 5955,
    "traffi": 5956,
    "trastu": 5957,
    "tra’": 5958,
    "trover": 5959,
    "trovandosi": 5960,
    "ttato": 5961,
    "ttor": 5962,
    "uccisi": 5963,
    "udienza": 5964,
    "usato": 5965,
    "vani": 5966,
    "vvi": 5967,
    "va;": 5968,
    "vag": 5969,
    "vaghe": 5970,
    "varietà": 5971,
    "veggiamo": 5972,
    "venisse,": 5973,
    "vera,": 5974,
    "versi,": 5975,
    "vili": 5976,
    "visse": 5977,
    "villani": 5978,
    "viltà": 5979,
    "vincere": 5980,
    "vinti": 5981,
    "violen": 5982,
    "vittorio": 5983,
    "volo": 5984,
    "volere,": 5985,
    "vollono": 5986,
    "zando": 5987,
    "zzia": 5988,
    "zza.": 5989,
    "zzare": 5990,
    "è!": 5991,
    "—;": 5992,
    "                                                                    ": 5993,
    "\")": 5994,
    "\"vol": 5995,
    "\"volum": 5996,
    "\"volum_": 5997,
    "\"volum_0": 5998,
    "'mperio,": 5999,
    "(No": 6000,
    "(che": 6001,
    "(Nome": 6002,
    "------": 6003,
    "--------------": 6004,
    "--------------------------------": 6005,
    "135": 6006,
    "8.": 6007,
    "AUTO": 6008,
    "Ab": 6009,
    "Adri": 6010,
    "Adunque": 6011,
    "Ai": 6012,
    "Amore": 6013,
    "Ara": 6014,
    "Avi": 6015,
    "ALE": 6016,
    "Alle": 6017,
    "Ancora": 6018,
    "Anni": 6019,
    "Appresso": 6020,
    "BI": 6021,
    "Bo": 6022,
    "Baccio,": 6023,
    "Bengala,": 6024,
    "Bernardo": 6025,
    "Buona": 6026,
    "CRI": 6027,
    "CRONICA": 6028,
    "Cai": 6029,
    "Cali": 6030,
    "Cav": 6031,
    "Cu": 6032,
    "CONTE": 6033,
    "CORRE": 6034,
    "Cevul": 6035,
    "Cerchi": 6036,
    "Cinzia": 6037,
    "Ciolo": 6038,
    "Coperni": 6039,
    "Comune,": 6040,
    "Copernico": 6041,
    "Cortona": 6042,
    "Coromandel,": 6043,
    "Cusco,": 6044,
    "D,": 6045,
    "Decan": 6046,
    "Edi": 6047,
    "Egi": 6048,
    "ENTE": 6049,
    "FE": 6050,
    "FIREN": 6051,
    "FIRENZE": 6052,
    "Fabio": 6053,
    "Fiandra": 6054,
    "Filocolo": 6055,
    "Firenze;": 6056,
    "Florio": 6057,
    "Francia.": 6058,
    "Francia;": 6059,
    "G.": 6060,
    "Gra": 6061,
    "Genova,": 6062,
    "Ghibellini": 6063,
    "Giadra": 6064,
    "Giunti": 6065,
    "Gonzaga": 6066,
    "Grecia": 6067,
    "ILL": 6068,
    "IS": 6069,
    "IV": 6070,
    "Iddi": 6071,
    "Io,": 6072,
    "Is": 6073,
    "Ispa": 6074,
    "ILLUS": 6075,
    "Iddio,": 6076,
    "India.": 6077,
    "Inghilterra,": 6078,
    "Lon": 6079,
    "Lattanzio": 6080,
    "Lorenzo,": 6081,
    "Mino": 6082,
    "MATTE": 6083,
    "MATTEO": 6084,
    "Manfre": 6085,
    "Mantova": 6086,
    "Manuzio\"": 6087,
    "Massimili": 6088,
    "Moscovia,": 6089,
    "NOVELLE": 6090,
    "Navag": 6091,
    "Navi": 6092,
    "Navarra": 6093,
    "Or,": 6094,
    "Pan": 6095,
    "Pante": 6096,
    "Parma": 6097,
    "Parte": 6098,
    "Persia,": 6099,
    "Però,": 6100,
    "Perugia,": 6101,
    "Poloni": 6102,
    "Portog": 6103,
    "Provenza": 6104,
    "Puglia,": 6105,
    "Ragusi": 6106,
    "Rima": 6107,
    "Romani,": 6108,
    "Sav": 6109,
    "Sen": 6110,
    "Sol": 6111,
    "Satur": 6112,
    "Senato": 6113,
    "Siena,": 6114,
    "Signor": 6115,
    "Signori,": 6116,
    "Spagnuo": 6117,
    "TRO": 6118,
    "TTORE": 6119,
    "Tolomeo": 6120,
    "Tombutto": 6121,
    "Trascrittore": 6122,
    "Troi": 6123,
    "Uber": 6124,
    "Ugu": 6125,
    "Ubaldini": 6126,
    "Urbino,": 6127,
    "VER": 6128,
    "Vendono": 6129,
    "Viscon": 6130,
    "Virgi": 6131,
    "XVI": 6132,
    "XL,": 6133,
    "XXVII": 6134,
    "ZIONI": 6135,
    "[5": 6136,
    "abate": 6137,
    "adu": 6138,
    "azioni": 6139,
    "abon": 6140,
    "abbra": 6141,
    "abbandona": 6142,
    "abbondante": 6143,
    "abbondanza": 6144,
    "abitanti": 6145,
    "abitare": 6146,
    "accel": 6147,
    "accol": 6148,
    "accioc": 6149,
    "acciocché": 6150,
    "accostò": 6151,
    "acquist": 6152,
    "acquistare": 6153,
    "adversa": 6154,
    "adoper": 6155,
    "affermando": 6156,
    "aiutare": 6157,
    "aiutato": 6158,
    "allegro": 6159,
    "alloggi": 6160,
    "altresí": 6161,
    "altro:": 6162,
    "altrove": 6163,
    "altrui.": 6164,
    "ammo": 6165,
    "amazz": 6166,
    "ambasciatori,": 6167,
    "amici,": 6168,
    "amico,": 6169,
    "amira": 6170,
    "ammaestra": 6171,
    "an,": 6172,
    "ancia": 6173,
    "ang": 6174,
    "ansie": 6175,
    "andati": 6176,
    "appicca": 6177,
    "apertamente": 6178,
    "apparten": 6179,
    "arbi": 6180,
    "arren": 6181,
    "arbori": 6182,
    "ardire": 6183,
    "armate": 6184,
    "arrivammo": 6185,
    "aspra": 6186,
    "assen": 6187,
    "assino": 6188,
    "asta": 6189,
    "astra": 6190,
    "assass": 6191,
    "assaltare": 6192,
    "assedia": 6193,
    "assimo": 6194,
    "auda": 6195,
    "auttori": 6196,
    "avanti,": 6197,
    "avuti": 6198,
    "avvenuto": 6199,
    "avevano,": 6200,
    "avvegna": 6201,
    "bac": 6202,
    "bre,": 6203,
    "batter": 6204,
    "beati": 6205,
    "becca": 6206,
    "beono": 6207,
    "bene.": 6208,
    "biblio": 6209,
    "bigotti": 6210,
    "bili.": 6211,
    "bisogni": 6212,
    "bisognava": 6213,
    "bollett": 6214,
    "cala": 6215,
    "cano,": 6216,
    "carono": 6217,
    "cb": 6218,
    "cche,": 6219,
    "cto,": 6220,
    "camino": 6221,
    "care.": 6222,
    "caso,": 6223,
    "cambi": 6224,
    "cambio": 6225,
    "campi": 6226,
    "candi": 6227,
    "cante": 6228,
    "capella": 6229,
    "carne,": 6230,
    "causa,": 6231,
    "cavalleria": 6232,
    "ccano": 6233,
    "cchino": 6234,
    "cento,": 6235,
    "cercar": 6236,
    "cerchio": 6237,
    "certo,": 6238,
    "chil": 6239,
    "ch'avea": 6240,
    "ch'e'": 6241,
    "che·": 6242,
    "chi.": 6243,
    "chiusa": 6244,
    "chiamar": 6245,
    "chiamare": 6246,
    "chiose": 6247,
    "cifi": 6248,
    "cip": 6249,
    "cità,": 6250,
    "civile": 6251,
    "cogna": 6252,
    "coll’": 6253,
    "colpe": 6254,
    "colpo": 6255,
    "commodità": 6256,
    "compose": 6257,
    "cominciato": 6258,
    "commune": 6259,
    "comprare": 6260,
    "conchiu": 6261,
    "condanna": 6262,
    "conceduta": 6263,
    "concetto": 6264,
    "conciosiacosa": 6265,
    "condur": 6266,
    "condussono": 6267,
    "consiglia": 6268,
    "considerazione": 6269,
    "contiene,": 6270,
    "continua": 6271,
    "contrari": 6272,
    "contrarietà": 6273,
    "corni": 6274,
    "correndo": 6275,
    "cose.": 6276,
    "costa,": 6277,
    "costei": 6278,
    "credito": 6279,
    "credo,": 6280,
    "ctissima": 6281,
    "culo": 6282,
    "cuori": 6283,
    "danni": 6284,
    "dessino": 6285,
    "dá": 6286,
    "d'E": 6287,
    "d'Iddio": 6288,
    "d'ago": 6289,
    "d'alcun": 6290,
    "d'amore,": 6291,
    "d'animo": 6292,
    "d'essi": 6293,
    "d'uomini": 6294,
    "d'argento": 6295,
    "dato,": 6296,
    "dargli": 6297,
    "dea,": 6298,
    "debbono": 6299,
    "depen": 6300,
    "deva,": 6301,
    "dell'altra": 6302,
    "dell'arte": 6303,
    "dell'oro,": 6304,
    "densità": 6305,
    "dentro.": 6306,
    "dichi": 6307,
    "dife": 6308,
    "difetto": 6309,
    "digi": 6310,
    "diman": 6311,
    "dimor": 6312,
    "dire.": 6313,
    "divino": 6314,
    "dicando": 6315,
    "dicendo,": 6316,
    "diceva:": 6317,
    "differi": 6318,
    "diligentemente": 6319,
    "dimostro": 6320,
    "disarma": 6321,
    "discorso": 6322,
    "dispensa": 6323,
    "dispetto": 6324,
    "dispiacere": 6325,
    "dispu": 6326,
    "diurno": 6327,
    "do.": 6328,
    "domesti": 6329,
    "dolci": 6330,
    "dolore,": 6331,
    "donare": 6332,
    "drieto": 6333,
    "dua": 6334,
    "ducento": 6335,
    "dure": 6336,
    "durò": 6337,
    "dute": 6338,
    "duti": 6339,
    "d’arme,": 6340,
    "ea": 6341,
    "età,": 6342,
    "edizione": 6343,
    "entemente": 6344,
    "era;": 6345,
    "ero.": 6346,
    "eroici": 6347,
    "esclu": 6348,
    "esercitare": 6349,
    "esercito.": 6350,
    "essere,": 6351,
    "fere": 6352,
    "fa,": 6353,
    "fabri": 6354,
    "facilità": 6355,
    "falsi": 6356,
    "famiglie": 6357,
    "farli": 6358,
    "farne": 6359,
    "farvi": 6360,
    "fastidio": 6361,
    "fatta,": 6362,
    "fedele": 6363,
    "fermò": 6364,
    "ffri": 6365,
    "fieri": 6366,
    "figliuoli,": 6367,
    "finalmente,": 6368,
    "forme": 6369,
    "fratelli": 6370,
    "fue": 6371,
    "fur": 6372,
    "fuggiti": 6373,
    "garono": 6374,
    "gò": 6375,
    "gara,": 6376,
    "gagliar": 6377,
    "gettano": 6378,
    "genna": 6379,
    "genza": 6380,
    "generalmente": 6381,
    "genovesi": 6382,
    "gentiluomini,": 6383,
    "ggiatura": 6384,
    "ggiunse": 6385,
    "ghibell": 6386,
    "gianni": 6387,
    "giugno": 6388,
    "giusto": 6389,
    "giudica": 6390,
    "giudicano": 6391,
    "gliel": 6392,
    "gliere": 6393,
    "go.": 6394,
    "govern": 6395,
    "grandissima,": 6396,
    "greca": 6397,
    "gridando": 6398,
    "guel": 6399,
    "guari": 6400,
    "guardata": 6401,
    "guasta": 6402,
    "guasto": 6403,
    "guerre,": 6404,
    "guerra.": 6405,
    "guito": 6406,
    "hanno,": 6407,
    "http://www.liber": 6408,
    "http://www.liberliber": 6409,
    "http://www.liberliber.it/": 6410,
    "iti": 6411,
    "idoli": 6412,
    "idoli,": 6413,
    "illi": 6414,
    "illustrissimo": 6415,
    "imagini": 6416,
    "inanzi": 6417,
    "inci": 6418,
    "inde": 6419,
    "ine,": 6420,
    "insensi": 6421,
    "inven": 6422,
    "incredibile": 6423,
    "inferno": 6424,
    "ingegno,": 6425,
    "ingenu": 6426,
    "intesa": 6427,
    "intelletto": 6428,
    "intendendo": 6429,
    "intender": 6430,
    "intendere,": 6431,
    "intervallo": 6432,
    "lano": 6433,
    "l'A": 6434,
    "l'abbia": 6435,
    "l'accordo": 6436,
    "l'aiuto": 6437,
    "l'am": 6438,
    "l'ambasciadore": 6439,
    "l'avea": 6440,
    "l'avere": 6441,
    "l'isola": 6442,
    "l'ora": 6443,
    "l'un": 6444,
    "l'amor": 6445,
    "l'avari": 6446,
    "l'altare": 6447,
    "lai": 6448,
    "lari,": 6449,
    "lata": 6450,
    "lavano": 6451,
    "lagrime,": 6452,
    "largamente": 6453,
    "lasciasse": 6454,
    "lasciava": 6455,
    "lavori": 6456,
    "lavorò": 6457,
    "leghe": 6458,
    "leghe,": 6459,
    "letto,": 6460,
    "legger": 6461,
    "leggieri": 6462,
    "lettori": 6463,
    "levato": 6464,
    "libb": 6465,
    "libro,": 6466,
    "lieto": 6467,
    "lo;": 6468,
    "luce,": 6469,
    "luglio": 6470,
    "lum": 6471,
    "marono": 6472,
    "muto": 6473,
    "maestri": 6474,
    "maestro,": 6475,
    "magis": 6476,
    "magistrato": 6477,
    "malizia": 6478,
    "mana": 6479,
    "mante": 6480,
    "manto": 6481,
    "mandorono": 6482,
    "mangiare,": 6483,
    "marmo,": 6484,
    "membra": 6485,
    "metro": 6486,
    "menarono": 6487,
    "mene": 6488,
    "menò": 6489,
    "merita": 6490,
    "merito": 6491,
    "mestiere": 6492,
    "mila,": 6493,
    "miti": 6494,
    "millecinquecento": 6495,
    "minuta": 6496,
    "miracoli": 6497,
    "moder": 6498,
    "modesti": 6499,
    "mostri": 6500,
    "mov": 6501,
    "movendo": 6502,
    "mondan": 6503,
    "monio,": 6504,
    "montagna": 6505,
    "mortali": 6506,
    "moscovitica": 6507,
    "mostr": 6508,
    "mostrato": 6509,
    "mostrava": 6510,
    "muove": 6511,
    "nno": 6512,
    "n'ho": 6513,
    "nascono": 6514,
    "nave": 6515,
    "narrar": 6516,
    "natural": 6517,
    "naturali": 6518,
    "nell'altre": 6519,
    "nessuna": 6520,
    "niente,": 6521,
    "nimici,": 6522,
    "nipo": 6523,
    "nipote": 6524,
    "nobili,": 6525,
    "nome.": 6526,
    "nostro,": 6527,
    "notaio": 6528,
    "novembre": 6529,
    "novelle,": 6530,
    "numera": 6531,
    "odo": 6532,
    "omai": 6533,
    "otten": 6534,
    "occidentali": 6535,
    "omni": 6536,
    "oneste": 6537,
    "onaco": 6538,
    "onora": 6539,
    "operazione": 6540,
    "orazione": 6541,
    "ordinar": 6542,
    "originali": 6543,
    "ottima": 6544,
    "pane": 6545,
    "ppia": 6546,
    "pò": 6547,
    "pagar": 6548,
    "pagare": 6549,
    "patti": 6550,
    "pace.": 6551,
    "padri,": 6552,
    "parenta": 6553,
    "parlando": 6554,
    "parlare;": 6555,
    "parlava": 6556,
    "partendosi": 6557,
    "partirono": 6558,
    "partirsi": 6559,
    "partito,": 6560,
    "particolare": 6561,
    "passaggio": 6562,
    "passione": 6563,
    "patria,": 6564,
    "petto,": 6565,
    "pelleg": 6566,
    "penetra": 6567,
    "perpen": 6568,
    "peradore": 6569,
    "pericoloso": 6570,
    "pesci,": 6571,
    "piccol": 6572,
    "pis": 6573,
    "piace,": 6574,
    "piacevole,": 6575,
    "piccioli": 6576,
    "picciolo": 6577,
    "piede": 6578,
    "pole": 6579,
    "pore": 6580,
    "possino": 6581,
    "poeta": 6582,
    "poscia": 6583,
    "possen": 6584,
    "posti,": 6585,
    "postu": 6586,
    "possano": 6587,
    "possa,": 6588,
    "poteva,": 6589,
    "potersi": 6590,
    "potria": 6591,
    "ppo,": 6592,
    "pratiche": 6593,
    "preso,": 6594,
    "pressa": 6595,
    "prendere,": 6596,
    "priego": 6597,
    "principato": 6598,
    "privilegi": 6599,
    "processo": 6600,
    "profi": 6601,
    "promesse": 6602,
    "proponimento": 6603,
    "propinqua": 6604,
    "provvi": 6605,
    "prudenza": 6606,
    "punteggiatura": 6607,
    "puote": 6608,
    "quæ": 6609,
    "quadro": 6610,
    "que’": 6611,
    "rendo": 6612,
    "rgli": 6613,
    "rla": 6614,
    "ruo": 6615,
    "raddo": 6616,
    "raf": 6617,
    "rame": 6618,
    "rame,": 6619,
    "ragona": 6620,
    "ragionamento": 6621,
    "reale": 6622,
    "regola": 6623,
    "rei": 6624,
    "relazione": 6625,
    "reflessi": 6626,
    "religioso": 6627,
    "repubbliche": 6628,
    "resisten": 6629,
    "restitu": 6630,
    "ri;": 6631,
    "ricol": 6632,
    "ridendo": 6633,
    "rigi": 6634,
    "rilie": 6635,
    "rim": 6636,
    "ripe": 6637,
    "riprese": 6638,
    "riso,": 6639,
    "risol": 6640,
    "rivol": 6641,
    "ria;": 6642,
    "ricevi": 6643,
    "richesta": 6644,
    "rimasono": 6645,
    "riputa": 6646,
    "ritira": 6647,
    "ritrasse": 6648,
    "romani,": 6649,
    "romano,": 6650,
    "romore,": 6651,
    "rotto,": 6652,
    "sfo": 6653,
    "sperare": 6654,
    "spie": 6655,
    "sposa": 6656,
    "spre": 6657,
    "ssu": 6658,
    "sa.": 6659,
    "sacco": 6660,
    "sasso": 6661,
    "salito": 6662,
    "sappi": 6663,
    "sappia": 6664,
    "sappiano": 6665,
    "satisfazione": 6666,
    "scalco": 6667,
    "scandalo": 6668,
    "scienza": 6669,
    "scoperta": 6670,
    "scoperto": 6671,
    "scrittu": 6672,
    "scrivono": 6673,
    "scrivere,": 6674,
    "scus": 6675,
    "sedia": 6676,
    "setten": 6677,
    "segua": 6678,
    "seguì": 6679,
    "selva": 6680,
    "senno": 6681,
    "sentirono": 6682,
    "servito": 6683,
    "simula": 6684,
    "sia.": 6685,
    "sicuro": 6686,
    "signore.": 6687,
    "soste": 6688,
    "sosti": 6689,
    "soccorrere": 6690,
    "sonsi": 6691,
    "soperchio": 6692,
    "sorella": 6693,
    "sotto,": 6694,
    "spade": 6695,
    "specta": 6696,
    "specialmente": 6697,
    "ssi.": 6698,
    "ssimo.": 6699,
    "strano": 6700,
    "stre,": 6701,
    "stanza,": 6702,
    "stesso,": 6703,
    "stor": 6704,
    "stretta": 6705,
    "stretti": 6706,
    "stretto,": 6707,
    "superbia": 6708,
    "tun": 6709,
    "txt": 6710,
    "té": 6711,
    "t'ha": 6712,
    "tadi": 6713,
    "tani": 6714,
    "tanze": 6715,
    "te:": 6716,
    "tempi.": 6717,
    "teneano": 6718,
    "terina": 6719,
    "tesori": 6720,
    "tien": 6721,
    "tio": 6722,
    "tione": 6723,
    "tirando": 6724,
    "tissimo": 6725,
    "tore.": 6726,
    "tornata": 6727,
    "tradimento": 6728,
    "tramontana": 6729,
    "travagli": 6730,
    "travaglia": 6731,
    "travaglio": 6732,
    "tremila": 6733,
    "tribo": 6734,
    "trice": 6735,
    "trie": 6736,
    "trista": 6737,
    "tributo": 6738,
    "trovano,": 6739,
    "trovai": 6740,
    "trovava": 6741,
    "ttare": 6742,
    "tuosi": 6743,
    "tur.": 6744,
    "tura.": 6745,
    "txt\")": 6746,
    "ubi": 6747,
    "ugu": 6748,
    "umi": 6749,
    "ut": 6750,
    "ubbidire": 6751,
    "uccelli": 6752,
    "udita": 6753,
    "udite": 6754,
    "ultimi": 6755,
    "umane": 6756,
    "unde": 6757,
    "unirsi": 6758,
    "uniti": 6759,
    "uno,": 6760,
    "uoli": 6761,
    "uscirono": 6762,
    "vela": 6763,
    "vello": 6764,
    "veste": 6765,
    "vaso": 6766,
    "vale,": 6767,
    "vana": 6768,
    "vana,": 6769,
    "vecchia": 6770,
    "vede,": 6771,
    "vedre": 6772,
    "veggono": 6773,
    "vesi": 6774,
    "vedova": 6775,
    "veleno": 6776,
    "vendi": 6777,
    "venga": 6778,
    "verbigrazia,": 6779,
    "vestito": 6780,
    "vidde": 6781,
    "vide,": 6782,
    "vittua": 6783,
    "vivi,": 6784,
    "vivo,": 6785,
    "viaggio,": 6786,
    "vicino,": 6787,
    "vilmente": 6788,
    "vinci": 6789,
    "vinse": 6790,
    "vinta": 6791,
    "voce,": 6792,
    "volsero": 6793,
    "zucca": 6794,
    "»;": 6795,
    "ía": 6796,
    "“O": 6797,
    "\n\n                                 ": 6798,
    "\n\n                                   ": 6799,
    "\n                      ": 6800,
    "\n                           ": 6801,
    "\n                             ": 6802,
    "\n                               ": 6803,
    "\n                                ": 6804,
    "                                                 ": 6805,
    "'è": 6806,
    ");": 6807,
    "112": 6808,
    "124": 6809,
    "153": 6810,
    "3,": 6811,
    "6.": 6812,
    "8,": 6813,
    "Ac": 6814,
    "Alora": 6815,
    "Aristo": 6816,
    "AIUTO": 6817,
    "ANTE": 6818,
    "AUTORE": 6819,
    "Alfon": 6820,
    "Alama": 6821,
    "Alberto": 6822,
    "Alcuni": 6823,
    "Ancon": 6824,
    "Anzi": 6825,
    "Aquila": 6826,
    "Arnol": 6827,
    "Avignon": 6828,
    "Avignone": 6829,
    "BUS": 6830,
    "Bala": 6831,
    "Bat": 6832,
    "Bel": 6833,
    "Bello": 6834,
    "Bari": 6835,
    "Batista": 6836,
    "Bartolino": 6837,
    "Bembo,": 6838,
    "Biancifiore": 6839,
    "Breu,": 6840,
    "CX": 6841,
    "Cab": 6842,
    "Cris": 6843,
    "Cronica": 6844,
    "CAN": 6845,
    "COLL": 6846,
    "COLL’": 6847,
    "COLL’AIUTO": 6848,
    "CORREZIONI": 6849,
    "CORTEGI": 6850,
    "CORTEGIANO": 6851,
    "Catal": 6852,
    "Camba": 6853,
    "Campo": 6854,
    "Carlo,": 6855,
    "Carrara": 6856,
    "Cather": 6857,
    "Catherine": 6858,
    "Chaam,": 6859,
    "Cima": 6860,
    "Cimabu": 6861,
    "Ciompi": 6862,
    "Colui": 6863,
    "Comin": 6864,
    "Cos": 6865,
    "Costoro": 6866,
    "Colonna": 6867,
    "Colonne": 6868,
    "Cristo,": 6869,
    "Cristiani,": 6870,
    "Dam": 6871,
    "Dama": 6872,
    "Don": 6873,
    "DE’": 6874,
    "DICE": 6875,
    "DIVI": 6876,
    "DOTTA": 6877,
    "Dario": 6878,
    "Dammia": 6879,
    "Dice": 6880,
    "Dico": 6881,
    "Donati": 6882,
    "Duca,": 6883,
    "E'": 6884,
    "ELE": 6885,
    "ELL": 6886,
    "EDITO": 6887,
    "EDIZIONE": 6888,
    "ENNA": 6889,
    "ERRO": 6890,
    "ERRORI": 6891,
    "Erco": 6892,
    "Fac": 6893,
    "Fin": 6894,
    "FIORENTI": 6895,
    "Ferdi": 6896,
    "Fernan": 6897,
    "Fernando": 6898,
    "Ferdinando": 6899,
    "Fernande": 6900,
    "Fiammin": 6901,
    "Fortuna": 6902,
    "Franceschi,": 6903,
    "Friuli": 6904,
    "GIO": 6905,
    "Gal": 6906,
    "Gen": 6907,
    "GHERI": 6908,
    "GLIOR": 6909,
    "Gentili": 6910,
    "Gentili,": 6911,
    "Giamo": 6912,
    "Girola": 6913,
    "Gio.": 6914,
    "Giove": 6915,
    "Giovacchino": 6916,
    "Giovamba": 6917,
    "Giovannan": 6918,
    "Giuliano": 6919,
    "Gual": 6920,
    "Gugliel": 6921,
    "Iano": 6922,
    "III": 6923,
    "Inghilesi": 6924,
    "Inter": 6925,
    "Innocenzio": 6926,
    "Internet": 6927,
    "LG": 6928,
    "Lallo": 6929,
    "LEZIONE": 6930,
    "LIN": 6931,
    "LLANI": 6932,
    "Livio": 6933,
    "MPO": 6934,
    "Mini": 6935,
    "Moro,": 6936,
    "MAGHERI": 6937,
    "MIGLIOR": 6938,
    "Mara": 6939,
    "Maestro": 6940,
    "Magnifico": 6941,
    "Mammal": 6942,
    "Mantova,": 6943,
    "Marca": 6944,
    "Massimiliano": 6945,
    "Michelagnolo,": 6946,
    "Modena": 6947,
    "Monsignor": 6948,
    "Montepul": 6949,
    "Nino": 6950,
    "Niccolò,": 6951,
    "Nicuola": 6952,
    "Norman": 6953,
    "Oltra": 6954,
    "Onde,": 6955,
    "Ortografia": 6956,
    "PENNA": 6957,
    "Pala": 6958,
    "Pali": 6959,
    "Pla": 6960,
    "Plin": 6961,
    "Prima": 6962,
    "Pado": 6963,
    "Paol": 6964,
    "Paganelli,": 6965,
    "Palissa": 6966,
    "Paolan": 6967,
    "Pisani,": 6968,
    "Portogallo": 6969,
    "Prolo": 6970,
    "Prologo": 6971,
    "QUES": 6972,
    "Quar": 6973,
    "RIA": 6974,
    "RIDOTTA": 6975,
    "Regno": 6976,
    "Romolo": 6977,
    "Ruberto,": 6978,
    "SA": 6979,
    "SAR": 6980,
    "Sandomi": 6981,
    "Sarma": 6982,
    "Scal": 6983,
    "Sel": 6984,
    "Sera": 6985,
    "SECON": 6986,
    "SIMO": 6987,
    "SIGNOR": 6988,
    "SSIMI": 6989,
    "Saler": 6990,
    "Salvia": 6991,
    "Sentendo": 6992,
    "Signori": 6993,
    "Signoria": 6994,
    "Somma": 6995,
    "Sopra": 6996,
    "Soderini": 6997,
    "Sofí,": 6998,
    "Spagno": 6999,
    "TTI": 7000,
    "TESTI": 7001,
    "Tartaria": 7002,
    "Turco,": 7003,
    "UN": 7004,
    "Ugo": 7005,
    "Uni": 7006,
    "Uguccione": 7007,
    "Ungheria,": 7008,
    "Vene": 7009,
    "Vin": 7010,
    "VILLANI": 7011,
    "Vedendo": 7012,
    "Visconti": 7013,
    "ZIO": 7014,
    "Zoro": 7015,
    "Zoroas": 7016,
    "_.": 7017,
    "_Il": 7018,
    "aba": 7019,
    "agi": 7020,
    "amare": 7021,
    "amor": 7022,
    "aristo": 7023,
    "avo": 7024,
    "a·": 7025,
    "aë": 7026,
    "abandon": 7027,
    "abitatori,": 7028,
    "accia": 7029,
    "acconsenti": 7030,
    "accresci": 7031,
    "acceso": 7032,
    "accelera": 7033,
    "acquista": 7034,
    "addietro": 7035,
    "addo": 7036,
    "affron": 7037,
    "aggiugnendo": 7038,
    "aiuti": 7039,
    "aiaze": 7040,
    "almanco": 7041,
    "alto,": 7042,
    "alucchi": 7043,
    "alcuno.": 7044,
    "alea": 7045,
    "ali.": 7046,
    "all'altre": 7047,
    "all'ambasciadore": 7048,
    "allar": 7049,
    "allor": 7050,
    "altramente": 7051,
    "ammi": 7052,
    "ambasciadore,": 7053,
    "amore.": 7054,
    "anesi": 7055,
    "anze": 7056,
    "anco,": 7057,
    "andali": 7058,
    "andai": 7059,
    "angolo": 7060,
    "anima,": 7061,
    "annotazione": 7062,
    "antecesso": 7063,
    "appi": 7064,
    "aperti": 7065,
    "aperto": 7066,
    "appella": 7067,
    "apparve": 7068,
    "appresso,": 7069,
    "arca": 7070,
    "arre": 7071,
    "arse": 7072,
    "ardito": 7073,
    "ardiva": 7074,
    "armati": 7075,
    "aspre": 7076,
    "assero": 7077,
    "astretto": 7078,
    "assun": 7079,
    "assai.": 7080,
    "attendeva": 7081,
    "attorno": 7082,
    "autore": 7083,
    "avrà": 7084,
    "avveni": 7085,
    "avversi": 7086,
    "avemo": 7087,
    "avvenuto,": 7088,
    "avviso": 7089,
    "bamba": 7090,
    "by": 7091,
    "banda,": 7092,
    "barbu": 7093,
    "basso,": 7094,
    "basamento": 7095,
    "bbra": 7096,
    "bbia": 7097,
    "beata,": 7098,
    "beffe": 7099,
    "bellezza,": 7100,
    "benchè": 7101,
    "benigna": 7102,
    "benigni": 7103,
    "bianche": 7104,
    "bibliote": 7105,
    "bilmente": 7106,
    "bontà": 7107,
    "bottega": 7108,
    "braccio,": 7109,
    "buffone": 7110,
    "cess": 7111,
    "cessione": 7112,
    "clin": 7113,
    "croni": 7114,
    "czar": 7115,
    "ca:": 7116,
    "cabeata,": 7117,
    "cadere,": 7118,
    "cario": 7119,
    "case,": 7120,
    "cass": 7121,
    "cato,": 7122,
    "catuno": 7123,
    "cavi": 7124,
    "cacciar": 7125,
    "cacciare": 7126,
    "calami": 7127,
    "calde": 7128,
    "campagna,": 7129,
    "cane,": 7130,
    "cangi": 7131,
    "canne": 7132,
    "canta": 7133,
    "cantone": 7134,
    "capito": 7135,
    "capitoli": 7136,
    "carni": 7137,
    "caratter": 7138,
    "cardinali,": 7139,
    "carichi": 7140,
    "case.": 7141,
    "cavaliere,": 7142,
    "cede": 7143,
    "cesi": 7144,
    "celes": 7145,
    "celeste": 7146,
    "celesti": 7147,
    "cena,": 7148,
    "centi": 7149,
    "certissimo": 7150,
    "ch,": 7151,
    "chu": 7152,
    "ch'aveva": 7153,
    "che·l": 7154,
    "che·lla": 7155,
    "chia,": 7156,
    "chiunque": 7157,
    "chiamo": 7158,
    "ch’aveano": 7159,
    "ch’io": 7160,
    "ciano,": 7161,
    "ciare": 7162,
    "cinquantamila": 7163,
    "circui": 7164,
    "coi": 7165,
    "colei": 7166,
    "coli,": 7167,
    "cosi": 7168,
    "coso": 7169,
    "collegati": 7170,
    "colonna": 7171,
    "colonne": 7172,
    "colore": 7173,
    "commodo": 7174,
    "com'era": 7175,
    "comandamenti": 7176,
    "combatt": 7177,
    "combattendo": 7178,
    "cominciano": 7179,
    "commissione": 7180,
    "comunemente": 7181,
    "confin": 7182,
    "confusione": 7183,
    "consegu": 7184,
    "consen": 7185,
    "conte,": 7186,
    "convien": 7187,
    "conciosiacosaché": 7188,
    "condurre": 7189,
    "conducevano": 7190,
    "confess": 7191,
    "confesso": 7192,
    "confina": 7193,
    "confederazione": 7194,
    "conforta": 7195,
    "conoscere,": 7196,
    "conservare": 7197,
    "considerato": 7198,
    "consiglieri": 7199,
    "consueto": 7200,
    "contado,": 7201,
    "contasto": 7202,
    "contempla": 7203,
    "contenti": 7204,
    "contrade": 7205,
    "contradi": 7206,
    "contraria": 7207,
    "corde": 7208,
    "corno": 7209,
    "corona,": 7210,
    "corrispon": 7211,
    "corsa": 7212,
    "corse": 7213,
    "corsero": 7214,
    "correggendo": 7215,
    "cortese": 7216,
    "cortegiano": 7217,
    "costuma": 7218,
    "così,": 7219,
    "credenza": 7220,
    "crediate": 7221,
    "credendosi": 7222,
    "cristiano,": 7223,
    "cum": 7224,
    "curando": 7225,
    "curo": 7226,
    "cupidità": 7227,
    "d,": 7228,
    "derano": 7229,
    "done,": 7230,
    "dro": 7231,
    "d'alcuno": 7232,
    "d'altra": 7233,
    "d'amore": 7234,
    "d'andar": 7235,
    "d'essa": 7236,
    "d'esso": 7237,
    "d'Araona": 7238,
    "d'arme.": 7239,
    "damente,": 7240,
    "data,": 7241,
    "dall'una": 7242,
    "danne": 7243,
    "danno,": 7244,
    "def": 7245,
    "degn": 7246,
    "degnità": 7247,
    "devo": 7248,
    "devono": 7249,
    "deboli": 7250,
    "decimo": 7251,
    "defen": 7252,
    "deliberato": 7253,
    "deliberazione,": 7254,
    "dell'Africa": 7255,
    "dell'ordine": 7256,
    "dene": 7257,
    "denzia": 7258,
    "destru": 7259,
    "descrizione": 7260,
    "desidero": 7261,
    "detta,": 7262,
    "detto:": 7263,
    "deveva": 7264,
    "dichiara": 7265,
    "digni": 7266,
    "dimandando": 7267,
    "din": 7268,
    "diur": 7269,
    "diametro": 7270,
    "diare": 7271,
    "diceano": 7272,
    "dicembre,": 7273,
    "difficoltà": 7274,
    "difficultà": 7275,
    "dilettevole": 7276,
    "diligenzia": 7277,
    "dimorato": 7278,
    "disca": 7279,
    "disco": 7280,
    "discos": 7281,
    "discosto": 7282,
    "disper": 7283,
    "dispiac": 7284,
    "disponi": 7285,
    "distanze": 7286,
    "distin": 7287,
    "disagio": 7288,
    "discendenti": 7289,
    "discordia": 7290,
    "discordie": 7291,
    "disio": 7292,
    "disordine": 7293,
    "diversità": 7294,
    "divisione": 7295,
    "divozione": 7296,
    "doct": 7297,
    "dog": 7298,
    "domandando": 7299,
    "dotto": 7300,
    "dolce,": 7301,
    "dolle": 7302,
    "dolori": 7303,
    "doloroso": 7304,
    "donò": 7305,
    "dovessimo": 7306,
    "dov’": 7307,
    "drappi": 7308,
    "dubio": 7309,
    "dumila": 7310,
    "dubitare": 7311,
    "dì.": 7312,
    "d’Inghilterra": 7313,
    "d’oro": 7314,
    "d’oro,": 7315,
    "ebbe,": 7316,
    "em": 7317,
    "emen": 7318,
    "emp": 7319,
    "etta": 7320,
    "edifizii": 7321,
    "effemina": 7322,
    "effetto,": 7323,
    "el,": 7324,
    "ella.": 7325,
    "endissimo": 7326,
    "entr": 7327,
    "endogli": 7328,
    "entrando": 7329,
    "entrarono": 7330,
    "erba": 7331,
    "esal": 7332,
    "esca": 7333,
    "esce": 7334,
    "escono": 7335,
    "esen": 7336,
    "esper": 7337,
    "esú": 7338,
    "esemplo": 7339,
    "esercizio": 7340,
    "esperienza": 7341,
    "esperienze": 7342,
    "esse.": 7343,
    "essendovi": 7344,
    "esserci": 7345,
    "esserne": 7346,
    "essersi": 7347,
    "esservi": 7348,
    "eterno": 7349,
    "etterna": 7350,
    "fren": 7351,
    "facci": 7352,
    "faceva,": 7353,
    "facendogli": 7354,
    "falsa": 7355,
    "false": 7356,
    "fanciullo,": 7357,
    "fanti.": 7358,
    "fare;": 7359,
    "fatti,": 7360,
    "felicità": 7361,
    "femmine": 7362,
    "femina,": 7363,
    "fermare": 7364,
    "ferro": 7365,
    "fferi": 7366,
    "fia,": 7367,
    "fic": 7368,
    "ficare": 7369,
    "fice,": 7370,
    "fiamme": 7371,
    "fici.": 7372,
    "figliuole": 7373,
    "filosofo": 7374,
    "fiume,": 7375,
    "folli": 7376,
    "fora": 7377,
    "fossi,": 7378,
    "fondata": 7379,
    "fondato": 7380,
    "fonte": 7381,
    "fornire": 7382,
    "fortuna.": 7383,
    "frutti,": 7384,
    "fuggì": 7385,
    "fuora,": 7386,
    "fuori.": 7387,
    "gante": 7388,
    "gini,": 7389,
    "grano": 7390,
    "gara": 7391,
    "gagliardo": 7392,
    "galea": 7393,
    "gelosia": 7394,
    "genere": 7395,
    "generazione": 7396,
    "gennaio": 7397,
    "genovesi,": 7398,
    "genti.": 7399,
    "geografia": 7400,
    "ggiando": 7401,
    "ggiare": 7402,
    "ggiata": 7403,
    "giardino": 7404,
    "gioi": 7405,
    "gioie": 7406,
    "giovani,": 7407,
    "giugne": 7408,
    "giugnendo": 7409,
    "giurare": 7410,
    "giuris": 7411,
    "giudici": 7412,
    "giudizio": 7413,
    "giudicio,": 7414,
    "giuochi": 7415,
    "gl'iddii": 7416,
    "gliano": 7417,
    "gloria,": 7418,
    "gloriosa": 7419,
    "gna;": 7420,
    "gnolo": 7421,
    "gonfalone": 7422,
    "grafici.": 7423,
    "gravezza": 7424,
    "grida": 7425,
    "guadagn": 7426,
    "ha,": 7427,
    "him": 7428,
    "ir": 7429,
    "istessa": 7430,
    "istru": 7431,
    "ignomini": 7432,
    "ignoranza": 7433,
    "immen": 7434,
    "impicca": 7435,
    "imagine": 7436,
    "imbasciadori": 7437,
    "imitando": 7438,
    "immediate": 7439,
    "impedimento": 7440,
    "imperfe": 7441,
    "imperado": 7442,
    "imperatore,": 7443,
    "imperatori": 7444,
    "imperiale": 7445,
    "importanza,": 7446,
    "indosso": 7447,
    "indri": 7448,
    "inse": 7449,
    "instanza": 7450,
    "instru": 7451,
    "inverso": 7452,
    "invia": 7453,
    "indicate": 7454,
    "indugio": 7455,
    "infelice": 7456,
    "infiamma": 7457,
    "ingino": 7458,
    "ingann": 7459,
    "ini.": 7460,
    "inimico": 7461,
    "intese": 7462,
    "interpe": 7463,
    "interpreti": 7464,
    "introdu": 7465,
    "invenzione": 7466,
    "italiana.": 7467,
    "lini": 7468,
    "lle": 7469,
    "lli,": 7470,
    "l'acqua,": 7471,
    "l'altre,": 7472,
    "l'anime": 7473,
    "l'avevano": 7474,
    "l'ultima": 7475,
    "l'una,": 7476,
    "l'uomo": 7477,
    "l'odio": 7478,
    "l'op": 7479,
    "l'uno,": 7480,
    "lac": 7481,
    "lama": 7482,
    "lass": 7483,
    "late": 7484,
    "latino": 7485,
    "largo": 7486,
    "lasciar": 7487,
    "lasciati": 7488,
    "lette": 7489,
    "leggiere": 7490,
    "leggiadro": 7491,
    "levarsi": 7492,
    "levante": 7493,
    "liberi": 7494,
    "liberale,": 7495,
    "libertá": 7496,
    "licenza": 7497,
    "licito": 7498,
    "lieve": 7499,
    "lodata": 7500,
    "lontananza": 7501,
    "lontani": 7502,
    "lume,": 7503,
    "lungi": 7504,
    "luoco": 7505,
    "luogo.": 7506,
    "l’avea": 7507,
    "l’immagine": 7508,
    "mele": 7509,
    "mere": 7510,
    "m'era": 7511,
    "maturi": 7512,
    "magnificenza": 7513,
    "male.": 7514,
    "manca,": 7515,
    "mancare": 7516,
    "mancata": 7517,
    "mangiavano": 7518,
    "manifes": 7519,
    "mano.": 7520,
    "mantenute,": 7521,
    "marzo": 7522,
    "mariti": 7523,
    "masnadieri": 7524,
    "materie": 7525,
    "mezz": 7526,
    "medesimamente,": 7527,
    "memoria,": 7528,
    "menando": 7529,
    "menare": 7530,
    "meraviglia": 7531,
    "mercadanti": 7532,
    "mercanzia": 7533,
    "mercatante,": 7534,
    "mescol": 7535,
    "messo,": 7536,
    "mestiero": 7537,
    "mi.": 7538,
    "mica": 7539,
    "migliori": 7540,
    "milizia": 7541,
    "minacci": 7542,
    "ministro": 7543,
    "mirabile": 7544,
    "mirabili": 7545,
    "miserie": 7546,
    "mogli": 7547,
    "mosche": 7548,
    "mossi": 7549,
    "mostro": 7550,
    "motto": 7551,
    "moglie.": 7552,
    "molt'": 7553,
    "monar": 7554,
    "montò": 7555,
    "monastero": 7556,
    "monis": 7557,
    "montagne,": 7558,
    "morbi": 7559,
    "morire,": 7560,
    "mostrar": 7561,
    "mostravano": 7562,
    "mutato": 7563,
    "muovono": 7564,
    "mutazione": 7565,
    "n-": 7566,
    "nali": 7567,
    "ner": 7568,
    "nero,": 7569,
    "nun": 7570,
    "nature": 7571,
    "narr": 7572,
    "nativi": 7573,
    "nega": 7574,
    "nell'acqua": 7575,
    "nità": 7576,
    "niun": 7577,
    "noci": 7578,
    "nor": 7579,
    "novi": 7580,
    "novita": 7581,
    "novo": 7582,
    "nobilissima": 7583,
    "noi.": 7584,
    "nominata": 7585,
    "non,": 7586,
    "notizia,": 7587,
    "novitadi": 7588,
    "nuovamente": 7589,
    "ome": 7590,
    "omici": 7591,
    "omini": 7592,
    "occupare": 7593,
    "occupati": 7594,
    "offeri": 7595,
    "oggimai": 7596,
    "oncie": 7597,
    "onesti": 7598,
    "onte,": 7599,
    "onorato": 7600,
    "operare": 7601,
    "opinione,": 7602,
    "ordinati": 7603,
    "orecchie": 7604,
    "ornamento": 7605,
    "oscura": 7606,
    "oscuro": 7607,
    "osservan": 7608,
    "osservato": 7609,
    "ovvero": 7610,
    "pla": 7611,
    "paes": 7612,
    "pare,": 7613,
    "pav": 7614,
    "pazzia": 7615,
    "palmi": 7616,
    "palazzo,": 7617,
    "parere": 7618,
    "parten": 7619,
    "partí": 7620,
    "paradi": 7621,
    "paresse": 7622,
    "parla,": 7623,
    "parola,": 7624,
    "partisse": 7625,
    "particola": 7626,
    "passato,": 7627,
    "pecore": 7628,
    "peggio,": 7629,
    "pezzo": 7630,
    "pensò": 7631,
    "pensieri,": 7632,
    "perder": 7633,
    "perdita": 7634,
    "perfi": 7635,
    "permesso": 7636,
    "pertanto": 7637,
    "perturba": 7638,
    "pervenuto": 7639,
    "pereg": 7640,
    "perpetua": 7641,
    "persone,": 7642,
    "persuaso": 7643,
    "persuadere": 7644,
    "pescano": 7645,
    "pescare": 7646,
    "piano,": 7647,
    "pitto": 7648,
    "pittori": 7649,
    "piagnere": 7650,
    "piaceva": 7651,
    "piacevolezza": 7652,
    "piedi,": 7653,
    "pienamente": 7654,
    "pitture": 7655,
    "plebei": 7656,
    "pografici.": 7657,
    "popu": 7658,
    "posso,": 7659,
    "polvere": 7660,
    "ponente": 7661,
    "ponesse": 7662,
    "popolare": 7663,
    "porto,": 7664,
    "porta.": 7665,
    "possessione": 7666,
    "potessero": 7667,
    "potessimo": 7668,
    "potessono": 7669,
    "pratico": 7670,
    "preda,": 7671,
    "predica": 7672,
    "premio": 7673,
    "presero": 7674,
    "preten": 7675,
    "prieghi": 7676,
    "principi,": 7677,
    "pro,": 7678,
    "procacci": 7679,
    "promessi": 7680,
    "propietà": 7681,
    "proposta": 7682,
    "procedendo": 7683,
    "proibi": 7684,
    "proporzione": 7685,
    "proprie": 7686,
    "prospere": 7687,
    "prudente": 7688,
    "pura": 7689,
    "puniti": 7690,
    "quadri": 7691,
    "quella.": 7692,
    "questi,": 7693,
    "questione": 7694,
    "quia": 7695,
    "quisi": 7696,
    "quindeci": 7697,
    "quinto": 7698,
    "rallegra": 7699,
    "rere": 7700,
    "rle": 7701,
    "rami": 7702,
    "racqui": 7703,
    "ragionando": 7704,
    "reale,": 7705,
    "reg": 7706,
    "regna": 7707,
    "retto": 7708,
    "religioni": 7709,
    "religione,": 7710,
    "rende": 7711,
    "rendendo": 7712,
    "rento": 7713,
    "reputazione": 7714,
    "restituire": 7715,
    "ribu": 7716,
    "ricco,": 7717,
    "riconosc": 7718,
    "rifi": 7719,
    "ripos": 7720,
    "riscal": 7721,
    "rise": 7722,
    "riser": 7723,
    "ritar": 7724,
    "ritenuto": 7725,
    "ritrovare": 7726,
    "riusc": 7727,
    "riveri": 7728,
    "rivolta": 7729,
    "ricchi,": 7730,
    "ricchissimo": 7731,
    "ricevette": 7732,
    "richiesta": 7733,
    "richiesto": 7734,
    "ricompensa": 7735,
    "ridotta": 7736,
    "ridotti": 7737,
    "riduce": 7738,
    "ridusse": 7739,
    "rimane": 7740,
    "rimanesse": 7741,
    "ringhi": 7742,
    "risposta,": 7743,
    "ritornando": 7744,
    "riverenza": 7745,
    "rocco": 7746,
    "rog": 7747,
    "romp": 7748,
    "rosso": 7749,
    "roves": 7750,
    "romper": 7751,
    "ronsi": 7752,
    "ruppe": 7753,
    "sbandi": 7754,
    "sbigotti": 7755,
    "scol": 7756,
    "seli": 7757,
    "sesto": 7758,
    "sfera": 7759,
    "smar": 7760,
    "speri": 7761,
    "stante": 7762,
    "sti,": 7763,
    "s'aveva": 7764,
    "s'im": 7765,
    "sa;": 7766,
    "sapien": 7767,
    "savi,": 7768,
    "savia": 7769,
    "sacerdoti": 7770,
    "salvi": 7771,
    "salute.": 7772,
    "sancta": 7773,
    "sanctissima": 7774,
    "scelera": 7775,
    "scia,": 7776,
    "scie": 7777,
    "scoprire": 7778,
    "scrittori,": 7779,
    "scudi": 7780,
    "secolo": 7781,
    "semen": 7782,
    "sesi": 7783,
    "sever": 7784,
    "seconda,": 7785,
    "seguirono": 7786,
    "seguitar": 7787,
    "seicento": 7788,
    "serpen": 7789,
    "settentrion": 7790,
    "sforzo": 7791,
    "simo,": 7792,
    "simul": 7793,
    "siate": 7794,
    "sicuri": 7795,
    "sicurtà": 7796,
    "signoreggi": 7797,
    "simili,": 7798,
    "so:": 7799,
    "sopr": 7800,
    "soldo": 7801,
    "sopradette": 7802,
    "sostegno": 7803,
    "sottoposta": 7804,
    "splen": 7805,
    "spada": 7806,
    "spaventati": 7807,
    "spavento": 7808,
    "specchio": 7809,
    "specie": 7810,
    "spetta": 7811,
    "spectari": 7812,
    "spendere": 7813,
    "spiritu": 7814,
    "stere": 7815,
    "stanzia": 7816,
    "stecca": 7817,
    "stesse,": 7818,
    "stettero": 7819,
    "stettono": 7820,
    "stizia": 7821,
    "stol": 7822,
    "strada,": 7823,
    "strati": 7824,
    "strinsono": 7825,
    "studini": 7826,
    "studio,": 7827,
    "suso": 7828,
    "sudditi": 7829,
    "suol": 7830,
    "superf": 7831,
    "tine": 7832,
    "tone,": 7833,
    "tô": 7834,
    "t'ho": 7835,
    "taci": 7836,
    "tare,": 7837,
    "tasi": 7838,
    "tata,": 7839,
    "tavo": 7840,
    "talché": 7841,
    "tanti,": 7842,
    "tandolo": 7843,
    "tarlo": 7844,
    "teste": 7845,
    "testudini": 7846,
    "tevoli": 7847,
    "tedeschi": 7848,
    "tempo.": 7849,
    "tennero": 7850,
    "tenevano": 7851,
    "terren": 7852,
    "terribile": 7853,
    "tico": 7854,
    "tile": 7855,
    "tipografici.": 7856,
    "tirare": 7857,
    "to?": 7858,
    "toglie": 7859,
    "torio": 7860,
    "totalmente": 7861,
    "tollera": 7862,
    "tolse": 7863,
    "tormento": 7864,
    "tr'": 7865,
    "trarre": 7866,
    "tradotta": 7867,
    "tradotto": 7868,
    "tramontana,": 7869,
    "tranqu": 7870,
    "trattato,": 7871,
    "tremuo": 7872,
    "triegua": 7873,
    "trovi": 7874,
    "trovasse": 7875,
    "tt'": 7876,
    "tti:": 7877,
    "tua,": 7878,
    "tum": 7879,
    "tudine,": 7880,
    "tuo,": 7881,
    "tuoso": 7882,
    "tá.": 7883,
    "tôrre": 7884,
    "usur": 7885,
    "uditori": 7886,
    "ufficio": 7887,
    "umana,": 7888,
    "umilmente": 7889,
    "unera": 7890,
    "universale,": 7891,
    "uomo.": 7892,
    "usando": 7893,
    "vio,": 7894,
    "v'ho": 7895,
    "va:": 7896,
    "valle": 7897,
    "vedrà": 7898,
    "vedemmo": 7899,
    "vende": 7900,
    "venera": 7901,
    "venti,": 7902,
    "veri,": 7903,
    "vertú": 7904,
    "verace": 7905,
    "vestita": 7906,
    "vettovaglie,": 7907,
    "viddi": 7908,
    "vigna": 7909,
    "viri": 7910,
    "vite": 7911,
    "viaggi": 7912,
    "villa,": 7913,
    "virtú,": 7914,
    "vittorie": 7915,
    "vitupero": 7916,
    "vo.": 7917,
    "vogli": 7918,
    "volando": 7919,
    "volgar": 7920,
    "volgendo": 7921,
    "volmente,": 7922,
    "volontero": 7923,
    "volontà,": 7924,
    "zino": 7925,
    "zzione": 7926,
    "zioni.": 7927,
    "zioni;": 7928,
    "zuffa": 7929,
    "zzati": 7930,
    "«dèi": 7931,
    "á,": 7932,
    "è.": 7933,
    "ò.": 7934,
    "\n          ": 7935,
    "\n              ": 7936,
    "\n\n                    ": 7937,
    "\n\n                            ": 7938,
    "\n                     ": 7939,
    "                    ": 7940,
    "                                                  ": 7941,
    "\";": 7942,
    "':": 7943,
    "'mperadore": 7944,
    "-te": 7945,
    "-text": 7946,
    ".,": 7947,
    ".30": 7948,
    "1,": 7949,
    "149": 7950,
    "1525": 7951,
    "1825": 7952,
    "22": 7953,
    "283": 7954,
    "4,": 7955,
    "40": 7956,
    "5.": 7957,
    "50": 7958,
    "78": 7959,
    "9,": 7960,
    "96": 7961,
    "@m": 7962,
    "@mclin": 7963,
    "@mclink": 7964,
    "@mclink.it": 7965,
    "ARI": 7966,
    "ARIO": 7967,
    "Abru": 7968,
    "Achil": 7969,
    "Aga": 7970,
    "Ago": 7971,
    "Am": 7972,
    "Assa": 7973,
    "Augu": 7974,
    "ALDE": 7975,
    "ALF": 7976,
    "ALO": 7977,
    "ALDESAR": 7978,
    "ALFON": 7979,
    "ALFONSO": 7980,
    "ALILE": 7981,
    "ALOGO": 7982,
    "ARIOSTO": 7983,
    "AUTORE:": 7984,
    "Abden": 7985,
    "Abdenago": 7986,
    "Abradato": 7987,
    "All'": 7988,
    "Alli": 7989,
    "Alamanno": 7990,
    "Alberti": 7991,
    "Alidolat": 7992,
    "Angio": 7993,
    "Apostoli": 7994,
    "Arabi": 7995,
    "Arrigo": 7996,
    "Ascelino,": 7997,
    "Assai": 7998,
    "Aveva": 7999
  },
  "merges": [
    [
      "e",
      "r"
    ],
    [
      "o",
      "n"
    ],
    [
      "a",
      "n"
    ],
    [
      "d",
      "i"
    ],
    [
      "e",
      "n"
    ],
    [
      "t",
      "o"
    ],
    [
      "c",
      "h"
    ],
    [
      "a",
      "l"
    ],
    [
      "i",
      "n"
    ],
    [
      "r",
      "e"
    ],
    [
      " ",
      " "
    ],
    [
      "e",
      "l"
    ],
    [
      "l",
      "a"
    ],
    [
      "t",
      "e"
    ],
    [
      "s",
      "i"
    ],
    [
      "c",
      "o"
    ],
    [
      "ch",
      "e"
    ],
    [
      "t",
      "a"
    ],
    [
      "t",
      "i"
    ],
    [
      "q",
      "u"
    ],
    [
      "l",
      "i"
    ],
    [
      "r",
      "i"
    ],
    [
      "r",
      "a"
    ],
    [
      "e",
      "s"
    ],
    [
      "c",
      "i"
    ],
    [
      "l",
      "e"
    ],
    [
      "d",
      "o"
    ],
    [
      "p",
      "er"
    ],
    [
      "r",
      "o"
    ],
    [
      "s",
      "e"
    ],
    [
      "a",
      "r"
    ],
    [
      "m",
      "o"
    ],
    [
      "p",
      "o"
    ],
    [
      "l",
      "o"
    ],
    [
      "d",
      "e"
    ],
    [
      "c",
      "on"
    ],
    [
      "n",
      "o"
    ],
    [
      "  ",
      "  "
    ],
    [
      "g",
      "li"
    ],
    [
      "d",
      "el"
    ],
    [
      "m",
      "a"
    ],
    [
      "s",
      "o"
    ],
    [
      "i",
      "l"
    ],
    [
      "c",
      "a"
    ],
    [
      "u",
      "n"
    ],
    [
      "i",
      "o"
    ],
    [
      "m",
      "e"
    ],
    [
      "p",
      "i"
    ],
    [
      "d",
      "a"
    ],
    [
      "v",
      "i"
    ],
    [
      "u",
      "o"
    ],
    [
      "n",
      "on"
    ],
    [
      "s",
      "a"
    ],
    [
      "on",
      "o"
    ],
    [
      "t",
      "u"
    ],
    [
      "an",
      "o"
    ],
    [
      "v",
      "a"
    ],
    [
      "m",
      "en"
    ],
    [
      "m",
      "i"
    ],
    [
      "p",
      "a"
    ],
    [
      "v",
      "o"
    ],
    [
      "t",
      "to"
    ],
    [
      "v",
      "e"
    ],
    [
      "er",
      "e"
    ],
    [
      "l",
      "'"
    ],
    [
      "z",
      "i"
    ],
    [
      "g",
      "i"
    ],
    [
      "f",
      "a"
    ],
    [
      "t",
      "ra"
    ],
    [
      "qu",
      "al"
    ],
    [
      "a",
      ","
    ],
    [
      "n",
      "e"
    ],
    [
      "on",
      "e"
    ],
    [
      "c",
      "e"
    ],
    [
      "    ",
      "    "
    ],
    [
      "n",
      "i"
    ],
    [
      "n",
      "a"
    ],
    [
      "qu",
      "el"
    ],
    [
      "en",
      "do"
    ],
    [
      "s",
      "u"
    ],
    [
      "o",
      "r"
    ],
    [
      "t",
      "ro"
    ],
    [
      "n",
      "el"
    ],
    [
      "r",
      "an"
    ],
    [
      "ch",
      "i"
    ],
    [
      "v",
      "er"
    ],
    [
      "qu",
      "es"
    ],
    [
      "es",
      "s"
    ],
    [
      "a",
      "s"
    ],
    [
      "t",
      "à"
    ],
    [
      "men",
      "te"
    ],
    [
      "z",
      "a"
    ],
    [
      "t",
      "an"
    ],
    [
      "f",
      "i"
    ],
    [
      "m",
      "an"
    ],
    [
      "v",
      "en"
    ],
    [
      "er",
      "a"
    ],
    [
      "t",
      "ta"
    ],
    [
      "s",
      "ta"
    ],
    [
      "s",
      "si"
    ],
    [
      "p",
      "ar"
    ],
    [
      "p",
      "re"
    ],
    [
      "b",
      "i"
    ],
    [
      "un",
      "a"
    ],
    [
      "f",
      "u"
    ],
    [
      "i",
      ","
    ],
    [
      "del",
      "la"
    ],
    [
      "g",
      "u"
    ],
    [
      "m",
      "in"
    ],
    [
      "mo",
      "l"
    ],
    [
      "t",
      "er"
    ],
    [
      "d",
      "u"
    ],
    [
      "a",
      "v"
    ],
    [
      "s",
      "se"
    ],
    [
      "e",
      ","
    ],
    [
      "\n",
      "\n"
    ],
    [
      "lo",
      "ro"
    ],
    [
      "t",
      "ti"
    ],
    [
      "an",
      "do"
    ],
    [
      "co",
      "me"
    ],
    [
      "g",
      "no"
    ],
    [
      "t",
      "en"
    ],
    [
      "co",
      "r"
    ],
    [
      "g",
      "io"
    ],
    [
      "a",
      "c"
    ],
    [
      "d",
      "'"
    ],
    [
      "t",
      "ri"
    ],
    [
      "vo",
      "l"
    ],
    [
      "s",
      "ono"
    ],
    [
      "re",
      ","
    ],
    [
      "g",
      "ran"
    ],
    [
      "to",
      ","
    ],
    [
      "s",
      "uo"
    ],
    [
      "c",
      "u"
    ],
    [
      "in",
      "o"
    ],
    [
      "b",
      "b"
    ],
    [
      "p",
      "ro"
    ],
    [
      "ch",
      "é"
    ],
    [
      "t",
      "te"
    ],
    [
      "t",
      "re"
    ],
    [
      "g",
      "o"
    ],
    [
      "p",
      "e"
    ],
    [
      "er",
      "o"
    ],
    [
      "zi",
      "one"
    ],
    [
      "s",
      "c"
    ],
    [
      "al",
      "la"
    ],
    [
      "f",
      "e"
    ],
    [
      "co",
      "m"
    ],
    [
      "s",
      "en"
    ],
    [
      "on",
      "i"
    ],
    [
      "co",
      "s"
    ],
    [
      "p",
      "u"
    ],
    [
      "qual",
      "e"
    ],
    [
      "al",
      "i"
    ],
    [
      "g",
      "en"
    ],
    [
      "g",
      "ni"
    ],
    [
      "i",
      "m"
    ],
    [
      "f",
      "or"
    ],
    [
      "an",
      "no"
    ],
    [
      "de",
      "'"
    ],
    [
      "p",
      "ri"
    ],
    [
      "ci",
      "a"
    ],
    [
      "g",
      "a"
    ],
    [
      "te",
      ","
    ],
    [
      "a",
      "ve"
    ],
    [
      "pi",
      "ù"
    ],
    [
      "r",
      "en"
    ],
    [
      "l",
      "u"
    ],
    [
      "qual",
      "i"
    ],
    [
      "er",
      "i"
    ],
    [
      "in",
      "i"
    ],
    [
      "ti",
      ","
    ],
    [
      "te",
      "m"
    ],
    [
      "an",
      "i"
    ],
    [
      "a",
      "d"
    ],
    [
      "po",
      "r"
    ],
    [
      "s",
      "to"
    ],
    [
      "        ",
      "        "
    ],
    [
      "ques",
      "to"
    ],
    [
      "ci",
      "ò"
    ],
    [
      "e",
      "d"
    ],
    [
      "e",
      "gli"
    ],
    [
      "pi",
      "ú"
    ],
    [
      "su",
      "a"
    ],
    [
      "v",
      "ano"
    ],
    [
      "ess",
      "er"
    ],
    [
      "b",
      "en"
    ],
    [
      "per",
      "ché"
    ],
    [
      "z",
      "z"
    ],
    [
      "al",
      "e"
    ],
    [
      "ci",
      "o"
    ],
    [
      "a",
      "m"
    ],
    [
      "co",
      "l"
    ],
    [
      "el",
      "la"
    ],
    [
      "di",
      "s"
    ],
    [
      "p",
      "ra"
    ],
    [
      "d",
      "al"
    ],
    [
      "es",
      "se"
    ],
    [
      "al",
      "c"
    ],
    [
      "s",
      "tra"
    ],
    [
      "l",
      "’"
    ],
    [
      "to",
      "r"
    ],
    [
      "qu",
      "an"
    ],
    [
      "ci",
      "t"
    ],
    [
      "al",
      "tri"
    ],
    [
      "s",
      "ti"
    ],
    [
      "s",
      "s"
    ],
    [
      "g",
      "gi"
    ],
    [
      "qu",
      "e"
    ],
    [
      "u",
      "no"
    ],
    [
      "qu",
      "a"
    ],
    [
      "co",
      "se"
    ],
    [
      "s",
      "so"
    ],
    [
      "M",
      "a"
    ],
    [
      "c",
      "re"
    ],
    [
      "o",
      ","
    ],
    [
      "de",
      "tto"
    ],
    [
      "mol",
      "to"
    ],
    [
      "nel",
      "la"
    ],
    [
      "si",
      "gno"
    ],
    [
      "bb",
      "e"
    ],
    [
      "t",
      "t"
    ],
    [
      "m",
      "on"
    ],
    [
      "b",
      "a"
    ],
    [
      "cit",
      "tà"
    ],
    [
      "u",
      "to"
    ],
    [
      "a",
      "p"
    ],
    [
      "del",
      "le"
    ],
    [
      "g",
      "h"
    ],
    [
      "c",
      "er"
    ],
    [
      "g",
      "gio"
    ],
    [
      "r",
      "u"
    ],
    [
      "quel",
      "lo"
    ],
    [
      "ques",
      "ta"
    ],
    [
      "f",
      "o"
    ],
    [
      "b",
      "u"
    ],
    [
      "ri",
      "a"
    ],
    [
      "tan",
      "to"
    ],
    [
      "d",
      "ere"
    ],
    [
      "quel",
      "la"
    ],
    [
      "co",
      "sa"
    ],
    [
      "g",
      "na"
    ],
    [
      "si",
      "a"
    ],
    [
      "so",
      "pra"
    ],
    [
      "g",
      "ra"
    ],
    [
      "mo",
      "r"
    ],
    [
      "qu",
      "i"
    ],
    [
      "s",
      "sa"
    ],
    [
      "C",
      "o"
    ],
    [
      "on",
      "a"
    ],
    [
      "h",
      "a"
    ],
    [
      "r",
      "ono"
    ],
    [
      "tu",
      "tti"
    ],
    [
      "p",
      "en"
    ],
    [
      "s",
      "t"
    ],
    [
      "Q",
      "u"
    ],
    [
      "d",
      "en"
    ],
    [
      "an",
      "ti"
    ],
    [
      "an",
      "co"
    ],
    [
      "de",
      "si"
    ],
    [
      "g",
      "n"
    ],
    [
      "po",
      "i"
    ],
    [
      "\n",
      " "
    ],
    [
      "z",
      "za"
    ],
    [
      "r",
      "in"
    ],
    [
      "fa",
      "tto"
    ],
    [
      "do",
      "ve"
    ],
    [
      "tu",
      "tto"
    ],
    [
      "er",
      "ano"
    ],
    [
      "per",
      "a"
    ],
    [
      "ta",
      ","
    ],
    [
      "un",
      "i"
    ],
    [
      "o",
      "gni"
    ],
    [
      "zi",
      "a"
    ],
    [
      "min",
      "i"
    ],
    [
      "s",
      "an"
    ],
    [
      "tem",
      "po"
    ],
    [
      "ess",
      "ere"
    ],
    [
      "gli",
      "a"
    ],
    [
      "par",
      "te"
    ],
    [
      "par",
      "ti"
    ],
    [
      "fa",
      "re"
    ],
    [
      "s",
      "ci"
    ],
    [
      "chi",
      "a"
    ],
    [
      "n",
      "é"
    ],
    [
      "al",
      "tro"
    ],
    [
      "es",
      "si"
    ],
    [
      "ra",
      ","
    ],
    [
      "c",
      "en"
    ],
    [
      "I",
      "I"
    ],
    [
      "f",
      "ra"
    ],
    [
      "mol",
      "ti"
    ],
    [
      "in",
      "a"
    ],
    [
      "ssi",
      "mo"
    ],
    [
      "lo",
      ","
    ],
    [
      "che",
      ","
    ],
    [
      "gi",
      "u"
    ],
    [
      "mo",
      "do"
    ],
    [
      "an",
      "ni"
    ],
    [
      "in",
      "e"
    ],
    [
      "men",
      "to"
    ],
    [
      "v",
      "al"
    ],
    [
      "ar",
      "di"
    ],
    [
      "ch",
      "'"
    ],
    [
      "d",
      "er"
    ],
    [
      "I",
      "n"
    ],
    [
      "al",
      "tra"
    ],
    [
      "es",
      "e"
    ],
    [
      "l",
      "uo"
    ],
    [
      "gi",
      "one"
    ],
    [
      "gli",
      "o"
    ],
    [
      "li",
      ","
    ],
    [
      "F",
      "i"
    ],
    [
      "an",
      "d"
    ],
    [
      "sta",
      "to"
    ],
    [
      "ven",
      "i"
    ],
    [
      "s",
      "te"
    ],
    [
      "f",
      "ar"
    ],
    [
      "o",
      "c"
    ],
    [
      "or",
      "di"
    ],
    [
      "ess",
      "endo"
    ],
    [
      "sc",
      "ri"
    ],
    [
      "li",
      "b"
    ],
    [
      "ssi",
      "ma"
    ],
    [
      "lu",
      "i"
    ],
    [
      "a",
      "mo"
    ],
    [
      "ano",
      ","
    ],
    [
      "es",
      "so"
    ],
    [
      "g",
      "e"
    ],
    [
      "s",
      "er"
    ],
    [
      "z",
      "e"
    ],
    [
      "-",
      "-"
    ],
    [
      "suo",
      "i"
    ],
    [
      "qu",
      "ando"
    ],
    [
      "f",
      "er"
    ],
    [
      "gran",
      "de"
    ],
    [
      "d",
      "on"
    ],
    [
      "ri",
      ","
    ],
    [
      "I",
      "l"
    ],
    [
      "gran",
      "di"
    ],
    [
      "e",
      "t"
    ],
    [
      "as",
      "sa"
    ],
    [
      "me",
      "desi"
    ],
    [
      "man",
      "i"
    ],
    [
      "p",
      "on"
    ],
    [
      "quan",
      "to"
    ],
    [
      "ri",
      "s"
    ],
    [
      "s",
      "'"
    ],
    [
      "del",
      "l'"
    ],
    [
      "io",
      ","
    ],
    [
      "vo",
      "le"
    ],
    [
      "du",
      "e"
    ],
    [
      "con",
      "o"
    ],
    [
      "ter",
      "ra"
    ],
    [
      "P",
      "i"
    ],
    [
      "a",
      "'"
    ],
    [
      "sen",
      "za"
    ],
    [
      "m",
      "esser"
    ],
    [
      "P",
      "er"
    ],
    [
      "al",
      "le"
    ],
    [
      "re",
      "."
    ],
    [
      "ca",
      "m"
    ],
    [
      "el",
      "le"
    ],
    [
      "o",
      "ra"
    ],
    [
      "fa",
      "c"
    ],
    [
      "ar",
      "ono"
    ],
    [
      "b",
      "as"
    ],
    [
      "man",
      "da"
    ],
    [
      "an",
      "zi"
    ],
    [
      "co",
      "min"
    ],
    [
      "fe",
      "ce"
    ],
    [
      "si",
      ","
    ],
    [
      "al",
      "tre"
    ],
    [
      "cos",
      "í"
    ],
    [
      "m",
      "u"
    ],
    [
      "ma",
      "ggio"
    ],
    [
      "rin",
      "ci"
    ],
    [
      "uo",
      "mini"
    ],
    [
      "no",
      "s"
    ],
    [
      "t",
      "ali"
    ],
    [
      "co",
      ","
    ],
    [
      "con",
      "do"
    ],
    [
      "cu",
      "no"
    ],
    [
      "tu",
      "tte"
    ],
    [
      "nel",
      "le"
    ],
    [
      "po",
      "te"
    ],
    [
      "s",
      "ì"
    ],
    [
      "en",
      "te"
    ],
    [
      "p",
      "rinci"
    ],
    [
      "por",
      "ta"
    ],
    [
      "pri",
      "ma"
    ],
    [
      "zz",
      "o"
    ],
    [
      "an",
      "da"
    ],
    [
      "cos",
      "ì"
    ],
    [
      "quel",
      "le"
    ],
    [
      "quel",
      "li"
    ],
    [
      "ri",
      "o"
    ],
    [
      "es",
      "a"
    ],
    [
      "es",
      "ti"
    ],
    [
      "s",
      "al"
    ],
    [
      "anco",
      "ra"
    ],
    [
      "va",
      ","
    ],
    [
      "se",
      "gu"
    ],
    [
      "zi",
      "oni"
    ],
    [
      "  ",
      " "
    ],
    [
      "un",
      "e"
    ],
    [
      "f",
      "uo"
    ],
    [
      "z",
      "io"
    ],
    [
      "X",
      "X"
    ],
    [
      "ben",
      "e"
    ],
    [
      "po",
      "po"
    ],
    [
      "assa",
      "i"
    ],
    [
      "gli",
      "uo"
    ],
    [
      "a",
      "b"
    ],
    [
      "di",
      "o"
    ],
    [
      "el",
      "li"
    ],
    [
      "L",
      "a"
    ],
    [
      "no",
      "i"
    ],
    [
      "v",
      "ere"
    ],
    [
      "av",
      "ere"
    ],
    [
      "e",
      "'"
    ],
    [
      "tu",
      "ra"
    ],
    [
      "av",
      "endo"
    ],
    [
      "mol",
      "te"
    ],
    [
      "al",
      "lo"
    ],
    [
      "ca",
      "pi"
    ],
    [
      "com",
      "pa"
    ],
    [
      "h",
      "o"
    ],
    [
      "D",
      "i"
    ],
    [
      "g",
      "g"
    ],
    [
      "R",
      "o"
    ],
    [
      "di",
      "sse"
    ],
    [
      "v",
      "an"
    ],
    [
      "ave",
      "va"
    ],
    [
      "c",
      "an"
    ],
    [
      "de",
      "gli"
    ],
    [
      "alc",
      "una"
    ],
    [
      "se",
      "m"
    ],
    [
      "bi",
      "le"
    ],
    [
      "t",
      "á"
    ],
    [
      "a",
      "i"
    ],
    [
      "con",
      "si"
    ],
    [
      "es",
      "sa"
    ],
    [
      "o",
      "l"
    ],
    [
      "d",
      "alla"
    ],
    [
      "fi",
      "gliuo"
    ],
    [
      "t",
      "al"
    ],
    [
      "d",
      "endo"
    ],
    [
      "m",
      "ar"
    ],
    [
      "ma",
      "i"
    ],
    [
      "a",
      "f"
    ],
    [
      "gen",
      "te"
    ],
    [
      "h",
      "anno"
    ],
    [
      "vi",
      "a"
    ],
    [
      "pi",
      "a"
    ],
    [
      "F",
      "ran"
    ],
    [
      "c",
      "ca"
    ],
    [
      "d",
      "an"
    ],
    [
      "di",
      "e"
    ],
    [
      "s",
      "on"
    ],
    [
      "con",
      "tra"
    ],
    [
      "di",
      "re"
    ],
    [
      "A",
      "l"
    ],
    [
      "G",
      "io"
    ],
    [
      "el",
      "lo"
    ],
    [
      "gio",
      "r"
    ],
    [
      "u",
      "l"
    ],
    [
      "pa",
      "re"
    ],
    [
      "ques",
      "ti"
    ],
    [
      "t",
      "ano"
    ],
    [
      "v",
      "in"
    ],
    [
      "Fi",
      "ren"
    ],
    [
      "en",
      "e"
    ],
    [
      "m",
      "er"
    ],
    [
      "pa",
      "ssa"
    ],
    [
      "gen",
      "ti"
    ],
    [
      "po",
      "co"
    ],
    [
      "gh",
      "i"
    ],
    [
      "n",
      "uo"
    ],
    [
      "tan",
      "do"
    ],
    [
      "pre",
      "sso"
    ],
    [
      "fo",
      "sse"
    ],
    [
      "s",
      "p"
    ],
    [
      "tu",
      "r"
    ],
    [
      "un",
      "que"
    ],
    [
      "di",
      "a"
    ],
    [
      "ques",
      "te"
    ],
    [
      "so",
      "la"
    ],
    [
      "u",
      "ta"
    ],
    [
      "vo",
      "i"
    ],
    [
      "C",
      "A"
    ],
    [
      "su",
      "e"
    ],
    [
      "S",
      "an"
    ],
    [
      "gi",
      "à"
    ],
    [
      "men",
      "o"
    ],
    [
      "gu",
      "er"
    ],
    [
      "io",
      "ren"
    ],
    [
      "per",
      "ò"
    ],
    [
      "tu",
      "tta"
    ],
    [
      "a",
      "mi"
    ],
    [
      "so",
      "l"
    ],
    [
      "d",
      "’"
    ],
    [
      "man",
      "d"
    ],
    [
      "r",
      "ò"
    ],
    [
      "me",
      ","
    ],
    [
      "s",
      "pe"
    ],
    [
      "t",
      "in"
    ],
    [
      "ver",
      "so"
    ],
    [
      "C",
      "h"
    ],
    [
      "en",
      "ti"
    ],
    [
      "es",
      "er"
    ],
    [
      "sem",
      "pre"
    ],
    [
      "b",
      "o"
    ],
    [
      "di",
      "ce"
    ],
    [
      "ave",
      "a"
    ],
    [
      "ca",
      "val"
    ],
    [
      "di",
      "f"
    ],
    [
      "in",
      "f"
    ],
    [
      "luo",
      "go"
    ],
    [
      "men",
      "ti"
    ],
    [
      "ven",
      "ne"
    ],
    [
      "per",
      "i"
    ],
    [
      "l",
      "un"
    ],
    [
      "'",
      "l"
    ],
    [
      "c",
      "ar"
    ],
    [
      "c",
      "ci"
    ],
    [
      "o",
      "ro"
    ],
    [
      "se",
      "condo"
    ],
    [
      "so",
      "tto"
    ],
    [
      "tà",
      ","
    ],
    [
      "al",
      "cuno"
    ],
    [
      "Co",
      "me"
    ],
    [
      "ci",
      "tta"
    ],
    [
      "s",
      "pa"
    ],
    [
      "di",
      "ni"
    ],
    [
      "es",
      "ta"
    ],
    [
      "qua",
      "si"
    ],
    [
      "s",
      "í"
    ],
    [
      "c",
      "co"
    ],
    [
      "c",
      "ri"
    ],
    [
      "mo",
      "stra"
    ],
    [
      "al",
      "l'"
    ],
    [
      "chia",
      "ma"
    ],
    [
      "ver",
      "o"
    ],
    [
      "du",
      "ca"
    ],
    [
      "f",
      "in"
    ],
    [
      "to",
      "."
    ],
    [
      "eser",
      "ci"
    ],
    [
      "m",
      "b"
    ],
    [
      "mon",
      "do"
    ],
    [
      "signo",
      "r"
    ],
    [
      "pa",
      "ro"
    ],
    [
      "po",
      "s"
    ],
    [
      "u",
      "ti"
    ],
    [
      "uo",
      "mo"
    ],
    [
      "vol",
      "ta"
    ],
    [
      "a",
      "."
    ],
    [
      "ci",
      ","
    ],
    [
      "de",
      "’"
    ],
    [
      "le",
      ","
    ],
    [
      "p",
      "po"
    ],
    [
      "ri",
      "e"
    ],
    [
      "si",
      "e"
    ],
    [
      "mente",
      ","
    ],
    [
      "pu",
      "ò"
    ],
    [
      "el",
      "e"
    ],
    [
      "in",
      "ten"
    ],
    [
      "_",
      "_"
    ],
    [
      "m",
      "ano"
    ],
    [
      "c",
      "c"
    ],
    [
      "s",
      "co"
    ],
    [
      "al",
      "a"
    ],
    [
      "bi",
      "li"
    ],
    [
      "c",
      "chi"
    ],
    [
      "c",
      "cio"
    ],
    [
      "n",
      "anzi"
    ],
    [
      "to",
      "ri"
    ],
    [
      "tro",
      "va"
    ],
    [
      "de",
      "tta"
    ],
    [
      "m",
      "mo"
    ],
    [
      "pi",
      "e"
    ],
    [
      "\n",
      "    "
    ],
    [
      "R",
      "I"
    ],
    [
      "mi",
      "a"
    ],
    [
      "re",
      "bbe"
    ],
    [
      "G",
      "i"
    ],
    [
      "o",
      "pera"
    ],
    [
      "S",
      "i"
    ],
    [
      "con",
      "tro"
    ],
    [
      "en",
      "o"
    ],
    [
      "fu",
      "rono"
    ],
    [
      "pre",
      "sen"
    ],
    [
      "vi",
      "ta"
    ],
    [
      "A",
      "n"
    ],
    [
      "so",
      "r"
    ],
    [
      "t",
      "ino"
    ],
    [
      "tt",
      "ere"
    ],
    [
      "vol",
      "te"
    ],
    [
      "\n",
      "  "
    ],
    [
      "ab",
      "bi"
    ],
    [
      "b",
      "li"
    ],
    [
      "el",
      "l"
    ],
    [
      "segu",
      "i"
    ],
    [
      "c",
      "in"
    ],
    [
      "cen",
      "to"
    ],
    [
      "lo",
      "r"
    ],
    [
      "m",
      "io"
    ],
    [
      "ss",
      "ero"
    ],
    [
      "L",
      "e"
    ],
    [
      "S",
      "o"
    ],
    [
      "ci",
      "as"
    ],
    [
      "pi",
      "ac"
    ],
    [
      "ta",
      "r"
    ],
    [
      "d",
      "re"
    ],
    [
      "do",
      "l"
    ],
    [
      "m",
      "il"
    ],
    [
      "z",
      "a,"
    ],
    [
      "d",
      "ì"
    ],
    [
      "gu",
      "a"
    ],
    [
      "par",
      "la"
    ],
    [
      "ta",
      "mente"
    ],
    [
      "tor",
      "no"
    ],
    [
      "a",
      "ver"
    ],
    [
      "po",
      "t"
    ],
    [
      "t",
      "uo"
    ],
    [
      "ca",
      "gione"
    ],
    [
      "ca",
      "v"
    ],
    [
      "cu",
      "i"
    ],
    [
      "ma",
      ","
    ],
    [
      "one",
      ","
    ],
    [
      "tem",
      "pi"
    ],
    [
      "zione",
      ","
    ],
    [
      "\n",
      "                "
    ],
    [
      "ch",
      "io"
    ],
    [
      "d",
      "es"
    ],
    [
      "pa",
      "pa"
    ],
    [
      "u",
      "s"
    ],
    [
      "--",
      "--"
    ],
    [
      "T",
      "O"
    ],
    [
      "alc",
      "uni"
    ],
    [
      "fu",
      "sse"
    ],
    [
      "no",
      "stra"
    ],
    [
      "sa",
      ","
    ],
    [
      "tan",
      "ta"
    ],
    [
      "b",
      "er"
    ],
    [
      "me",
      "zzo"
    ],
    [
      "min",
      "a"
    ],
    [
      "ssi",
      "mi"
    ],
    [
      "vi",
      "r"
    ],
    [
      "Firen",
      "ze"
    ],
    [
      "T",
      "o"
    ],
    [
      "a",
      "gli"
    ],
    [
      "b",
      "e"
    ],
    [
      "fi",
      "ci"
    ],
    [
      "mi",
      "s"
    ],
    [
      "san",
      "za"
    ],
    [
      "I",
      "o"
    ],
    [
      "I",
      "tali"
    ],
    [
      "ani",
      "mo"
    ],
    [
      "en",
      "za"
    ],
    [
      "in",
      "sie"
    ],
    [
      "a",
      "bi"
    ],
    [
      "ce",
      ","
    ],
    [
      "d",
      "era"
    ],
    [
      "da",
      "to"
    ],
    [
      "ordi",
      "na"
    ],
    [
      "so",
      ","
    ],
    [
      "tan",
      "te"
    ],
    [
      "tto",
      ","
    ],
    [
      "D",
      "E"
    ],
    [
      "P",
      "a"
    ],
    [
      "fa",
      "ce"
    ],
    [
      "medesi",
      "mo"
    ],
    [
      "per",
      "e"
    ],
    [
      "CA",
      "P"
    ],
    [
      "D",
      "I"
    ],
    [
      "a",
      "t"
    ],
    [
      "loro",
      ","
    ],
    [
      "ti",
      "ca"
    ],
    [
      "di",
      "c"
    ],
    [
      "ere",
      ","
    ],
    [
      "go",
      "ver"
    ],
    [
      "in",
      "ter"
    ],
    [
      "la",
      "s"
    ],
    [
      "po",
      "ten"
    ],
    [
      "si",
      "mi"
    ],
    [
      "L",
      "L"
    ],
    [
      "cio",
      "è"
    ],
    [
      "f",
      "on"
    ],
    [
      "fa",
      "tta"
    ],
    [
      "g",
      "l'"
    ],
    [
      "ri",
      "ce"
    ],
    [
      "sen",
      "ti"
    ],
    [
      "su",
      "l"
    ],
    [
      "compa",
      "gni"
    ],
    [
      "n",
      "u"
    ],
    [
      "pu",
      "r"
    ],
    [
      "tan",
      "ti"
    ],
    [
      "C",
      "on"
    ],
    [
      "in",
      "nanzi"
    ],
    [
      "n",
      "ar"
    ],
    [
      "ne",
      "c"
    ],
    [
      "r",
      "on"
    ],
    [
      "ta",
      "re"
    ],
    [
      "V",
      "i"
    ],
    [
      "ch",
      "’"
    ],
    [
      "citta",
      "dini"
    ],
    [
      "princi",
      "p"
    ],
    [
      "T",
      "u"
    ],
    [
      "de",
      ","
    ],
    [
      "ma",
      "re"
    ],
    [
      "qua",
      "t"
    ],
    [
      "quat",
      "tro"
    ],
    [
      "ra",
      "gi"
    ],
    [
      "al",
      "mente"
    ],
    [
      "ap",
      "presso"
    ],
    [
      "av",
      "esse"
    ],
    [
      "es",
      "co"
    ],
    [
      "es",
      "to"
    ],
    [
      "l",
      "on"
    ],
    [
      "ordi",
      "ne"
    ],
    [
      "an",
      "te"
    ],
    [
      "da",
      "'"
    ],
    [
      "di",
      "ver"
    ],
    [
      "le",
      "i"
    ],
    [
      "nel",
      "l'"
    ],
    [
      "nos",
      "tro"
    ],
    [
      "ser",
      "vi"
    ],
    [
      "ta",
      "to"
    ],
    [
      "CAP",
      "."
    ],
    [
      "b",
      "ar"
    ],
    [
      "g",
      "ono"
    ],
    [
      "gior",
      "no"
    ],
    [
      "gli",
      "e"
    ],
    [
      "insie",
      "me"
    ],
    [
      "qual",
      "e,"
    ],
    [
      "s",
      "é"
    ],
    [
      "t",
      "ale"
    ],
    [
      "C",
      "ar"
    ],
    [
      "O",
      "N"
    ],
    [
      "co",
      "lo"
    ],
    [
      "f",
      "ran"
    ],
    [
      "gi",
      "a"
    ],
    [
      "L",
      "I"
    ],
    [
      "L",
      "i"
    ],
    [
      "bi",
      "so"
    ],
    [
      "bi",
      "to"
    ],
    [
      "cos",
      "tu"
    ],
    [
      "d",
      "ono"
    ],
    [
      "for",
      "za"
    ],
    [
      "po",
      "sto"
    ],
    [
      "t",
      "ini"
    ],
    [
      "u",
      "sa"
    ],
    [
      "G",
      "u"
    ],
    [
      "g",
      "re"
    ],
    [
      "l",
      "in"
    ],
    [
      "per",
      "s"
    ],
    [
      "po",
      "se"
    ],
    [
      "sta",
      "ta"
    ],
    [
      "u",
      "sci"
    ],
    [
      "el",
      "o"
    ],
    [
      "no",
      "me"
    ],
    [
      "nos",
      "tri"
    ],
    [
      "pon",
      "te"
    ],
    [
      "s",
      "tan"
    ],
    [
      "ac",
      "qua"
    ],
    [
      "del",
      "i"
    ],
    [
      "f",
      "al"
    ],
    [
      "in",
      "torno"
    ],
    [
      "m",
      "al"
    ],
    [
      "p",
      "ren"
    ],
    [
      "t",
      "ò"
    ],
    [
      "to",
      "re"
    ],
    [
      "v",
      "'"
    ],
    [
      "z",
      "o"
    ],
    [
      "                ",
      "                "
    ],
    [
      "T",
      "E"
    ],
    [
      "b",
      "ra"
    ],
    [
      "ca",
      "re"
    ],
    [
      "d",
      "ar"
    ],
    [
      "en",
      "tra"
    ],
    [
      "s",
      "tro"
    ],
    [
      "t",
      "ter"
    ],
    [
      "te",
      "."
    ],
    [
      "tu",
      "di"
    ],
    [
      "F",
      "ioren"
    ],
    [
      "com",
      "une"
    ],
    [
      "de",
      "i"
    ],
    [
      "e",
      "bbe"
    ],
    [
      "f",
      "ine"
    ],
    [
      "guer",
      "ra"
    ],
    [
      "ino",
      ","
    ],
    [
      "lib",
      "er"
    ],
    [
      "mand",
      "ò"
    ],
    [
      "o",
      "re"
    ],
    [
      "u",
      "di"
    ],
    [
      "bas",
      "cia"
    ],
    [
      "con",
      "tin"
    ],
    [
      "de",
      "tte"
    ],
    [
      "f",
      "re"
    ],
    [
      "fi",
      "u"
    ],
    [
      "la",
      "sci"
    ],
    [
      "ma",
      "ri"
    ],
    [
      "on",
      "i,"
    ],
    [
      "pa",
      "ese"
    ],
    [
      "qual",
      "che"
    ],
    [
      "ra",
      "gione"
    ],
    [
      "ssi",
      "me"
    ],
    [
      "tra",
      "tta"
    ],
    [
      "vir",
      "t"
    ],
    [
      "Qu",
      "i"
    ],
    [
      "an",
      "i,"
    ],
    [
      "and",
      "ò"
    ],
    [
      "ca",
      "st"
    ],
    [
      "cu",
      "ra"
    ],
    [
      "d",
      "í"
    ],
    [
      "el",
      "i"
    ],
    [
      "im",
      "pera"
    ],
    [
      "mi",
      ","
    ],
    [
      "o",
      "ve"
    ],
    [
      "qu",
      "egli"
    ],
    [
      "s",
      "ce"
    ],
    [
      "tro",
      "v"
    ],
    [
      "Gio",
      "v"
    ],
    [
      "a",
      "mente"
    ],
    [
      "as",
      "pe"
    ],
    [
      "du",
      "to"
    ],
    [
      "giu",
      "di"
    ],
    [
      "in",
      "g"
    ],
    [
      "quan",
      "ti"
    ],
    [
      "so",
      "lo"
    ],
    [
      "Ch",
      "i"
    ],
    [
      "c",
      "al"
    ],
    [
      "cav",
      "ali"
    ],
    [
      "do",
      "po"
    ],
    [
      "e",
      "di"
    ],
    [
      "f",
      "anno"
    ],
    [
      "l'",
      "ar"
    ],
    [
      "la",
      "vo"
    ],
    [
      "se",
      ","
    ],
    [
      "t",
      "r"
    ],
    [
      "Giov",
      "anni"
    ],
    [
      "V",
      "II"
    ],
    [
      "c",
      "cia"
    ],
    [
      "gn",
      "a,"
    ],
    [
      "o",
      "ri"
    ],
    [
      "tor",
      "n"
    ],
    [
      "ver",
      "i"
    ],
    [
      "zi",
      "a,"
    ],
    [
      "b",
      "al"
    ],
    [
      "disse",
      ":"
    ],
    [
      "don",
      "ne"
    ],
    [
      "for",
      "te"
    ],
    [
      "las",
      "cia"
    ],
    [
      "le",
      "ga"
    ],
    [
      "maggio",
      "re"
    ],
    [
      "pi",
      "an"
    ],
    [
      "ra",
      "to"
    ],
    [
      "s",
      "ar"
    ],
    [
      "ti",
      "."
    ],
    [
      "tor",
      "na"
    ],
    [
      "ca",
      ","
    ],
    [
      "ca",
      "sa"
    ],
    [
      "f",
      "f"
    ],
    [
      "in",
      "di"
    ],
    [
      "inf",
      "ini"
    ],
    [
      "ran",
      "do"
    ],
    [
      "ri",
      "a,"
    ],
    [
      "veni",
      "re"
    ],
    [
      "a",
      "bb"
    ],
    [
      "ardi",
      "n"
    ],
    [
      "da",
      "re"
    ],
    [
      "den",
      "tro"
    ],
    [
      "g",
      "ne"
    ],
    [
      "gu",
      "ar"
    ],
    [
      "medesi",
      "ma"
    ],
    [
      "r",
      "à"
    ],
    [
      "R",
      "E"
    ],
    [
      "bb",
      "ono"
    ],
    [
      "cor",
      "te"
    ],
    [
      "er",
      "i,"
    ],
    [
      "mor",
      "te"
    ],
    [
      "n",
      "'"
    ],
    [
      "on",
      "de"
    ],
    [
      "paro",
      "le"
    ],
    [
      "popo",
      "lo"
    ],
    [
      "ri",
      "me"
    ],
    [
      "sta",
      "ti"
    ],
    [
      "t",
      "ru"
    ],
    [
      "B",
      "a"
    ],
    [
      "N",
      "a"
    ],
    [
      "c",
      "ardin"
    ],
    [
      "con",
      "ta"
    ],
    [
      "cono",
      "sc"
    ],
    [
      "cor",
      "po"
    ],
    [
      "del",
      "l’"
    ],
    [
      "don",
      "na"
    ],
    [
      "mi",
      "e"
    ],
    [
      "s",
      "tre"
    ],
    [
      "ve",
      "de"
    ],
    [
      "alc",
      "une"
    ],
    [
      "ch",
      "è"
    ],
    [
      "ggi",
      "a"
    ],
    [
      "la",
      ","
    ],
    [
      "m",
      "ma"
    ],
    [
      "ne",
      "'"
    ],
    [
      "p",
      "p"
    ],
    [
      "pa",
      "ss"
    ],
    [
      "pri",
      "mo"
    ],
    [
      "s",
      "tri"
    ],
    [
      "tu",
      "a"
    ],
    [
      "        ",
      "    "
    ],
    [
      "N",
      "O"
    ],
    [
      "N",
      "i"
    ],
    [
      "R",
      "i"
    ],
    [
      "chi",
      ","
    ],
    [
      "do",
      ","
    ],
    [
      "gu",
      "ardi"
    ],
    [
      "l'",
      "o"
    ],
    [
      "m",
      "ale"
    ],
    [
      "maggio",
      "r"
    ],
    [
      "no",
      "tte"
    ],
    [
      "po",
      "sta"
    ],
    [
      "signo",
      "re"
    ],
    [
      "zz",
      "e"
    ],
    [
      "\n                ",
      "   "
    ],
    [
      "am",
      "bascia"
    ],
    [
      "di",
      "mo"
    ],
    [
      "f",
      "an"
    ],
    [
      "pro",
      "pri"
    ],
    [
      "re",
      "pu"
    ],
    [
      "s",
      "ero"
    ],
    [
      "N",
      "o"
    ],
    [
      "N",
      "on"
    ],
    [
      "amo",
      "re"
    ],
    [
      "con",
      "te"
    ],
    [
      "en",
      "a"
    ],
    [
      "fe",
      "ci"
    ],
    [
      "for",
      "se"
    ],
    [
      "for",
      "t"
    ],
    [
      "gh",
      "e"
    ],
    [
      "mer",
      "ca"
    ],
    [
      "re",
      "gno"
    ],
    [
      "ro",
      ","
    ],
    [
      "s",
      "cu"
    ],
    [
      "s",
      "per"
    ],
    [
      "D",
      "e"
    ],
    [
      "a",
      "ma"
    ],
    [
      "a",
      "u"
    ],
    [
      "a",
      "uto"
    ],
    [
      "ac",
      "qui"
    ],
    [
      "as",
      "se"
    ],
    [
      "città",
      ","
    ],
    [
      "comin",
      "ci"
    ],
    [
      "del",
      "lo"
    ],
    [
      "el",
      "a"
    ],
    [
      "grandi",
      "ssima"
    ],
    [
      "in",
      "te"
    ],
    [
      "t",
      "'"
    ],
    [
      "ten",
      "e"
    ],
    [
      "z",
      "e,"
    ],
    [
      "D",
      "io"
    ],
    [
      "a",
      "do"
    ],
    [
      "ca",
      "ri"
    ],
    [
      "capi",
      "tano"
    ],
    [
      "co",
      "'"
    ],
    [
      "comin",
      "ciò"
    ],
    [
      "do",
      "re"
    ],
    [
      "er",
      "a,"
    ],
    [
      "m",
      "esso"
    ],
    [
      "na",
      "tur"
    ],
    [
      "p",
      "es"
    ],
    [
      "pu",
      "re"
    ],
    [
      "sola",
      "mente"
    ],
    [
      "un",
      "'"
    ],
    [
      "ve",
      "dendo"
    ],
    [
      "_",
      "CAP."
    ],
    [
      "ci",
      "a,"
    ],
    [
      "comin",
      "cia"
    ],
    [
      "cor",
      "re"
    ],
    [
      "gu",
      "i"
    ],
    [
      "ma",
      "ra"
    ],
    [
      "no",
      ","
    ],
    [
      "po",
      "l"
    ],
    [
      "I",
      "."
    ],
    [
      "Ro",
      "ma"
    ],
    [
      "b",
      "elli"
    ],
    [
      "c",
      "uo"
    ],
    [
      "cer",
      "to"
    ],
    [
      "figliuo",
      "lo"
    ],
    [
      "fuo",
      "ri"
    ],
    [
      "mo",
      ","
    ],
    [
      "pro",
      "vin"
    ],
    [
      "ra",
      "re"
    ],
    [
      "to",
      "l"
    ],
    [
      "v",
      "il"
    ],
    [
      "v",
      "ono"
    ],
    [
      "M",
      "il"
    ],
    [
      "cri",
      "sti"
    ],
    [
      "fa",
      "tti"
    ],
    [
      "i",
      "a"
    ],
    [
      "p",
      "in"
    ],
    [
      "ponte",
      "fi"
    ],
    [
      "signo",
      "ri"
    ],
    [
      "ta",
      "."
    ],
    [
      "tudi",
      "ne"
    ],
    [
      ".",
      "."
    ],
    [
      "ave",
      "ano"
    ],
    [
      "b",
      "ella"
    ],
    [
      "ci",
      "r"
    ],
    [
      "con",
      "ten"
    ],
    [
      "g",
      "ge"
    ],
    [
      "g",
      "ro"
    ],
    [
      "la",
      "r"
    ],
    [
      "m",
      "'"
    ],
    [
      "mi",
      "glia"
    ],
    [
      "vi",
      "c"
    ],
    [
      "S",
      "e"
    ],
    [
      "XX",
      "X"
    ],
    [
      "ar",
      "ta"
    ],
    [
      "b",
      "elle"
    ],
    [
      "c",
      "che"
    ],
    [
      "ca",
      "po"
    ],
    [
      "di",
      ","
    ],
    [
      "e",
      "f"
    ],
    [
      "f",
      "ioren"
    ],
    [
      "g",
      "lo"
    ],
    [
      "lib",
      "ro"
    ],
    [
      "luo",
      "ghi"
    ],
    [
      "na",
      "tura"
    ],
    [
      "nu",
      "m"
    ],
    [
      "pa",
      "d"
    ],
    [
      "pi",
      "cco"
    ],
    [
      "po",
      "ter"
    ],
    [
      "z",
      "zi"
    ],
    [
      "R",
      "O"
    ],
    [
      "__",
      "__"
    ],
    [
      "ando",
      "si"
    ],
    [
      "cer",
      "ti"
    ],
    [
      "con",
      "du"
    ],
    [
      "eserci",
      "to"
    ],
    [
      "for",
      "ma"
    ],
    [
      "gli",
      "a,"
    ],
    [
      "l'",
      "altra"
    ],
    [
      "mara",
      "vi"
    ],
    [
      "mi",
      "ci"
    ],
    [
      "no",
      "v"
    ],
    [
      "non",
      "di"
    ],
    [
      "ol",
      "tre"
    ],
    [
      "pen",
      "sa"
    ],
    [
      "pia",
      "ce"
    ],
    [
      "s",
      "sono"
    ],
    [
      "su",
      "bito"
    ],
    [
      "u",
      "te"
    ],
    [
      "vi",
      "ene"
    ],
    [
      "1",
      "2"
    ],
    [
      "C",
      "C"
    ],
    [
      "Fran",
      "c"
    ],
    [
      "Fran",
      "cia"
    ],
    [
      "M",
      "on"
    ],
    [
      "O",
      "r"
    ],
    [
      "T",
      "I"
    ],
    [
      "abbi",
      "a"
    ],
    [
      "ac",
      "ciò"
    ],
    [
      "ave",
      "vano"
    ],
    [
      "cias",
      "cuno"
    ],
    [
      "cin",
      "que"
    ],
    [
      "co",
      "loro"
    ],
    [
      "dal",
      "le"
    ],
    [
      "den",
      "te"
    ],
    [
      "m",
      "uo"
    ],
    [
      "ma",
      "es"
    ],
    [
      "sa",
      "rebbe"
    ],
    [
      "sse",
      ","
    ],
    [
      "t",
      "on"
    ],
    [
      "1",
      "5"
    ],
    [
      "C",
      "O"
    ],
    [
      "C",
      "a"
    ],
    [
      "S",
      "pa"
    ],
    [
      "an",
      "im"
    ],
    [
      "ben",
      "i"
    ],
    [
      "dan",
      "a"
    ],
    [
      "fi",
      "ca"
    ],
    [
      "gg",
      "endo"
    ],
    [
      "gi",
      "un"
    ],
    [
      "gio",
      "van"
    ],
    [
      "lu",
      "i,"
    ],
    [
      "m",
      "p"
    ],
    [
      "s",
      "tu"
    ],
    [
      "si",
      "one"
    ],
    [
      "sta",
      "re"
    ],
    [
      "ter",
      "ra,"
    ],
    [
      "L",
      "o"
    ],
    [
      "L",
      "u"
    ],
    [
      "N",
      "el"
    ],
    [
      "allo",
      "ra"
    ],
    [
      "ar",
      "si"
    ],
    [
      "bu",
      "ono"
    ],
    [
      "dere",
      ","
    ],
    [
      "die",
      "tro"
    ],
    [
      "e",
      "cc"
    ],
    [
      "ero",
      ","
    ],
    [
      "fe",
      "c"
    ],
    [
      "le",
      "va"
    ],
    [
      "o",
      "ggi"
    ],
    [
      "po",
      "li"
    ],
    [
      "r",
      "ano"
    ],
    [
      "s",
      "cor"
    ],
    [
      "ul",
      "ti"
    ],
    [
      "vi",
      ","
    ],
    [
      "E",
      "R"
    ],
    [
      "Itali",
      "a"
    ],
    [
      "auto",
      "ri"
    ],
    [
      "c",
      "ru"
    ],
    [
      "gu",
      "e"
    ],
    [
      "im",
      "pre"
    ],
    [
      "ini",
      "zi"
    ],
    [
      "nuo",
      "vo"
    ],
    [
      "p",
      "un"
    ],
    [
      "rice",
      "v"
    ],
    [
      "scri",
      "tto"
    ],
    [
      "ss",
      "ino"
    ],
    [
      "ò",
      ","
    ],
    [
      "ac",
      "cor"
    ],
    [
      "an",
      "za"
    ],
    [
      "cam",
      "po"
    ],
    [
      "d",
      "anno"
    ],
    [
      "de",
      "tti"
    ],
    [
      "feci",
      "ono"
    ],
    [
      "fi",
      "gu"
    ],
    [
      "mi",
      "la"
    ],
    [
      "oc",
      "ca"
    ],
    [
      "per",
      "ciò"
    ],
    [
      "ten",
      "ere"
    ],
    [
      "va",
      "."
    ],
    [
      "ven",
      "uto"
    ],
    [
      "A",
      "r"
    ],
    [
      "C",
      "as"
    ],
    [
      "V",
      "I"
    ],
    [
      "V",
      "o"
    ],
    [
      "an",
      "a"
    ],
    [
      "ar",
      "ma"
    ],
    [
      "c",
      "col"
    ],
    [
      "ci",
      "e"
    ],
    [
      "detto",
      ","
    ],
    [
      "l'",
      "altro"
    ],
    [
      "ma",
      "g"
    ],
    [
      "mo",
      "ri"
    ],
    [
      "nec",
      "essa"
    ],
    [
      "o",
      "p"
    ],
    [
      "pa",
      "ce"
    ],
    [
      "re",
      ";"
    ],
    [
      "ri",
      "sto"
    ],
    [
      "to",
      "sto"
    ],
    [
      "C",
      "esa"
    ],
    [
      "O",
      "n"
    ],
    [
      "S",
      "."
    ],
    [
      "ami",
      "ci"
    ],
    [
      "an",
      "cor"
    ],
    [
      "ba",
      "tta"
    ],
    [
      "do",
      "v"
    ],
    [
      "fe",
      "de"
    ],
    [
      "fe",
      "tto"
    ],
    [
      "fer",
      "ma"
    ],
    [
      "fi",
      "a"
    ],
    [
      "mani",
      "era"
    ],
    [
      "po",
      "ssa"
    ],
    [
      "presen",
      "te"
    ],
    [
      "princi",
      "pe"
    ],
    [
      "r",
      "si"
    ],
    [
      "ri",
      "ma"
    ],
    [
      "v",
      "esti"
    ],
    [
      "virt",
      "ù"
    ],
    [
      "C",
      "i"
    ],
    [
      "M",
      "ar"
    ],
    [
      "S",
      "I"
    ],
    [
      "a",
      "’"
    ],
    [
      "ad",
      "unque"
    ],
    [
      "er",
      "ra"
    ],
    [
      "fa",
      "tte"
    ],
    [
      "im",
      "pe"
    ],
    [
      "in",
      "ge"
    ],
    [
      "le",
      "v"
    ],
    [
      "man",
      "do"
    ],
    [
      "me",
      "tte"
    ],
    [
      "mi",
      "ra"
    ],
    [
      "po",
      "chi"
    ],
    [
      "qual",
      "i,"
    ],
    [
      "t",
      "endo"
    ],
    [
      "ve",
      "der"
    ],
    [
      "zi",
      "e"
    ],
    [
      "zz",
      "a,"
    ],
    [
      "C",
      "or"
    ],
    [
      "Fioren",
      "tini"
    ],
    [
      "an",
      "che"
    ],
    [
      "cor",
      "r"
    ],
    [
      "da",
      "ta"
    ],
    [
      "grandi",
      "ssimo"
    ],
    [
      "i",
      "s"
    ],
    [
      "me",
      "mo"
    ],
    [
      "men",
      "to,"
    ],
    [
      "o",
      "lo"
    ],
    [
      "to",
      ";"
    ],
    [
      "tti",
      ","
    ],
    [
      "vi",
      "vere"
    ],
    [
      "vo",
      "stro"
    ],
    [
      "Car",
      "lo"
    ],
    [
      "Firen",
      "ze,"
    ],
    [
      "M",
      "o"
    ],
    [
      "Pi",
      "e"
    ],
    [
      "al",
      "i,"
    ],
    [
      "altri",
      ","
    ],
    [
      "ar",
      "me"
    ],
    [
      "bu",
      "ona"
    ],
    [
      "caval",
      "li"
    ],
    [
      "co",
      "manda"
    ],
    [
      "con",
      "ce"
    ],
    [
      "da",
      "ti"
    ],
    [
      "de",
      "va"
    ],
    [
      "fa",
      "vo"
    ],
    [
      "fac",
      "cia"
    ],
    [
      "le",
      "ggi"
    ],
    [
      "lun",
      "ga"
    ],
    [
      "p",
      "li"
    ],
    [
      "pre",
      "so"
    ],
    [
      "su",
      "per"
    ],
    [
      "vo",
      "li"
    ],
    [
      "vol",
      "endo"
    ],
    [
      "A",
      "N"
    ],
    [
      "B",
      "ar"
    ],
    [
      "M",
      "an"
    ],
    [
      "al",
      "e,"
    ],
    [
      "ch'",
      "io"
    ],
    [
      "da",
      ","
    ],
    [
      "di",
      "vi"
    ],
    [
      "f",
      "io"
    ],
    [
      "fa",
      "ci"
    ],
    [
      "fiu",
      "me"
    ],
    [
      "gover",
      "na"
    ],
    [
      "l",
      "à"
    ],
    [
      "mol",
      "ta"
    ],
    [
      "na",
      "vi"
    ],
    [
      "pa",
      "dre"
    ],
    [
      "pa",
      "ri"
    ],
    [
      "po",
      "si"
    ],
    [
      "po",
      "tu"
    ],
    [
      "s",
      "ino"
    ],
    [
      "simi",
      "li"
    ],
    [
      "ter",
      "re"
    ],
    [
      "v",
      "anno"
    ],
    [
      "v",
      "ina"
    ],
    [
      "ve",
      "dere"
    ],
    [
      "E",
      "N"
    ],
    [
      "M",
      "O"
    ],
    [
      "T",
      "arta"
    ],
    [
      "ar",
      "te"
    ],
    [
      "compagni",
      "a"
    ],
    [
      "d'",
      "un"
    ],
    [
      "di",
      "li"
    ],
    [
      "di",
      "mostra"
    ],
    [
      "dic",
      "endo"
    ],
    [
      "diver",
      "si"
    ],
    [
      "du",
      "bi"
    ],
    [
      "e",
      "si"
    ],
    [
      "es",
      "te"
    ],
    [
      "fa",
      "tica"
    ],
    [
      "g",
      "ri"
    ],
    [
      "pa",
      "u"
    ],
    [
      "po",
      "ssi"
    ],
    [
      "pos",
[...]
