{
  "type": "unicode_bpe",
  "token_to_id": {
    "<|endoftext|>": 0,
    "\t": 1,
    "\n": 2,
    " ": 3,
    "!": 4,
    "\"": 5,
    "#": 6,
    "&": 7,
    "'": 8,
    "(": 9,
    ")": 10,
    "*": 11,
    "+": 12,
    ",": 13,
    "-": 14,
    ".": 15,
    "/": 16,
    "0": 17,
    "1": 18,
    "2": 19,
    "3": 20,
    "4": 21,
    "5": 22,
    "6": 23,
    "7": 24,
    "8": 25,
    "9": 26,
    ":": 27,
    ";": 28,
    "<": 29,
    "=": 30,
    ">": 31,
    "?": 32,
    "@": 33,
    "A": 34,
    "B": 35,
    "C": 36,
    "D": 37,
    "E": 38,
    "F": 39,
    "G": 40,
    "H": 41,
    "I": 42,
    "J": 43,
    "K": 44,
    "L": 45,
    "M": 46,
    "N": 47,
    "O": 48,
    "P": 49,
    "Q": 50,
    "R": 51,
    "S": 52,
    "T": 53,
    "U": 54,
    "V": 55,
    "W": 56,
    "X": 57,
    "Y": 58,
    "Z": 59,
    "[": 60,
    "\\": 61,
    "]": 62,
    "^": 63,
    "_": 64,
    "`": 65,
    "a": 66,
    "b": 67,
    "c": 68,
    "d": 69,
    "e": 70,
    "f": 71,
    "g": 72,
    "h": 73,
    "i": 74,
    "j": 75,
    "k": 76,
    "l": 77,
    "m": 78,
    "n": 79,
    "o": 80,
    "p": 81,
    "q": 82,
    "r": 83,
    "s": 84,
    "t": 85,
    "u": 86,
    "v": 87,
    "w": 88,
    "x": 89,
    "y": 90,
    "z": 91,
    "{": 92,
    "|": 93,
    "}": 94,
    "~": 95,
    "§": 96,
    "ª": 97,
    "«": 98,
    "°": 99,
    "¶": 100,
    "·": 101,
    "º": 102,
    "»": 103,
    "¼": 104,
    "À": 105,
    "Á": 106,
    "Æ": 107,
    "È": 108,
    "É": 109,
    "Ì": 110,
    "Ò": 111,
    "Ó": 112,
    "Ù": 113,
    "Ú": 114,
    "Ý": 115,
    "à": 116,
    "á": 117,
    "â": 118,
    "ã": 119,
    "ä": 120,
    "æ": 121,
    "ç": 122,
    "è": 123,
    "é": 124,
    "ê": 125,
    "ë": 126,
    "ì": 127,
    "í": 128,
    "î": 129,
    "ï": 130,
    "ñ": 131,
    "ò": 132,
    "ó": 133,
    "ô": 134,
    "õ": 135,
    "ù": 136,
    "ú": 137,
    "û": 138,
    "ü": 139,
    "ý": 140,
    "ĩ": 141,
    "œ": 142,
    "ȇ": 143,
    "α": 144,
    "δ": 145,
    "ι": 146,
    "κ": 147,
    "λ": 148,
    "μ": 149,
    "ν": 150,
    "ο": 151,
    "ς": 152,
    "σ": 153,
    "ό": 154,
    "ẻ": 155,
    "ἰ": 156,
    "ῠ": 157,
    "‑": 158,
    "‒": 159,
    "–": 160,
    "—": 161,
    "‘": 162,
    "’": 163,
    "‚": 164,
    "“": 165,
    "”": 166,
    "„": 167,
    "…": 168,
    "‹": 169,
    "›": 170,
    "∞": 171,
    "☉": 172,
    "✶": 173,
    "❘": 174,
    "er": 175,
    "on": 176,
    "an": 177,
    "di": 178,
    "en": 179,
    "to": 180,
    "ch": 181,
    "al": 182,
    "re": 183,
    "in": 184,
    "el": 185,
    "la": 186,
    "te": 187,
    "si": 188,
    "co": 189,
    "ti": 190,
    "li": 191,
    "qu": 192,
    "che": 193,
    "ri": 194,
    "ta": 195,
    "ra": 196,
    "es": 197,
    "ci": 198,
    "le": 199,
    "per": 200,
    "do": 201,
    "se": 202,
    "ar": 203,
    "con": 204,
    "ro": 205,
    "po": 206,
    "mo": 207,
    "lo": 208,
    "de": 209,
    "un": 210,
    "gli": 211,
    "il": 212,
    "ma": 213,
    "ca": 214,
    "del": 215,
    "so": 216,
    "no": 217,
    "  ": 218,
    "io": 219,
    "me": 220,
    "da": 221,
    "pi": 222,
    "vi": 223,
    "sa": 224,
    "non": 225,
    "uo": 226,
    "va": 227,
    "ano": 228,
    "ono": 229,
    "tu": 230,
    "men": 231,
    "vo": 232,
    "ve": 233,
    "mi": 234,
    "pa": 235,
    "tto": 236,
    "gi": 237,
    "zi": 238,
    "ere": 239,
    "fa": 240,
    "l'": 241,
    "st": 242,
    "qual": 243,
    "a,": 244,
    "one": 245,
    "ce": 246,
    "ne": 247,
    "quel": 248,
    "ni": 249,
    "na": 250,
    "nel": 251,
    "endo": 252,
    "era": 253,
    "    ": 254,
    "ques": 255,
    "ran": 256,
    "su": 257,
    "alt": 258,
    "or": 259,
    "chi": 260,
    "fi": 261,
    "ver": 262,
    "za": 263,
    "par": 264,
    "ess": 265,
    "mente": 266,
    "tt": 267,
    "pre": 268,
    "man": 269,
    "ssi": 270,
    "fu": 271,
    "sta": 272,
    "bi": 273,
    "una": 274,
    "tta": 275,
    "sse": 276,
    "ando": 277,
    "du": 278,
    "av": 279,
    "tra": 280,
    "ven": 281,
    "i,": 282,
    "mol": 283,
    "min": 284,
    "della": 285,
    "gu": 286,
    "as": 287,
    "tti": 288,
    "gio": 289,
    "e,": 290,
    "ac": 291,
    "come": 292,
    "gno": 293,
    "loro": 294,
    "ero": 295,
    "re,": 296,
    "to,": 297,
    "tro": 298,
    "ter": 299,
    "cor": 300,
    "pro": 301,
    "bb": 302,
    "d'": 303,
    "vol": 304,
    "gran": 305,
    "tte": 306,
    "sono": 307,
    "ten": 308,
    "tan": 309,
    "suo": 310,
    "ché": 311,
    "ino": 312,
    "go": 313,
    "zione": 314,
    "tà": 315,
    "pe": 316,
    "alla": 317,
    "sen": 318,
    "fe": 319,
    "cu": 320,
    "uno": 321,
    "anno": 322,
    "cia": 323,
    "quale": 324,
    "l’": 325,
    "eri": 326,
    "oni": 327,
    "pri": 328,
    "pu": 329,
    "ave": 330,
    "im": 331,
    "for": 332,
    "com": 333,
    "cos": 334,
    "ali": 335,
    "ga": 336,
    "vano": 337,
    "gni": 338,
    "lu": 339,
    "\n\n": 340,
    "sc": 341,
    "alc": 342,
    "ren": 343,
    "gen": 344,
    "col": 345,
    "piú": 346,
    "ini": 347,
    "de'": 348,
    "que": 349,
    "ti,": 350,
    "tem": 351,
    "ad": 352,
    "ani": 353,
    "te,": 354,
    "cio": 355,
    "ss": 356,
    "sto": 357,
    "por": 358,
    "quali": 359,
    "questo": 360,
    "        ": 361,
    "ale": 362,
    "ciò": 363,
    "ed": 364,
    "dal": 365,
    "zz": 366,
    "più": 367,
    "am": 368,
    "tor": 369,
    "esse": 370,
    "ben": 371,
    "sti": 372,
    "perché": 373,
    "ba": 374,
    "o,": 375,
    "sua": 376,
    "ggi": 377,
    "pra": 378,
    "esser": 379,
    "tre": 380,
    "nella": 381,
    "delle": 382,
    "anti": 383,
    "Ma": 384,
    "cer": 385,
    "fo": 386,
    "ria": 387,
    "ona": 388,
    "molto": 389,
    "qua": 390,
    "altri": 391,
    "ru": 392,
    "egli": 393,
    "sso": 394,
    "signo": 395,
    "stra": 396,
    "ella": 397,
    "gna": 398,
    "quello": 399,
    "rono": 400,
    "citt": 401,
    "bbe": 402,
    "questa": 403,
    "cose": 404,
    "quella": 405,
    "ggio": 406,
    "ap": 407,
    "bu": 408,
    "dere": 409,
    "anco": 410,
    "uto": 411,
    "gh": 412,
    "dis": 413,
    "pen": 414,
    "qui": 415,
    "poi": 416,
    "detto": 417,
    "rin": 418,
    "anto": 419,
    "né": 420,
    "cre": 421,
    "cosa": 422,
    "essi": 423,
    "città": 424,
    "sopra": 425,
    "glia": 426,
    "gra": 427,
    "desi": 428,
    "mon": 429,
    "ssa": 430,
    "den": 431,
    "pera": 432,
    "gn": 433,
    "altro": 434,
    "uni": 435,
    "tutti": 436,
    "dove": 437,
    "parte": 438,
    "tempo": 439,
    "mor": 440,
    "zia": 441,
    "ra,": 442,
    "tanto": 443,
    "zza": 444,
    "fer": 445,
    "ta,": 446,
    "giu": 447,
    "erano": 448,
    "fatto": 449,
    "ha": 450,
    "Co": 451,
    "ris": 452,
    "car": 453,
    "cen": 454,
    "ina": 455,
    "and": 456,
    "tutto": 457,
    "sia": 458,
    "sci": 459,
    "parti": 460,
    "lo,": 461,
    "pon": 462,
    "oc": 463,
    "essere": 464,
    "mini": 465,
    "glio": 466,
    "ssimo": 467,
    "ogni": 468,
    "van": 469,
    "molti": 470,
    "lui": 471,
    "fra": 472,
    "chia": 473,
    "ese": 474,
    "der": 475,
    "far": 476,
    "ri,": 477,
    "quando": 478,
    "ste": 479,
    "modo": 480,
    "mani": 481,
    "senza": 482,
    "mento": 483,
    "Qu": 484,
    "san": 485,
    "ge": 486,
    "esso": 487,
    "fare": 488,
    "ser": 489,
    "In": 490,
    "che,": 491,
    "don": 492,
    "alle": 493,
    "II": 494,
    "altra": 495,
    "cav": 496,
    "pote": 497,
    "ine": 498,
    "et": 499,
    "esa": 500,
    "li,": 501,
    "aveva": 502,
    "luo": 503,
    "cono": 504,
    "stato": 505,
    "cam": 506,
    "ssima": 507,
    "arono": 508,
    "due": 509,
    "altre": 510,
    "Il": 511,
    "medesi": 512,
    "amo": 513,
    "cosí": 514,
    "Pi": 515,
    "ano,": 516,
    "rinci": 517,
    "ordi": 518,
    "fece": 519,
    "grande": 520,
    "quanto": 521,
    "gione": 522,
    "essendo": 523,
    "anzi": 524,
    "maggio": 525,
    "princi": 526,
    "grandi": 527,
    "ch'": 528,
    "Fi": 529,
    "veni": 530,
    "assa": 531,
    "suoi": 532,
    "zio": 533,
    "allo": 534,
    "re.": 535,
    "gior": 536,
    "d’": 537,
    "Fran": 538,
    "mu": 539,
    "fac": 540,
    "anda": 541,
    "ze": 542,
    "nost": 543,
    "dell'": 544,
    "manda": 545,
    "rio": 546,
    "bene": 547,
    "tá": 548,
    "ora": 549,
    "lib": 550,
    "s'": 551,
    "zzo": 552,
    "dia": 553,
    "bel": 554,
    "le,": 555,
    "segu": 556,
    "terra": 557,
    "tutte": 558,
    "ancora": 559,
    "bo": 560,
    "esti": 561,
    "scri": 562,
    "dif": 563,
    "ente": 564,
    "prima": 565,
    "Ro": 566,
    "die": 567,
    "co,": 568,
    "comin": 569,
    "porta": 570,
    "Al": 571,
    "si,": 572,
    "gliuo": 573,
    "io,": 574,
    "nelle": 575,
    "Per": 576,
    "a'": 577,
    "condo": 578,
    "quelli": 579,
    "via": 580,
    "anni": 581,
    "questi": 582,
    "contra": 583,
    "tal": 584,
    "mar": 585,
    "verso": 586,
    "disse": 587,
    "noi": 588,
    "vole": 589,
    "mai": 590,
    "avendo": 591,
    "fuo": 592,
    "ssero": 593,
    "molte": 594,
    "consi": 595,
    "ai": 596,
    "zioni": 597,
    "Ch": 598,
    "sì": 599,
    "dalla": 600,
    "hanno": 601,
    "sol": 602,
    "va,": 603,
    "ul": 604,
    "figliuo": 605,
    "tri": 606,
    "ol": 607,
    "pia": 608,
    "ala": 609,
    "une": 610,
    "sem": 611,
    "avere": 612,
    "tali": 613,
    "tura": 614,
    "dio": 615,
    "assai": 616,
    "ene": 617,
    "La": 618,
    "uomini": 619,
    "essa": 620,
    "così": 621,
    "bbi": 622,
    "fosse": 623,
    "però": 624,
    "dire": 625,
    "duca": 626,
    "esco": 627,
    "degli": 628,
    "cca": 629,
    "popo": 630,
    "passa": 631,
    "quelle": 632,
    "                ": 633,
    "messer": 634,
    "rac": 635,
    "sola": 636,
    "Di": 637,
    "peri": 638,
    "furono": 639,
    "tutta": 640,
    "mici": 641,
    "tano": 642,
    "menti": 643,
    "din": 644,
    "nuo": 645,
    "mmo": 646,
    "ho": 647,
    "poco": 648,
    "capi": 649,
    "presso": 650,
    "tin": 651,
    "sal": 652,
    "sp": 653,
    "alcuna": 654,
    "compa": 655,
    "genti": 656,
    "vin": 657,
    "de’": 658,
    "cc": 659,
    "dendo": 660,
    "af": 661,
    "dice": 662,
    "gg": 663,
    "bar": 664,
    "ante": 665,
    "aver": 666,
    "ello": 667,
    "mand": 668,
    "enti": 669,
    "San": 670,
    "unque": 671,
    "sue": 672,
    "uti": 673,
    "queste": 674,
    "bas": 675,
    "tur": 676,
    "ana": 677,
    "tamente": 678,
    "voi": 679,
    "meno": 680,
    "pare": 681,
    "to.": 682,
    "An": 683,
    "sempre": 684,
    "me,": 685,
    "be": 686,
    "eno": 687,
    "trova": 688,
    "sotto": 689,
    "ere,": 690,
    "erra": 691,
    "colo": 692,
    "ghi": 693,
    "cin": 694,
    "quasi": 695,
    "ioren": 696,
    "ppo": 697,
    "sie": 698,
    "guar": 699,
    "e'": 700,
    "lun": 701,
    "cri": 702,
    "\n ": 703,
    "rò": 704,
    "fin": 705,
    "Gio": 706,
    "spe": 707,
    "già": 708,
    "mett": 709,
    "sí": 710,
    "uta": 711,
    "enza": 712,
    "luogo": 713,
    "pie": 714,
    "cui": 715,
    "sare": 716,
    "casa": 717,
    "tore": 718,
    "chiama": 719,
    "Firen": 720,
    "ele": 721,
    "erci": 722,
    "ro,": 723,
    "alcuni": 724,
    "mostra": 725,
    "venne": 726,
    "Gi": 727,
    "uomo": 728,
    "vero": 729,
    "XX": 730,
    "bile": 731,
    "um": 732,
    "gente": 733,
    "son": 734,
    "'l": 735,
    "pot": 736,
    "sco": 737,
    "gre": 738,
    "Si": 739,
    "esta": 740,
    "inten": 741,
    "piac": 742,
    "cili": 743,
    "spa": 744,
    "dre": 745,
    "fini": 746,
    "giorno": 747,
    "zione,": 748,
    "cchi": 749,
    "contro": 750,
    "elli": 751,
    "gua": 752,
    "presen": 753,
    "può": 754,
    "avea": 755,
    "secondo": 756,
    "glie": 757,
    "mano": 758,
    "medesimo": 759,
    "detta": 760,
    "one,": 761,
    "rie": 762,
    "tà,": 763,
    "mer": 764,
    "paro": 765,
    "dí": 766,
    "volte": 767,
    "face": 768,
    "us": 769,
    "tori": 770,
    "all'": 771,
    "eserci": 772,
    "insie": 773,
    "vere": 774,
    "za,": 775,
    "papa": 776,
    "dar": 777,
    "qualche": 778,
    "Roma": 779,
    "abi": 780,
    "princip": 781,
    "signor": 782,
    "volta": 783,
    "almente": 784,
    "mina": 785,
    "Pa": 786,
    "mezzo": 787,
    "alcuno": 788,
    "asc": 789,
    "lor": 790,
    "ragi": 791,
    "segui": 792,
    "gover": 793,
    "las": 794,
    "can": 795,
    "fici": 796,
    "des": 797,
    "rice": 798,
    "anza": 799,
    "tare": 800,
    "alli": 801,
    "ber": 802,
    "bili": 803,
    "fusse": 804,
    "gia": 805,
    "do,": 806,
    "dici": 807,
    "fatta": 808,
    "torno": 809,
    "ca,": 810,
    "dei": 811,
    "dini": 812,
    "avesse": 813,
    "dopo": 814,
    "ino,": 815,
    "inn": 816,
    "ponte": 817,
    "parla": 818,
    "tto,": 819,
    "animo": 820,
    "cioè": 821,
    "impera": 822,
    "servi": 823,
    "deli": 824,
    "sor": 825,
    "torn": 826,
    "usa": 827,
    "mare": 828,
    "cci": 829,
    "dera": 830,
    "ia": 831,
    "abbi": 832,
    "ce,": 833,
    "pos": 834,
    "care": 835,
    "onde": 836,
    "tar": 837,
    "opera": 838,
    "abb": 839,
    "la,": 840,
    "mia": 841,
    "Come": 842,
    "ciasc": 843,
    "quatt": 844,
    "pic": 845,
    "dic": 846,
    "fanno": 847,
    "ell": 848,
    "mio": 849,
    "vedu": 850,
    "vita": 851,
    "elle": 852,
    "pose": 853,
    "fon": 854,
    "sé": 855,
    "so,": 856,
    "Chi": 857,
    "citta": 858,
    "trov": 859,
    "Ca": 860,
    "mil": 861,
    "of": 862,
    "entra": 863,
    "ggia": 864,
    "Le": 865,
    "insieme": 866,
    "cento": 867,
    "Mil": 868,
    "dare": 869,
    "quattro": 870,
    "ssimi": 871,
    "lon": 872,
    "oni,": 873,
    "tuo": 874,
    "is": 875,
    "sul": 876,
    "vir": 877,
    "fine": 878,
    "Itali": 879,
    "nome": 880,
    "posto": 881,
    "sar": 882,
    "zo": 883,
    "nell'": 884,
    "nostro": 885,
    "Car": 886,
    "__": 887,
    "anta": 888,
    "appresso": 889,
    "gono": 890,
    "Giovan": 891,
    "cast": 892,
    "dì": 893,
    "fre": 894,
    "ordine": 895,
    "cardin": 896,
    "bli": 897,
    "innanzi": 898,
    "pers": 899,
    "contin": 900,
    "pren": 901,
    "costu": 902,
    "dell’": 903,
    "lega": 904,
    "Fioren": 905,
    "Io": 906,
    "cagione": 907,
    "fiu": 908,
    "cir": 909,
    "bito": 910,
    "conte": 911,
    "vesco": 912,
    "loro,": 913,
    "op": 914,
    "tempi": 915,
    "cato": 916,
    "gl'": 917,
    "vede": 918,
    "--": 919,
    "pli": 920,
    "pur": 921,
    "ti.": 922,
    "biso": 923,
    "forza": 924,
    "nec": 925,
    "mente,": 926,
    "mis": 927,
    "n'": 928,
    "tando": 929,
    "bascia": 930,
    "gge": 931,
    "dono": 932,
    "elo": 933,
    "torna": 934,
    "CA": 935,
    "ordina": 936,
    "stre": 937,
    "tale": 938,
    "fino": 939,
    "inter": 940,
    "cura": 941,
    "dato": 942,
    "ssime": 943,
    "sione": 944,
    "solo": 945,
    "tr": 946,
    "val": 947,
    "cia,": 948,
    "regno": 949,
    "signore": 950,
    "Francia": 951,
    "ebbe": 952,
    "tanti": 953,
    "chè": 954,
    "simi": 955,
    "Firenze": 956,
    "da'": 957,
    "lascia": 958,
    "usci": 959,
    "ori": 960,
    "udi": 961,
    "agli": 962,
    "fatti": 963,
    "eli": 964,
    "pass": 965,
    "pere": 966,
    "diver": 967,
    "tini": 968,
    "mal": 969,
    "cavali": 970,
    "guerra": 971,
    "nar": 972,
    "de,": 973,
    "pontefi": 974,
    "amore": 975,
    "dentro": 976,
    "sce": 977,
    "Dio": 978,
    "mandò": 979,
    "sanza": 980,
    "dine": 981,
    "mb": 982,
    "tò": 983,
    "compagni": 984,
    "pes": 985,
    "te.": 986,
    "chio": 987,
    "dette": 988,
    "essero": 989,
    "ma,": 990,
    "quale,": 991,
    "sino": 992,
    "tratta": 993,
    "l'a": 994,
    "maggior": 995,
    "quegli": 996,
    "senti": 997,
    "mi,": 998,
    "bbono": 999,
    "olo": 1000,
    "posta": 1001,
    "primo": 1002,
    "concili": 1003,
    "conten": 1004,
    "lin": 1005,
    "oro": 1006,
    "ron": 1007,
    "lett": 1008,
    "ani,": 1009,
    "avevano": 1010,
    "l'ar": 1011,
    "esto": 1012,
    "popolo": 1013,
    "se,": 1014,
    "zia,": 1015,
    "Li": 1016,
    "sa,": 1017,
    "Gu": 1018,
    "propri": 1019,
    "forte": 1020,
    "eri,": 1021,
    "lavo": 1022,
    "lei": 1023,
    "ch’": 1024,
    "corte": 1025,
    "gro": 1026,
    "giun": 1027,
    "mondo": 1028,
    "tten": 1029,
    "Con": 1030,
    "Non": 1031,
    "di,": 1032,
    "ne'": 1033,
    "stro": 1034,
    "tato": 1035,
    "veri": 1036,
    "mari": 1037,
    "ria,": 1038,
    "donne": 1039,
    "feri": 1040,
    "gri": 1041,
    "giudi": 1042,
    "rato": 1043,
    "tene": 1044,
    "Giovanni": 1045,
    "mila": 1046,
    "nostra": 1047,
    "ore": 1048,
    "parole": 1049,
    "tanta": 1050,
    "\n    ": 1051,
    "capo": 1052,
    "cola": 1053,
    "sper": 1054,
    "dov": 1055,
    "eramente": 1056,
    "intorno": 1057,
    "ove": 1058,
    "Ni": 1059,
    "cristi": 1060,
    "disse:": 1061,
    "donna": 1062,
    "ena": 1063,
    "arsi": 1064,
    "belli": 1065,
    "città,": 1066,
    "ecc": 1067,
    "aspe": 1068,
    "batt": 1069,
    "dol": 1070,
    "stri": 1071,
    "stati": 1072,
    "virt": 1073,
    "ambascia": 1074,
    "liber": 1075,
    "paese": 1076,
    "ghe": 1077,
    "notte": 1078,
    "allora": 1079,
    "sarebbe": 1080,
    "ttu": 1081,
    "Lo": 1082,
    "gna,": 1083,
    "cominciò": 1084,
    "ta.": 1085,
    "morte": 1086,
    "Se": 1087,
    "forma": 1088,
    "cinque": 1089,
    "poten": 1090,
    "quivi": 1091,
    "vic": 1092,
    "Ci": 1093,
    "d'A": 1094,
    "ei": 1095,
    "favo": 1096,
    "fica": 1097,
    "maes": 1098,
    "rando": 1099,
    "tino": 1100,
    "quanti": 1101,
    "Spa": 1102,
    "cittadini": 1103,
    "leva": 1104,
    "maggiore": 1105,
    "occa": 1106,
    "tica": 1107,
    "No": 1108,
    "dello": 1109,
    "dietro": 1110,
    "fran": 1111,
    "grandissima": 1112,
    "miglia": 1113,
    "stu": 1114,
    "ulti": 1115,
    "Mar": 1116,
    "Na": 1117,
    "acqua": 1118,
    "utori": 1119,
    "andosi": 1120,
    "ci,": 1121,
    "lasci": 1122,
    "mo,": 1123,
    "pun": 1124,
    "ciascuno": 1125,
    "cul": 1126,
    "fuori": 1127,
    "giovan": 1128,
    "male": 1129,
    "Mon": 1130,
    "Tu": 1131,
    "a.": 1132,
    "condu": 1133,
    "alcune": 1134,
    "dir": 1135,
    "ef": 1136,
    "gne": 1137,
    "ricev": 1138,
    "vedere": 1139,
    "CAP": 1140,
    "mma": 1141,
    "andò": 1142,
    "nondi": 1143,
    "delli": 1144,
    "figliuolo": 1145,
    "no,": 1146,
    "VII": 1147,
    "ale,": 1148,
    "nostri": 1149,
    "risto": 1150,
    "terra,": 1151,
    "un'": 1152,
    "v'": 1153,
    "oltre": 1154,
    "pio": 1155,
    "subito": 1156,
    "Lu": 1157,
    "cioché": 1158,
    "mara": 1159,
    "stata": 1160,
    "l'altro": 1161,
    "provin": 1162,
    "ragione": 1163,
    "cap": 1164,
    "fec": 1165,
    "poter": 1166,
    "tudine": 1167,
    "Franc": 1168,
    "acqui": 1169,
    "pad": 1170,
    "pure": 1171,
    "Vi": 1172,
    "vesti": 1173,
    "sse,": 1174,
    "dalle": 1175,
    "gui": 1176,
    "rre": 1177,
    "rare": 1178,
    "au": 1179,
    "acciò": 1180,
    "ccia": 1181,
    "detti": 1182,
    "era,": 1183,
    "figu": 1184,
    "na,": 1185,
    "navi": 1186,
    "sin": 1187,
    "rsi": 1188,
    "vescovo": 1189,
    "meri": 1190,
    "amici": 1191,
    "messo": 1192,
    "signori": 1193,
    "sten": 1194,
    "ado": 1195,
    "accor": 1196,
    "certo": 1197,
    "ero,": 1198,
    "giorni": 1199,
    "chi,": 1200,
    "endosi": 1201,
    "fatte": 1202,
    "zze": 1203,
    "CAP.": 1204,
    "certi": 1205,
    "fort": 1206,
    "pontefice": 1207,
    "venire": 1208,
    "   ": 1209,
    "anci": 1210,
    "maravi": 1211,
    "medesima": 1212,
    "most": 1213,
    "num": 1214,
    "ze,": 1215,
    "corpo": 1216,
    "fal": 1217,
    "alcun": 1218,
    "comune": 1219,
    "ese,": 1220,
    "ric": 1221,
    "testa": 1222,
    "ccio": 1223,
    "governa": 1224,
    "nuovo": 1225,
    "stan": 1226,
    "Cesa": 1227,
    "all’": 1228,
    "natur": 1229,
    "ferma": 1230,
    "poteva": 1231,
    "publi": 1232,
    "arri": 1233,
    "dana": 1234,
    "lev": 1235,
    "spi": 1236,
    "Me": 1237,
    "Or": 1238,
    "maniera": 1239,
    "posi": 1240,
    "s’": 1241,
    "ton": 1242,
    "buona": 1243,
    "cuo": 1244,
    "pace": 1245,
    "ragiona": 1246,
    "sser": 1247,
    "EL": 1248,
    "tati": 1249,
    "zza,": 1250,
    "arti": 1251,
    "presa": 1252,
    "rima": 1253,
    "stare": 1254,
    "tti,": 1255,
    "vil": 1256,
    "capitano": 1257,
    "ello,": 1258,
    "perciò": 1259,
    "To": 1260,
    "bella": 1261,
    "cominci": 1262,
    "conosc": 1263,
    "forse": 1264,
    "zzi": 1265,
    "Milano": 1266,
    "esercito": 1267,
    "rà": 1268,
    "ami": 1269,
    "comincia": 1270,
    "ela": 1271,
    "tol": 1272,
    "ama": 1273,
    "conta": 1274,
    "lui,": 1275,
    "I.": 1276,
    "So": 1277,
    "dore": 1278,
    "pol": 1279,
    "prese": 1280,
    "tua": 1281,
    "ua": 1282,
    "arma": 1283,
    "fio": 1284,
    "guer": 1285,
    "l'o": 1286,
    "solamente": 1287,
    "terre": 1288,
    "viene": 1289,
    "aveano": 1290,
    "cal": 1291,
    "leggi": 1292,
    "pin": 1293,
    "belle": 1294,
    "mori": 1295,
    "quei": 1296,
    "ssino": 1297,
    "Ba": 1298,
    "ane": 1299,
    "campo": 1300,
    "dati": 1301,
    "deva": 1302,
    "fetto": 1303,
    "t'": 1304,
    "ancor": 1305,
    "dando": 1306,
    "infini": 1307,
    "CC": 1308,
    "batta": 1309,
    "feci": 1310,
    "gar": 1311,
    "sero": 1312,
    "adunque": 1313,
    "cari": 1314,
    "co'": 1315,
    "d'un": 1316,
    "dicendo": 1317,
    "rano": 1318,
    "Po": 1319,
    "anche": 1320,
    "percioché": 1321,
    "cava": 1322,
    "cardinale": 1323,
    "fiume": 1324,
    "meglio": 1325,
    "reli": 1326,
    "autori": 1327,
    "beni": 1328,
    "caval": 1329,
    "lar": 1330,
    "mento,": 1331,
    "mira": 1332,
    "vuo": 1333,
    "bre": 1334,
    "diffi": 1335,
    "frat": 1336,
    "glia,": 1337,
    "mette": 1338,
    "poli": 1339,
    "vanno": 1340,
    "vedendo": 1341,
    "Mo": 1342,
    "asse": 1343,
    "corr": 1344,
    "dente": 1345,
    "grazia": 1346,
    "inte": 1347,
    "padre": 1348,
    "pochi": 1349,
    "questo,": 1350,
    "sap": 1351,
    "stesso": 1352,
    "Nel": 1353,
    "coloro": 1354,
    "danno": 1355,
    "ficio": 1356,
    "glo": 1357,
    "isola": 1358,
    "impe": 1359,
    "moglie": 1360,
    "seco": 1361,
    "sei": 1362,
    "vitto": 1363,
    "fede": 1364,
    "rati": 1365,
    "scu": 1366,
    "Indi": 1367,
    "divi": 1368,
    "t,": 1369,
    "venti": 1370,
    "vi,": 1371,
    "chiesa": 1372,
    "dise": 1373,
    "fru": 1374,
    "possi": 1375,
    "tante": 1376,
    "abbia": 1377,
    "bbli": 1378,
    "chiam": 1379,
    "ddi": 1380,
    "pensi": 1381,
    "presente": 1382,
    "vano,": 1383,
    "brac": 1384,
    "data": 1385,
    "nov": 1386,
    "piace": 1387,
    "principe": 1388,
    "Ri": 1389,
    "fuggi": 1390,
    "gener": 1391,
    "arta": 1392,
    "concilio": 1393,
    "faccia": 1394,
    "mentre": 1395,
    "numero": 1396,
    "petto": 1397,
    "s,": 1398,
    "va.": 1399,
    "Geno": 1400,
    "da,": 1401,
    "giusti": 1402,
    "necessa": 1403,
    "nondimeno": 1404,
    "anim": 1405,
    "cru": 1406,
    "consiglio": 1407,
    "ec": 1408,
    "este": 1409,
    "gno,": 1410,
    "l'altra": 1411,
    "merca": 1412,
    "pala": 1413,
    "samente": 1414,
    "Questo": 1415,
    "case": 1416,
    "combatt": 1417,
    "corre": 1418,
    "giovane": 1419,
    "inge": 1420,
    "int": 1421,
    "lunga": 1422,
    "preso": 1423,
    "super": 1424,
    "venuto": 1425,
    "NO": 1426,
    "m'": 1427,
    "metter": 1428,
    "Francia,": 1429,
    "onore": 1430,
    "rispose": 1431,
    "Fiorentini": 1432,
    "desse": 1433,
    "ing": 1434,
    "mando": 1435,
    "memo": 1436,
    "molta": 1437,
    "piglia": 1438,
    "Sa": 1439,
    "abita": 1440,
    "ali,": 1441,
    "corso": 1442,
    "oggi": 1443,
    "Chiesa": 1444,
    "pigli": 1445,
    "ò,": 1446,
    "Ver": 1447,
    "Vo": 1448,
    "andare": 1449,
    "causa": 1450,
    "dico": 1451,
    "fioren": 1452,
    "Italia": 1453,
    "inizi": 1454,
    "orna": 1455,
    "pensa": 1456,
    "persona": 1457,
    "voli": 1458,
    "\n  ": 1459,
    "Do": 1460,
    "Fu": 1461,
    "arte": 1462,
    "fia": 1463,
    "luoghi": 1464,
    "mangia": 1465,
    "piacere": 1466,
    "lla": 1467,
    "rebbe": 1468,
    "Bar": 1469,
    "Carlo": 1470,
    "andar": 1471,
    "faceva": 1472,
    "ggendo": 1473,
    "miglio": 1474,
    "riman": 1475,
    "zie": 1476,
    "Giu": 1477,
    "buono": 1478,
    "indi": 1479,
    "ssono": 1480,
    "veder": 1481,
    "veduto": 1482,
    "Francesco": 1483,
    "Sal": 1484,
    "Signo": 1485,
    "____": 1486,
    "dan": 1487,
    "gnuo": 1488,
    "principio": 1489,
    "puta": 1490,
    "sca": 1491,
    "ute": 1492,
    "zione.": 1493,
    "Bi": 1494,
    "Pie": 1495,
    "grandissimo": 1496,
    "mater": 1497,
    "mandato": 1498,
    "resti": 1499,
    "somma": 1500,
    "buon": 1501,
    "enzia": 1502,
    "simil": 1503,
    "15": 1504,
    "Cristo": 1505,
    "Re": 1506,
    "S.": 1507,
    "ando,": 1508,
    "denti": 1509,
    "là": 1510,
    "Ar": 1511,
    "a’": 1512,
    "mino": 1513,
    "osser": 1514,
    "possono": 1515,
    "rispon": 1516,
    "scritto": 1517,
    "On": 1518,
    "circa": 1519,
    "div": 1520,
    "off": 1521,
    "pau": 1522,
    "tore,": 1523,
    "un'altra": 1524,
    "Che": 1525,
    "Firenze,": 1526,
    "bal": 1527,
    "eccell": 1528,
    "nero": 1529,
    "pericolo": 1530,
    "tempo,": 1531,
    "troppo": 1532,
    "arme": 1533,
    "aspetta": 1534,
    "eria": 1535,
    "insino": 1536,
    "mili": 1537,
    "mini,": 1538,
    "vio": 1539,
    "considera": 1540,
    "imper": 1541,
    "part": 1542,
    "ssimamente": 1543,
    "TO": 1544,
    "benché": 1545,
    "castello": 1546,
    "l'altre": 1547,
    "mine": 1548,
    "principi": 1549,
    "state": 1550,
    "bri": 1551,
    "conce": 1552,
    "esi": 1553,
    "messa": 1554,
    "re;": 1555,
    "altri,": 1556,
    "l'uno": 1557,
    "potere": 1558,
    "ritorn": 1559,
    "virtù": 1560,
    "Bolo": 1561,
    "bil": 1562,
    "dimostra": 1563,
    "feciono": 1564,
    "giov": 1565,
    "bera": 1566,
    "detto,": 1567,
    "gli,": 1568,
    "para": 1569,
    "sole": 1570,
    "volon": 1571,
    "cavalli": 1572,
    "proce": 1573,
    "pubbli": 1574,
    "sospe": 1575,
    "stru": 1576,
    "DI": 1577,
    "Tarta": 1578,
    "d'una": 1579,
    "gliono": 1580,
    "pari": 1581,
    "potesse": 1582,
    "to;": 1583,
    "tosto": 1584,
    "RE": 1585,
    "cò": 1586,
    "compagnia": 1587,
    "indu": 1588,
    "natura": 1589,
    "star": 1590,
    "cose,": 1591,
    "delibera": 1592,
    "gnifi": 1593,
    "vono": 1594,
    "ELL": 1595,
    "faci": 1596,
    "fortuna": 1597,
    "lingua": 1598,
    "siano": 1599,
    "De": 1600,
    "RI": 1601,
    "confi": 1602,
    "moni": 1603,
    "ente,": 1604,
    "ghil": 1605,
    "volere": 1606,
    "Du": 1607,
    "acco": 1608,
    "conc": 1609,
    "cristiani": 1610,
    "figliuoli": 1611,
    "lungo": 1612,
    "perché,": 1613,
    "schi": 1614,
    "sorte": 1615,
    "Inghil": 1616,
    "Né": 1617,
    "ON": 1618,
    "atten": 1619,
    "mona": 1620,
    "occhi": 1621,
    "quali,": 1622,
    "sent": 1623,
    "soli": 1624,
    "acci": 1625,
    "avanti": 1626,
    "diversi": 1627,
    "edi": 1628,
    "lettere": 1629,
    "libro": 1630,
    "maestro": 1631,
    "modi": 1632,
    "volendo": 1633,
    "Andre": 1634,
    "muo": 1635,
    "nuova": 1636,
    "sani": 1637,
    "antichi": 1638,
    "condi": 1639,
    "consigli": 1640,
    "ex": 1641,
    "rime": 1642,
    "dagli": 1643,
    "dimo": 1644,
    "disc": 1645,
    "mese": 1646,
    "opini": 1647,
    "sape": 1648,
    "zu": 1649,
    "Mi": 1650,
    "avuto": 1651,
    "more": 1652,
    "pens": 1653,
    "pian": 1654,
    "spazio": 1655,
    "tani": 1656,
    "voglia": 1657,
    "Qui": 1658,
    "aper": 1659,
    "asti": 1660,
    "dubi": 1661,
    "facendo": 1662,
    "fossero": 1663,
    "cavalieri": 1664,
    "dai": 1665,
    "duto": 1666,
    "mettere": 1667,
    "..": 1668,
    "ass": 1669,
    "bbero": 1670,
    "chiamato": 1671,
    "gioni": 1672,
    "mie": 1673,
    "prov": 1674,
    "vari": 1675,
    "visi": 1676,
    "            ": 1677,
    "aggi": 1678,
    "aro": 1679,
    "coli": 1680,
    "colui": 1681,
    "difen": 1682,
    "esa,": 1683,
    "feli": 1684,
    "facesse": 1685,
    "lio": 1686,
    "otto": 1687,
    "ricor": 1688,
    "ritorna": 1689,
    "tta,": 1690,
    "LXX": 1691,
    "ardi": 1692,
    "dili": 1693,
    "quanta": 1694,
    "que,": 1695,
    "speranza": 1696,
    "ucci": 1697,
    "Cesare": 1698,
    "bia": 1699,
    "conosci": 1700,
    "dona": 1701,
    "dori": 1702,
    "e’": 1703,
    "mag": 1704,
    "marche": 1705,
    "occu": 1706,
    "primi": 1707,
    "quad": 1708,
    "scor": 1709,
    "similmente": 1710,
    "Questa": 1711,
    "affa": 1712,
    "anno,": 1713,
    "nobili": 1714,
    "sicu": 1715,
    "truo": 1716,
    "vamo": 1717,
    "venuta": 1718,
    "è,": 1719,
    "cchia": 1720,
    "confor": 1721,
    "fanti": 1722,
    "letto": 1723,
    "mille": 1724,
    "negli": 1725,
    "Cam": 1726,
    "Monte": 1727,
    "alquanto": 1728,
    "gue": 1729,
    "pecca": 1730,
    "sosten": 1731,
    "zzo,": 1732,
    "),": 1733,
    "Pietro": 1734,
    "ato": 1735,
    "ezi": 1736,
    "essand": 1737,
    "necessi": 1738,
    "possa": 1739,
    "potu": 1740,
    "rata": 1741,
    "simile": 1742,
    "Cor": 1743,
    "Pro": 1744,
    "anni,": 1745,
    "ano.": 1746,
    "danari": 1747,
    "dere,": 1748,
    "eni": 1749,
    "morto": 1750,
    "pal": 1751,
    "tolo": 1752,
    "uto,": 1753,
    "vostro": 1754,
    "disi": 1755,
    "festa": 1756,
    "fecero": 1757,
    "gon": 1758,
    "governo": 1759,
    "niuno": 1760,
    "particola": 1761,
    "rea": 1762,
    "sarà": 1763,
    "stando": 1764,
    "                                ": 1765,
    "-.": 1766,
    "Alessand": 1767,
    "Com": 1768,
    "conveni": 1769,
    "desider": 1770,
    "diri": 1771,
    "lie": 1772,
    "nul": 1773,
    "quar": 1774,
    "ssi,": 1775,
    "ve,": 1776,
    "Ru": 1777,
    "Un": 1778,
    "aiuto": 1779,
    "cro": 1780,
    "gare": 1781,
    "quantità": 1782,
    "resta": 1783,
    "storia": 1784,
    "LI": 1785,
    "comanda": 1786,
    "pareva": 1787,
    "pena": 1788,
    "punto": 1789,
    "vato": 1790,
    "dipin": 1791,
    "infino": 1792,
    "oltra": 1793,
    "poss": 1794,
    "ridu": 1795,
    "riti": 1796,
    "tavo": 1797,
    "tenere": 1798,
    "voce": 1799,
    "Ber": 1800,
    "Fer": 1801,
    "menti,": 1802,
    "rio,": 1803,
    "sendo": 1804,
    "sette": 1805,
    "spesso": 1806,
    "ttura": 1807,
    "ti;": 1808,
    "tini,": 1809,
    "vera": 1810,
    "vare": 1811,
    "vergo": 1812,
    "via,": 1813,
    "Roma,": 1814,
    "att": 1815,
    "amma": 1816,
    "dia,": 1817,
    "diede": 1818,
    "hai": 1819,
    "infer": 1820,
    "perchè": 1821,
    "roman": 1822,
    "si.": 1823,
    "sov": 1824,
    "Egli": 1825,
    "Medici": 1826,
    "caso": 1827,
    "ent": 1828,
    "ina,": 1829,
    "mangi": 1830,
    "nè": 1831,
    "tá,": 1832,
    "AN": 1833,
    "ch'egli": 1834,
    "ch'io": 1835,
    "conf": 1836,
    "costo": 1837,
    "guardia": 1838,
    "veramente": 1839,
    "»,": 1840,
    "Onde": 1841,
    "cavallo": 1842,
    "gravi": 1843,
    "legge": 1844,
    "pru": 1845,
    "sua,": 1846,
    "Dio,": 1847,
    "accio": 1848,
    "caccia": 1849,
    "denza": 1850,
    "essino": 1851,
    "len": 1852,
    "nas": 1853,
    "ranno": 1854,
    "ssione": 1855,
    "zioni,": 1856,
    "Da": 1857,
    "Ger": 1858,
    "anima": 1859,
    "dano": 1860,
    "dor": 1861,
    "filo": 1862,
    "potre": 1863,
    "quin": 1864,
    "uoi": 1865,
    "Ed": 1866,
    "bisogna": 1867,
    "continua": 1868,
    "erebbe": 1869,
    "leci": 1870,
    "loro.": 1871,
    "monta": 1872,
    "persone": 1873,
    "poste": 1874,
    "resi": 1875,
    "sene": 1876,
    "ultima": 1877,
    "vennero": 1878,
    "vivere": 1879,
    "assal": 1880,
    "cie": 1881,
    "frate": 1882,
    "mali": 1883,
    "mise": 1884,
    "quan": 1885,
    "simili": 1886,
    "vinizi": 1887,
    "vien": 1888,
    "12": 1889,
    "bra": 1890,
    "cando": 1891,
    "cogno": 1892,
    "cosa,": 1893,
    "giá": 1894,
    "hi": 1895,
    "morti": 1896,
    "nello": 1897,
    "niuna": 1898,
    "opere": 1899,
    "provincia": 1900,
    "succ": 1901,
    "vel": 1902,
    "Piero": 1903,
    "archi": 1904,
    "bon": 1905,
    "cerca": 1906,
    "ga,": 1907,
    "maggiori": 1908,
    "memoria": 1909,
    "portano": 1910,
    "sac": 1911,
    "soldati": 1912,
    "\n\n  ": 1913,
    "Italia,": 1914,
    "VI": 1915,
    "arci": 1916,
    "buoni": 1917,
    "cordia": 1918,
    "dunque": 1919,
    "dicono": 1920,
    "finalmente": 1921,
    "glie,": 1922,
    "illu": 1923,
    "pone": 1924,
    "piccio": 1925,
    "que'": 1926,
    "ritra": 1927,
    "voleva": 1928,
    "Perché": 1929,
    "avessi": 1930,
    "cittá": 1931,
    "diverse": 1932,
    "gentiluo": 1933,
    "go,": 1934,
    "popoli": 1935,
    "proposi": 1936,
    "stò": 1937,
    "uman": 1938,
    "volesse": 1939,
    "are": 1940,
    "conser": 1941,
    "deci": 1942,
    "esem": 1943,
    "lesi": 1944,
    "nell’": 1945,
    "pr": 1946,
    "parte,": 1947,
    "poca": 1948,
    "santa": 1949,
    "vendo": 1950,
    "versa": 1951,
    "Bor": 1952,
    "Del": 1953,
    "Fili": 1954,
    "grave": 1955,
    "merc": 1956,
    "muta": 1957,
    "soc": 1958,
    "L'": 1959,
    "dieci": 1960,
    "ella,": 1961,
    "fatto,": 1962,
    "grandezza": 1963,
    "mano,": 1964,
    "mico": 1965,
    "poi,": 1966,
    "porto": 1967,
    "ssimo,": 1968,
    "·l": 1969,
    "Lor": 1970,
    "acce": 1971,
    "avano": 1972,
    "chiamano": 1973,
    "essono": 1974,
    "fanci": 1975,
    "forni": 1976,
    "intra": 1977,
    "l'anno": 1978,
    "miei": 1979,
    "mura": 1980,
    "paura": 1981,
    "richi": 1982,
    "stava": 1983,
    "viso": 1984,
    "zion": 1985,
    "\n\n    ": 1986,
    "aven": 1987,
    "bisogno": 1988,
    "chiara": 1989,
    "costui": 1990,
    "effetto": 1991,
    "erà": 1992,
    "fanciul": 1993,
    "fuoco": 1994,
    "materia": 1995,
    "religione": 1996,
    "tui": 1997,
    "uomini,": 1998,
    "camera": 1999,
    "desidera": 2000,
    "fati": 2001,
    "favore": 2002,
    "lina": 2003,
    "lmente": 2004,
    "matt": 2005,
    "potuto": 2006,
    "ri.": 2007,
    "solu": 2008,
    "virtú": 2009,
    "antica": 2010,
    "armi": 2011,
    "dotto": 2012,
    "licen": 2013,
    "ness": 2014,
    "nu": 2015,
    "rno": 2016,
    "signore,": 2017,
    "stante": 2018,
    "Milano,": 2019,
    "cipi": 2020,
    "colle": 2021,
    "degna": 2022,
    "ie": 2023,
    "mala": 2024,
    "migli": 2025,
    "porre": 2026,
    "tis": 2027,
    "vo,": 2028,
    "14": 2029,
    "costa": 2030,
    "diven": 2031,
    "essione": 2032,
    "marchese": 2033,
    "ogn": 2034,
    "passò": 2035,
    "passato": 2036,
    "spo": 2037,
    "sepol": 2038,
    "signoria": 2039,
    "stanza": 2040,
    "tener": 2041,
    "Filippo": 2042,
    "Ora": 2043,
    "XII": 2044,
    "colla": 2045,
    "credo": 2046,
    "dino": 2047,
    "gale": 2048,
    "lato": 2049,
    "mbar": 2050,
    "piedi": 2051,
    "quie": 2052,
    "testi": 2053,
    "ur": 2054,
    "Gui": 2055,
    "_CAP.": 2056,
    "conven": 2057,
    "endo,": 2058,
    "impresa": 2059,
    "inse": 2060,
    "l'animo": 2061,
    "sto,": 2062,
    "voglio": 2063,
    "voler": 2064,
    "Anton": 2065,
    "Messer": 2066,
    "Pre": 2067,
    "Pisa": 2068,
    "bile,": 2069,
    "cano": 2070,
    "esperi": 2071,
    "forze": 2072,
    "medesimi": 2073,
    "meno,": 2074,
    "nomina": 2075,
    "publica": 2076,
    "sapere": 2077,
    "voluto": 2078,
    "ER": 2079,
    "acca": 2080,
    "certa": 2081,
    "mondo,": 2082,
    "priva": 2083,
    "taglia": 2084,
    "utili": 2085,
    "viaggio": 2086,
    "vittoria": 2087,
    "volle": 2088,
    "Era": 2089,
    "Germani": 2090,
    "enza,": 2091,
    "fan": 2092,
    "l’impera": 2093,
    "miseri": 2094,
    "mul": 2095,
    "nemici": 2096,
    "partito": 2097,
    "qualunque": 2098,
    "risposta": 2099,
    "secon": 2100,
    "sia,": 2101,
    "varie": 2102,
    "venir": 2103,
    "».": 2104,
    "Andrea": 2105,
    "Fa": 2106,
    "baroni": 2107,
    "capp": 2108,
    "d'ogni": 2109,
    "dall'": 2110,
    "dica": 2111,
    "domin": 2112,
    "fare,": 2113,
    "gnuoli": 2114,
    "guada": 2115,
    "libera": 2116,
    "m,": 2117,
    "messe": 2118,
    "mesti": 2119,
    "oste": 2120,
    "passare": 2121,
    "rag": 2122,
    "sso,": 2123,
    "ta;": 2124,
    "uf": 2125,
    "’l": 2126,
    "----": 2127,
    "Fed": 2128,
    "Gre": 2129,
    "Nic": 2130,
    "V.": 2131,
    "certe": 2132,
    "ezian": 2133,
    "fri": 2134,
    "fratello": 2135,
    "inimici": 2136,
    "pieno": 2137,
    "quo": 2138,
    "rito": 2139,
    "seguente": 2140,
    "trovò": 2141,
    "vengono": 2142,
    "Inghilterra": 2143,
    "appar": 2144,
    "congre": 2145,
    "conti": 2146,
    "dolo": 2147,
    "dovesse": 2148,
    "elli,": 2149,
    "estre": 2150,
    "gine": 2151,
    "gento": 2152,
    "guerra,": 2153,
    "intendere": 2154,
    "legg": 2155,
    "rar": 2156,
    "sof": 2157,
    "tà.": 2158,
    "versi": 2159,
    "ban": 2160,
    "d'oro": 2161,
    "differ": 2162,
    "forti": 2163,
    "gato": 2164,
    "giudicio": 2165,
    "lare": 2166,
    "nota": 2167,
    "occasione": 2168,
    "onna": 2169,
    "parlare": 2170,
    "potendo": 2171,
    "tenuto": 2172,
    "Cap": 2173,
    "Gli": 2174,
    "Tosc": 2175,
    "assi": 2176,
    "avete": 2177,
    "bor": 2178,
    "cchio": 2179,
    "crudel": 2180,
    "ere.": 2181,
    "grado": 2182,
    "mare,": 2183,
    "opinione": 2184,
    "posti": 2185,
    "senten": 2186,
    "tto.": 2187,
    "vide": 2188,
    "volenti": 2189,
    "ELLA": 2190,
    "Spagna": 2191,
    "colò": 2192,
    "credere": 2193,
    "dava": 2194,
    "desiderio": 2195,
    "dinanzi": 2196,
    "dore,": 2197,
    "lagri": 2198,
    "mpi": 2199,
    "ragioni": 2200,
    "sono,": 2201,
    "tren": 2202,
    "termina": 2203,
    "Federi": 2204,
    "Napoli": 2205,
    "SI": 2206,
    "accre": 2207,
    "alloggia": 2208,
    "ambi": 2209,
    "comuni": 2210,
    "erro": 2211,
    "eziandio": 2212,
    "fama": 2213,
    "franze": 2214,
    "giustizia": 2215,
    "ia,": 2216,
    "manco": 2217,
    "Lombar": 2218,
    "Loren": 2219,
    "Por": 2220,
    "Santa": 2221,
    "altru": 2222,
    "ana,": 2223,
    "dito": 2224,
    "naturale": 2225,
    "necessario": 2226,
    "nimici": 2227,
    "sotti": 2228,
    "tengono": 2229,
    "tura,": 2230,
    "vile": 2231,
    "vostra": 2232,
    "Sim": 2233,
    "TE": 2234,
    "aco": 2235,
    "abbiamo": 2236,
    "amico": 2237,
    "degno": 2238,
    "eso": 2239,
    "fatica": 2240,
    "i.": 2241,
    "mandar": 2242,
    "nobile": 2243,
    "veggendo": 2244,
    "._": 2245,
    "13": 2246,
    "Terra": 2247,
    "battaglia": 2248,
    "cere": 2249,
    "continuo": 2250,
    "dà": 2251,
    "marito": 2252,
    "ple": 2253,
    "segno": 2254,
    "solleci": 2255,
    "Indiani": 2256,
    "altro,": 2257,
    "berto": 2258,
    "braccia": 2259,
    "cto": 2260,
    "dire,": 2261,
    "famiglia": 2262,
    "gi,": 2263,
    "maraviglio": 2264,
    "monte": 2265,
    "rov": 2266,
    "sangue": 2267,
    "\n                ": 2268,
    "Bu": 2269,
    "Cre": 2270,
    "conse": 2271,
    "date": 2272,
    "devano": 2273,
    "lavora": 2274,
    "nostre": 2275,
    "oper": 2276,
    "oro,": 2277,
    "scoper": 2278,
    "tana": 2279,
    "una,": 2280,
    "zio,": 2281,
    "CO": 2282,
    "Tartari": 2283,
    "alto": 2284,
    "arriva": 2285,
    "ddio": 2286,
    "dall’": 2287,
    "giorna": 2288,
    "l'i": 2289,
    "mone": 2290,
    "ritrova": 2291,
    "rispetto": 2292,
    "scere": 2293,
    "tava": 2294,
    "ultimo": 2295,
    "Man": 2296,
    "TA": 2297,
    "aman": 2298,
    "accompa": 2299,
    "campa": 2300,
    "chiu": 2301,
    "contrario": 2302,
    "difficul": 2303,
    "ggono": 2304,
    "libertà": 2305,
    "monio": 2306,
    "offen": 2307,
    "prendere": 2308,
    "qua,": 2309,
    "rom": 2310,
    "suo,": 2311,
    "uomo,": 2312,
    "Mich": 2313,
    "cce": 2314,
    "cele": 2315,
    "cità": 2316,
    "dea": 2317,
    "dirò": 2318,
    "diligen": 2319,
    "foresti": 2320,
    "invi": 2321,
    "l'una": 2322,
    "lati": 2323,
    "lau": 2324,
    "lo.": 2325,
    "poli,": 2326,
    "rap": 2327,
    "ragion": 2328,
    "rono,": 2329,
    "storie": 2330,
    "tte,": 2331,
    "vento": 2332,
    "Antonio": 2333,
    "Val": 2334,
    "_Come": 2335,
    "corona": 2336,
    "doni": 2337,
    "donne,": 2338,
    "eti": 2339,
    "facilmente": 2340,
    "ger": 2341,
    "glieri": 2342,
    "gnato": 2343,
    "itali": 2344,
    "mani,": 2345,
    "manif": 2346,
    "noti": 2347,
    "perdu": 2348,
    "presi": 2349,
    "riguar": 2350,
    "ricche": 2351,
    "stessa": 2352,
    "trenta": 2353,
    "vecchi": 2354,
    "Ara": 2355,
    "Ti": 2356,
    "apri": 2357,
    "arbo": 2358,
    "consu": 2359,
    "deliber": 2360,
    "dovi": 2361,
    "dominio": 2362,
    "età": 2363,
    "inti": 2364,
    "lasciò": 2365,
    "mente.": 2366,
    "piena": 2367,
    "poiché": 2368,
    "sse.": 2369,
    "tavola": 2370,
    "ture": 2371,
    "tuttavia": 2372,
    "venuti": 2373,
    "              ": 2374,
    "CI": 2375,
    "Fe": 2376,
    "carne": 2377,
    "conclu": 2378,
    "done": 2379,
    "impor": 2380,
    "ingan": 2381,
    "legato": 2382,
    "pron": 2383,
    "pigliare": 2384,
    "reame": 2385,
    "santo": 2386,
    "subi": 2387,
    "Iddio": 2388,
    "avessero": 2389,
    "donna,": 2390,
    "glio,": 2391,
    "inanzi": 2392,
    "mio,": 2393,
    "prati": 2394,
    "presto": 2395,
    "propria": 2396,
    "sè": 2397,
    "seconda": 2398,
    "tezza": 2399,
    "unque,": 2400,
    "vie": 2401,
    "AL": 2402,
    "Pu": 2403,
    "XVII": 2404,
    "________": 2405,
    "ari": 2406,
    "capitani": 2407,
    "dero": 2408,
    "dri": 2409,
    "dalli": 2410,
    "erò": 2411,
    "frati": 2412,
    "generale": 2413,
    "incon": 2414,
    "magi": 2415,
    "mattina": 2416,
    "minu": 2417,
    "obli": 2418,
    "person": 2419,
    "stanno": 2420,
    "trattato": 2421,
    "un’": 2422,
    "vergogna": 2423,
    "10": 2424,
    "Niccolò": 2425,
    "TI": 2426,
    "accon": 2427,
    "donde": 2428,
    "figure": 2429,
    "fuor": 2430,
    "gere": 2431,
    "gliar": 2432,
    "massime": 2433,
    "mesi": 2434,
    "parendo": 2435,
    "pensando": 2436,
    "perfe": 2437,
    "proprio": 2438,
    "sodis": 2439,
    "stette": 2440,
    "sulla": 2441,
    "tina": 2442,
    "vetto": 2443,
    "Santi": 2444,
    "Tur": 2445,
    "Vene": 2446,
    "ago": 2447,
    "appare": 2448,
    "cch": 2449,
    "coper": 2450,
    "collo": 2451,
    "debo": 2452,
    "dile": 2453,
    "dolce": 2454,
    "fussi": 2455,
    "ivi": 2456,
    "lan": 2457,
    "massimamente": 2458,
    "niente": 2459,
    "noi,": 2460,
    "pla": 2461,
    "puo": 2462,
    "stato,": 2463,
    "stima": 2464,
    "Cai": 2465,
    "Maes": 2466,
    "Romani": 2467,
    "altra,": 2468,
    "cinquanta": 2469,
    "difficol": 2470,
    "ecclesi": 2471,
    "legati": 2472,
    "meni": 2473,
    "mostrando": 2474,
    "ordin": 2475,
    "potevano": 2476,
    "trovato": 2477,
    "var": 2478,
    "vicino": 2479,
    "Bo": 2480,
    "Can": 2481,
    "Cast": 2482,
    "Pisani": 2483,
    "Pisto": 2484,
    "Te": 2485,
    "animali": 2486,
    "cata": 2487,
    "cammino": 2488,
    "dissero": 2489,
    "diceva": 2490,
    "ini,": 2491,
    "ingegno": 2492,
    "madre": 2493,
    "mas": 2494,
    "modo,": 2495,
    "nulla": 2496,
    "occupa": 2497,
    "padr": 2498,
    "possibile": 2499,
    "rate": 2500,
    "raccon": 2501,
    "scrivere": 2502,
    "sic": 2503,
    "th": 2504,
    "teso": 2505,
    "tiene": 2506,
    "tocca": 2507,
    "vò": 2508,
    "vuole": 2509,
    "'n": 2510,
    "Bologna": 2511,
    "Nella": 2512,
    "Santo": 2513,
    "Vostra": 2514,
    "andando": 2515,
    "bbio": 2516,
    "cinquecento": 2517,
    "consider": 2518,
    "costumi": 2519,
    "filoso": 2520,
    "giovani": 2521,
    "gola": 2522,
    "messi": 2523,
    "nono": 2524,
    "pontefice,": 2525,
    "riputa": 2526,
    "saper": 2527,
    "scal": 2528,
    "segre": 2529,
    "stavano": 2530,
    "tate": 2531,
    "tiran": 2532,
    "tribu": 2533,
    "ubbi": 2534,
    "utile": 2535,
    "vere,": 2536,
    "vettova": 2537,
    "zo,": 2538,
    "Cal": 2539,
    "Cap.": 2540,
    "andava": 2541,
    "ciascuna": 2542,
    "costoro": 2543,
    "cusa": 2544,
    "dio,": 2545,
    "divina": 2546,
    "domanda": 2547,
    "ebbono": 2548,
    "est": 2549,
    "facevano": 2550,
    "fonda": 2551,
    "gati": 2552,
    "gion": 2553,
    "gnere": 2554,
    "incontro": 2555,
    "lora": 2556,
    "nuove": 2557,
    "otti": 2558,
    "ono,": 2559,
    "quante": 2560,
    "sini": 2561,
    "strin": 2562,
    "terzo": 2563,
    "trovar": 2564,
    "trovare": 2565,
    "une,": 2566,
    "”.": 2567,
    "Baccio": 2568,
    "Cer": 2569,
    "Lodovi": 2570,
    "Mala": 2571,
    "RO": 2572,
    "alta": 2573,
    "bocca": 2574,
    "canto": 2575,
    "colpa": 2576,
    "cominciarono": 2577,
    "correre": 2578,
    "dee": 2579,
    "dimanda": 2580,
    "inteso": 2581,
    "levò": 2582,
    "passi": 2583,
    "parole,": 2584,
    "posse": 2585,
    "postoli": 2586,
    "provi": 2587,
    "spen": 2588,
    "salvo": 2589,
    "sup": 2590,
    "trovano": 2591,
    "uso": 2592,
    "voi,": 2593,
    "Im": 2594,
    "cco": 2595,
    "cau": 2596,
    "cardinali": 2597,
    "cielo": 2598,
    "congiun": 2599,
    "condotto": 2600,
    "conosce": 2601,
    "debb": 2602,
    "effe": 2603,
    "gando": 2604,
    "gl’": 2605,
    "gente,": 2606,
    "gloria": 2607,
    "imperio": 2608,
    "mpa": 2609,
    "mità": 2610,
    "mo.": 2611,
    "mostrò": 2612,
    "overo": 2613,
    "palazzo": 2614,
    "piè": 2615,
    "rini": 2616,
    "sentendo": 2617,
    "17": 2618,
    "Peru": 2619,
    "ati": 2620,
    "atto": 2621,
    "abband": 2622,
    "acque": 2623,
    "bru": 2624,
    "ch'era": 2625,
    "duoi": 2626,
    "d'ar": 2627,
    "degni": 2628,
    "dipoi": 2629,
    "gata": 2630,
    "igno": 2631,
    "inc": 2632,
    "ingiu": 2633,
    "lino": 2634,
    "potest": 2635,
    "pratica": 2636,
    "spese": 2637,
    "spiri": 2638,
    "ssima,": 2639,
    "tran": 2640,
    "tata": 2641,
    "tue": 2642,
    "vero,": 2643,
    "volentieri": 2644,
    "Alessandro": 2645,
    "MO": 2646,
    "Su": 2647,
    "Ungh": 2648,
    "Ven": 2649,
    "bio": 2650,
    "bello": 2651,
    "bellezza": 2652,
    "casa,": 2653,
    "ch'è": 2654,
    "cittadini,": 2655,
    "da’": 2656,
    "egli,": 2657,
    "gazione": 2658,
    "gia,": 2659,
    "giorno,": 2660,
    "imperi": 2661,
    "levan": 2662,
    "nasce": 2663,
    "ona,": 2664,
    "perare": 2665,
    "pi,": 2666,
    "ponti": 2667,
    "prote": 2668,
    "quant": 2669,
    "raccol": 2670,
    "rina": 2671,
    "scel": 2672,
    "sep": 2673,
    "ster": 2674,
    "ved": 2675,
    "vicini": 2676,
    "volontà": 2677,
    "Giuli": 2678,
    "Nostra": 2679,
    "Quando": 2680,
    "acopo": 2681,
    "aff": 2682,
    "andarono": 2683,
    "besti": 2684,
    "bene,": 2685,
    "cche": 2686,
    "cesso": 2687,
    "credi": 2688,
    "cuore": 2689,
    "disor": 2690,
    "difesa": 2691,
    "figliuola": 2692,
    "gentili": 2693,
    "grande,": 2694,
    "it": 2695,
    "mbre": 2696,
    "mercatan": 2697,
    "nati": 2698,
    "rato,": 2699,
    "ricchi": 2700,
    "rico": 2701,
    "s'è": 2702,
    "succe": 2703,
    "tedes": 2704,
    "tornò": 2705,
    "univer": 2706,
    "venendo": 2707,
    "Eu": 2708,
    "Pisa,": 2709,
    "Poi": 2710,
    "Tra": 2711,
    "a;": 2712,
    "circon": 2713,
    "copia": 2714,
    "conoscere": 2715,
    "dem": 2716,
    "diffici": 2717,
    "figliuolo,": 2718,
    "impedi": 2719,
    "insieme,": 2720,
    "lettera": 2721,
    "mangiare": 2722,
    "osserva": 2723,
    "panni": 2724,
    "paesi": 2725,
    "perpe": 2726,
    "sospetto": 2727,
    "vogliono": 2728,
    "Genova": 2729,
    "Manto": 2730,
    "autorità": 2731,
    "basti": 2732,
    "chiamata": 2733,
    "digni": 2734,
    "esse,": 2735,
    "fussero": 2736,
    "galee": 2737,
    "gonfal": 2738,
    "imag": 2739,
    "lasciando": 2740,
    "manca": 2741,
    "mane": 2742,
    "marmo": 2743,
    "moltitudine": 2744,
    "nei": 2745,
    "otten": 2746,
    "parl": 2747,
    "passar": 2748,
    "pensieri": 2749,
    "prigione": 2750,
    "quella,": 2751,
    "regni": 2752,
    "ricevuto": 2753,
    "rimase": 2754,
    "tenne": 2755,
    "teneva": 2756,
    "tradi": 2757,
    "vescovi": 2758,
    "Bianci": 2759,
    "Biancifio": 2760,
    "DE": 2761,
    "IL": 2762,
    "Lodovico": 2763,
    "accordo": 2764,
    "averebbe": 2765,
    "banda": 2766,
    "degl'": 2767,
    "diser": 2768,
    "eccellenti": 2769,
    "eschi": 2770,
    "famo": 2771,
    "imperadore": 2772,
    "medi": 2773,
    "mercatanti": 2774,
    "misu": 2775,
    "minore": 2776,
    "nato": 2777,
    "nuovi": 2778,
    "ones": 2779,
    "peti": 2780,
    "potenti": 2781,
    "rivol": 2782,
    "rispose:": 2783,
    "sali": 2784,
    "sieno": 2785,
    "sé,": 2786,
    "tras": 2787,
    "trava": 2788,
    "ttori": 2789,
    "vita,": 2790,
    "vità": 2791,
    ".\"": 2792,
    "Comune": 2793,
    "Flo": 2794,
    "Maria": 2795,
    "NOV": 2796,
    "Spagnuoli": 2797,
    "aiuta": 2798,
    "cara": 2799,
    "conver": 2800,
    "deve": 2801,
    "dubbio": 2802,
    "ggio,": 2803,
    "ino.": 2804,
    "mò": 2805,
    "monti": 2806,
    "ppa": 2807,
    "padre,": 2808,
    "parve": 2809,
    "plebe": 2810,
    "quello,": 2811,
    "santi": 2812,
    "schia": 2813,
    "successo": 2814,
    "tano,": 2815,
    "tria": 2816,
    "te;": 2817,
    "termine": 2818,
    "velo": 2819,
    "vuol": 2820,
    "\n      ": 2821,
    "16": 2822,
    "Ghi": 2823,
    "Questi": 2824,
    "atte": 2825,
    "accen": 2826,
    "appo": 2827,
    "basso": 2828,
    "bili,": 2829,
    "cti": 2830,
    "com'": 2831,
    "deri": 2832,
    "dò": 2833,
    "ecce": 2834,
    "fred": 2835,
    "gio,": 2836,
    "l'anima": 2837,
    "lontano": 2838,
    "movi": 2839,
    "nelli": 2840,
    "novella": 2841,
    "paese,": 2842,
    "popolo,": 2843,
    "stanti": 2844,
    "Duca": 2845,
    "Ga": 2846,
    "IO": 2847,
    "MA": 2848,
    "MCC": 2849,
    "Papa": 2850,
    "acqua,": 2851,
    "affe": 2852,
    "bus": 2853,
    "catti": 2854,
    "cca,": 2855,
    "consue": 2856,
    "danari,": 2857,
    "decre": 2858,
    "died": 2859,
    "dita": 2860,
    "dodici": 2861,
    "gin": 2862,
    "getta": 2863,
    "gnolo": 2864,
    "guarda": 2865,
    "lazione": 2866,
    "le.": 2867,
    "luogo,": 2868,
    "moto": 2869,
    "ognuno": 2870,
    "sará": 2871,
    "spesse": 2872,
    "trovarono": 2873,
    "tum": 2874,
    "turba": 2875,
    "usc": 2876,
    "veniva": 2877,
    "B>": 2878,
    "Bologna,": 2879,
    "EN": 2880,
    "Ferra": 2881,
    "Mosco": 2882,
    "Pari": 2883,
    "Sua": 2884,
    "ab": 2885,
    "aggiun": 2886,
    "autoritá": 2887,
    "conto": 2888,
    "dura": 2889,
    "intro": 2890,
    "lasciato": 2891,
    "magnifi": 2892,
    "orono": 2893,
    "scio": 2894,
    "stretto": 2895,
    "suddi": 2896,
    "t’": 2897,
    "talmente": 2898,
    "vizz": 2899,
    "\n                   ": 2900,
    "DO": 2901,
    "El": 2902,
    "Mu": 2903,
    "XI": 2904,
    "ara": 2905,
    "acc": 2906,
    "animi": 2907,
    "avven": 2908,
    "bbe,": 2909,
    "cate": 2910,
    "caro": 2911,
    "castello,": 2912,
    "contino": 2913,
    "dde": 2914,
    "dizione": 2915,
    "ecclesiasti": 2916,
    "frutti": 2917,
    "gendo": 2918,
    "inna": 2919,
    "l'acqua": 2920,
    "mezo": 2921,
    "occi": 2922,
    "offer": 2923,
    "paci": 2924,
    "pittu": 2925,
    "potrebbe": 2926,
    "prender": 2927,
    "resto": 2928,
    "s'era": 2929,
    "sacri": 2930,
    "stran": 2931,
    "Be": 2932,
    "Chiesa,": 2933,
    "Egi": 2934,
    "IN": 2935,
    "Tor": 2936,
    "Vine": 2937,
    "atti": 2938,
    "alti": 2939,
    "altrui": 2940,
    "ambasciadori": 2941,
    "andavano": 2942,
    "avvi": 2943,
    "barba": 2944,
    "bian": 2945,
    "cacci": 2946,
    "continu": 2947,
    "cum": 2948,
    "discor": 2949,
    "disegno": 2950,
    "ebbero": 2951,
    "eroi": 2952,
    "felice": 2953,
    "figura": 2954,
    "fiorentini": 2955,
    "ghi,": 2956,
    "guerre": 2957,
    "mettendo": 2958,
    "nac": 2959,
    "puni": 2960,
    "peni": 2961,
    "piano": 2962,
    "rai": 2963,
    "sogliono": 2964,
    "sta,": 2965,
    "terren": 2966,
    "ttore": 2967,
    "verità": 2968,
    "Cesare,": 2969,
    "Er": 2970,
    "Lorenzo": 2971,
    "Tri": 2972,
    "Ugo": 2973,
    "ag": 2974,
    "affer": 2975,
    "arcivescovo": 2976,
    "avvenne": 2977,
    "breve": 2978,
    "buone": 2979,
    "cchie": 2980,
    "cesi": 2981,
    "cerdo": 2982,
    "combattere": 2983,
    "congiu": 2984,
    "concilio,": 2985,
    "debbe": 2986,
    "dienza": 2987,
    "dipinse": 2988,
    "dormi": 2989,
    "esercito,": 2990,
    "farlo": 2991,
    "l'ordine": 2992,
    "la.": 2993,
    "matri": 2994,
    "nol": 2995,
    "nove": 2996,
    "ov": 2997,
    "paga": 2998,
    "promesso": 2999,
    "quest'": 3000,
    "rimedio": 3001,
    "sale": 3002,
    "sacerdo": 3003,
    "salute": 3004,
    "siamo": 3005,
    "timore": 3006,
    "tori,": 3007,
    "torre": 3008,
    "tramon": 3009,
    "umani": 3010,
    "valoro": 3011,
    "vente": 3012,
    "venisse": 3013,
    "volmente": 3014,
    "\".": 3015,
    "Vis": 3016,
    "almeno": 3017,
    "app": 3018,
    "colo,": 3019,
    "cotal": 3020,
    "comm": 3021,
    "discre": 3022,
    "dott": 3023,
    "dover": 3024,
    "gano": 3025,
    "guisa": 3026,
    "lani": 3027,
    "magistra": 3028,
    "mia,": 3029,
    "patri": 3030,
    "peroc": 3031,
    "port": 3032,
    "presenza": 3033,
    "rovina": 3034,
    "solen": 3035,
    "sonno": 3036,
    "vanti": 3037,
    "Gior": 3038,
    "Mori": 3039,
    "Medici,": 3040,
    "NOVELLA": 3041,
    "avar": 3042,
    "boni": 3043,
    "cammin": 3044,
    "cheri": 3045,
    "co.": 3046,
    "cogli": 3047,
    "cole": 3048,
    "corpi": 3049,
    "crea": 3050,
    "doppo": 3051,
    "dí,": 3052,
    "fussino": 3053,
    "gelo": 3054,
    "l'esercito": 3055,
    "lagrime": 3056,
    "loro;": 3057,
    "papa,": 3058,
    "parlar": 3059,
    "partì": 3060,
    "posso": 3061,
    "portar": 3062,
    "presono": 3063,
    "prima,": 3064,
    "prova": 3065,
    "quaranta": 3066,
    "sapendo": 3067,
    "stabili": 3068,
    "suoi,": 3069,
    "tosi": 3070,
    "usano": 3071,
    "virtuo": 3072,
    "vole,": 3073,
    "vorre": 3074,
    "Bre": 3075,
    "Fece": 3076,
    "Fiorentini,": 3077,
    "Giulio": 3078,
    "L’": 3079,
    "Raffa": 3080,
    "abitatori": 3081,
    "allegre": 3082,
    "assali": 3083,
    "concor": 3084,
    "disa": 3085,
    "dolore": 3086,
    "e.": 3087,
    "elle,": 3088,
    "enze": 3089,
    "entrare": 3090,
    "ffa": 3091,
    "ghezza": 3092,
    "governatore": 3093,
    "grati": 3094,
    "grazio": 3095,
    "ito": 3096,
    "li.": 3097,
    "lungamente": 3098,
    "mandarono": 3099,
    "mostrare": 3100,
    "nave": 3101,
    "novelle": 3102,
    "piazza": 3103,
    "piccolo": 3104,
    "preda": 3105,
    "qualità": 3106,
    "quantunque": 3107,
    "riamente": 3108,
    "sera": 3109,
    "spar": 3110,
    "se'": 3111,
    "secre": 3112,
    "sommo": 3113,
    "tino,": 3114,
    "zze,": 3115,
    "Allora": 3116,
    "Cle": 3117,
    "Fiorenza": 3118,
    "Genove": 3119,
    "Germania": 3120,
    "Iacopo": 3121,
    "Ol": 3122,
    "Ter": 3123,
    "Ur": 3124,
    "avi": 3125,
    "accetta": 3126,
    "addo": 3127,
    "amoro": 3128,
    "assai,": 3129,
    "avuta": 3130,
    "bast": 3131,
    "braccio": 3132,
    "cati": 3133,
    "confini": 3134,
    "dimora": 3135,
    "doveva": 3136,
    "esecu": 3137,
    "farsi": 3138,
    "franzesi": 3139,
    "gnendo": 3140,
    "gnò": 3141,
    "levar": 3142,
    "n'andò": 3143,
    "necessità": 3144,
    "nessuno": 3145,
    "padri": 3146,
    "pericoli": 3147,
    "potea": 3148,
    "prece": 3149,
    "roni": 3150,
    "romano": 3151,
    "sala": 3152,
    "terza": 3153,
    "zione;": 3154,
    "...": 3155,
    "Disse": 3156,
    "Napoli,": 3157,
    "Quivi": 3158,
    "Vol": 3159,
    "abbon": 3160,
    "alo": 3161,
    "appari": 3162,
    "battu": 3163,
    "cavaliere": 3164,
    "d'esser": 3165,
    "dapoi": 3166,
    "davano": 3167,
    "dui": 3168,
    "estra": 3169,
    "essi,": 3170,
    "ffi": 3171,
    "fren": 3172,
    "facili": 3173,
    "ghe,": 3174,
    "giovine": 3175,
    "gonfaloni": 3176,
    "l'amore": 3177,
    "lasciare": 3178,
    "lui.": 3179,
    "maraviglia": 3180,
    "mendo": 3181,
    "nocen": 3182,
    "ordini": 3183,
    "passo": 3184,
    "pesce": 3185,
    "potenza": 3186,
    "promessa": 3187,
    "ricer": 3188,
    "ripo": 3189,
    "sano": 3190,
    "sapeva": 3191,
    "sioni": 3192,
    "signora": 3193,
    "sop": 3194,
    "tere": 3195,
    "tenendo": 3196,
    "tter": 3197,
    "umi": 3198,
    "vecchio": 3199,
    "veduta": 3200,
    "viva": 3201,
    "Della": 3202,
    "Dopo": 3203,
    "LO": 3204,
    "Mor": 3205,
    "Pon": 3206,
    "Salv": 3207,
    "avan": 3208,
    "batte": 3209,
    "bell": 3210,
    "cala": 3211,
    "ch'erano": 3212,
    "commi": 3213,
    "consenti": 3214,
    "conserva": 3215,
    "contento": 3216,
    "credendo": 3217,
    "cristiani,": 3218,
    "d'oro,": 3219,
    "elo,": 3220,
    "ena,": 3221,
    "entro": 3222,
    "espu": 3223,
    "fero": 3224,
    "fame": 3225,
    "fiumi": 3226,
    "fuori,": 3227,
    "iu": 3228,
    "l'A": 3229,
    "lume": 3230,
    "nomi": 3231,
    "nondimeno,": 3232,
    "onna,": 3233,
    "ordinato": 3234,
    "pace,": 3235,
    "patria": 3236,
    "perdere": 3237,
    "pigliar": 3238,
    "proposito": 3239,
    "ragionamenti": 3240,
    "river": 3241,
    "sconfi": 3242,
    "scono": 3243,
    "sfor": 3244,
    "salva": 3245,
    "signifi": 3246,
    "studio": 3247,
    "tanto,": 3248,
    "truova": 3249,
    "villa": 3250,
    "viniziani": 3251,
    "Bernar": 3252,
    "Ess": 3253,
    "Mad": 3254,
    "Par": 3255,
    "Sono": 3256,
    "Vinizi": 3257,
    "adietro": 3258,
    "aria": 3259,
    "ascol": 3260,
    "cendo": 3261,
    "camp": 3262,
    "città.": 3263,
    "ciò,": 3264,
    "diligenza": 3265,
    "fron": 3266,
    "fabb": 3267,
    "frutto": 3268,
    "fuora": 3269,
    "legna": 3270,
    "lontan": 3271,
    "miglior": 3272,
    "migliore": 3273,
    "morte,": 3274,
    "muro": 3275,
    "narra": 3276,
    "ne’": 3277,
    "nobil": 3278,
    "notte,": 3279,
    "parti,": 3280,
    "pesci": 3281,
    "poe": 3282,
    "portato": 3283,
    "principali": 3284,
    "rá": 3285,
    "rever": 3286,
    "riceve": 3287,
    "so.": 3288,
    "tale,": 3289,
    "tra'": 3290,
    "tá.": 3291,
    "ut": 3292,
    "Marco": 3293,
    "Tren": 3294,
    "Urb": 3295,
    "XL": 3296,
    "altrimenti": 3297,
    "appa": 3298,
    "bellissimo": 3299,
    "cali": 3300,
    "certamente": 3301,
    "conviene": 3302,
    "cortegi": 3303,
    "descri": 3304,
    "dissi": 3305,
    "ersi": 3306,
    "eria,": 3307,
    "fabri": 3308,
    "fuoco,": 3309,
    "gal": 3310,
    "gagliar": 3311,
    "gentiluomini": 3312,
    "gnifica": 3313,
    "istesso": 3314,
    "inclina": 3315,
    "innamo": 3316,
    "line": 3317,
    "lei,": 3318,
    "maggiore,": 3319,
    "menta": 3320,
    "ne,": 3321,
    "parea": 3322,
    "partita": 3323,
    "pensiero": 3324,
    "pietra": 3325,
    "porti": 3326,
    "posero": 3327,
    "procura": 3328,
    "prof": 3329,
    "republica": 3330,
    "rono.": 3331,
    "scul": 3332,
    "separa": 3333,
    "sempli": 3334,
    "simo": 3335,
    "ttero": 3336,
    "ucc": 3337,
    "usanza": 3338,
    "Lombardia": 3339,
    "RA": 3340,
    "accompagna": 3341,
    "ambasciatori": 3342,
    "armata": 3343,
    "avrebbe": 3344,
    "boc": 3345,
    "ccio,": 3346,
    "co’": 3347,
    "colori": 3348,
    "contado": 3349,
    "determina": 3350,
    "deliberò": 3351,
    "dice,": 3352,
    "eg": 3353,
    "eccellente": 3354,
    "esempio": 3355,
    "fortezza": 3356,
    "fosse,": 3357,
    "genera": 3358,
    "grossa": 3359,
    "igi": 3360,
    "impre": 3361,
    "imperatore": 3362,
    "lasciar": 3363,
    "mbo": 3364,
    "mes": 3365,
    "misero": 3366,
    "moglie,": 3367,
    "parenti": 3368,
    "popu": 3369,
    "potrà": 3370,
    "reina": 3371,
    "ritorno": 3372,
    "spera": 3373,
    "seguita": 3374,
    "sepoltura": 3375,
    "sicura": 3376,
    "som": 3377,
    "soccorso": 3378,
    "sorti": 3379,
    "tiranni": 3380,
    "to:": 3381,
    "uta,": 3382,
    "vedeva": 3383,
    "vi.": 3384,
    "zii": 3385,
    "à,": 3386,
    "Gal": 3387,
    "Però": 3388,
    "amba": 3389,
    "ammira": 3390,
    "ammazz": 3391,
    "arono,": 3392,
    "cappella": 3393,
    "continuamente": 3394,
    "coste": 3395,
    "crede": 3396,
    "eletto": 3397,
    "enti,": 3398,
    "eri.": 3399,
    "etá": 3400,
    "favori": 3401,
    "fine,": 3402,
    "frica": 3403,
    "gò": 3404,
    "giudici": 3405,
    "glorio": 3406,
    "medesimo,": 3407,
    "miglia,": 3408,
    "mosso": 3409,
    "morire": 3410,
    "nazioni": 3411,
    "pietre": 3412,
    "principale": 3413,
    "produ": 3414,
    "provincie": 3415,
    "ricever": 3416,
    "rotta": 3417,
    "rub": 3418,
    "sch": 3419,
    "sani,": 3420,
    "scritte": 3421,
    "siccome": 3422,
    "tempi,": 3423,
    "usciti": 3424,
    "vendetta": 3425,
    "vitu": 3426,
    "\n\n     ": 3427,
    "30": 3428,
    "Arabi": 3429,
    "Cali": 3430,
    "Cas": 3431,
    "Ser": 3432,
    "Tro": 3433,
    "X.": 3434,
    "XC": 3435,
    "apostoli": 3436,
    "arme,": 3437,
    "avre": 3438,
    "bellissima": 3439,
    "beneficio": 3440,
    "cavalli,": 3441,
    "cogni": 3442,
    "dessero": 3443,
    "difficultà": 3444,
    "dispera": 3445,
    "dugento": 3446,
    "egu": 3447,
    "entrò": 3448,
    "eran": 3449,
    "fresco": 3450,
    "fuggire": 3451,
    "gitta": 3452,
    "iddi": 3453,
    "infiniti": 3454,
    "l'isola": 3455,
    "l'arti": 3456,
    "lari": 3457,
    "n’": 3458,
    "particolar": 3459,
    "pero": 3460,
    "persona,": 3461,
    "potessero": 3462,
    "potente": 3463,
    "ritornò": 3464,
    "scia": 3465,
    "sogge": 3466,
    "termini": 3467,
    "tira": 3468,
    "ttando": 3469,
    "tutti,": 3470,
    "vale": 3471,
    "veggono": 3472,
    "Av": 3473,
    "Essendo": 3474,
    "Filo": 3475,
    "NA": 3476,
    "Navar": 3477,
    "Pau": 3478,
    "Voi": 3479,
    "abito": 3480,
    "alcuno,": 3481,
    "apparecchia": 3482,
    "artefici": 3483,
    "ch'ella": 3484,
    "ciascun": 3485,
    "consiglio,": 3486,
    "consuma": 3487,
    "de.": 3488,
    "diminu": 3489,
    "dovere": 3490,
    "fante": 3491,
    "fiorini": 3492,
    "fui": 3493,
    "geli": 3494,
    "gr": 3495,
    "giovane,": 3496,
    "gnare": 3497,
    "imperadore,": 3498,
    "mbe": 3499,
    "manifes": 3500,
    "mettono": 3501,
    "molti,": 3502,
    "notizia": 3503,
    "oppo": 3504,
    "passati": 3505,
    "piacque": 3506,
    "portava": 3507,
    "prete": 3508,
    "presenti": 3509,
    "render": 3510,
    "rie,": 3511,
    "romani": 3512,
    "svizz": 3513,
    "sapu": 3514,
    "satis": 3515,
    "ssimi,": 3516,
    "t.": 3517,
    "tamente,": 3518,
    "teme": 3519,
    "tile": 3520,
    "udito": 3521,
    "vedi": 3522,
    "vista": 3523,
    "vive": 3524,
    "volte,": 3525,
    "19": 3526,
    "20": 3527,
    "3.": 3528,
    "Bal": 3529,
    "Cu": 3530,
    "Cardin": 3531,
    "Cosí": 3532,
    "Ferdin": 3533,
    "Michela": 3534,
    "Montezu": 3535,
    "Sof": 3536,
    "XV": 3537,
    "atta": 3538,
    "alquanti": 3539,
    "capito": 3540,
    "centro": 3541,
    "concordia": 3542,
    "condotta": 3543,
    "d'arme": 3544,
    "d'uno": 3545,
    "darsi": 3546,
    "deliberato": 3547,
    "dotti": 3548,
    "ducato": 3549,
    "eter": 3550,
    "edifica": 3551,
    "fa,": 3552,
    "fargli": 3553,
    "gl'Indiani": 3554,
    "illo": 3555,
    "imbascia": 3556,
    "infi": 3557,
    "infinite": 3558,
    "innanzi,": 3559,
    "iore": 3560,
    "l'altro,": 3561,
    "mandando": 3562,
    "mandati": 3563,
    "misera": 3564,
    "os": 3565,
    "ordine,": 3566,
    "perio": 3567,
    "perse": 3568,
    "piacevole": 3569,
    "piccola": 3570,
    "pubblica": 3571,
    "rlo": 3572,
    "re:": 3573,
    "rendere": 3574,
    "sche": 3575,
    "savio": 3576,
    "scrisse": 3577,
    "sur": 3578,
    "tanente": 3579,
    "titolo": 3580,
    "udendo": 3581,
    "vela": 3582,
    "vano.": 3583,
    "vili": 3584,
    "\n              ": 3585,
    "\n     ": 3586,
    "Bene": 3587,
    "III": 3588,
    "Inghilterra,": 3589,
    "Ne": 3590,
    "Perciò": 3591,
    "Venezi": 3592,
    "andasse": 3593,
    "ani.": 3594,
    "argo": 3595,
    "assicura": 3596,
    "cavalieri,": 3597,
    "comandò": 3598,
    "compi": 3599,
    "conoscendo": 3600,
    "corse": 3601,
    "davanti": 3602,
    "dità": 3603,
    "eccetto": 3604,
    "entrata": 3605,
    "essioni": 3606,
    "flu": 3607,
    "gini": 3608,
    "gioven": 3609,
    "giorni,": 3610,
    "grossi": 3611,
    "immag": 3612,
    "infra": 3613,
    "intelle": 3614,
    "intenzione": 3615,
    "lli": 3616,
    "media": 3617,
    "meo": 3618,
    "medesime": 3619,
    "ost": 3620,
    "occul": 3621,
    "poni": 3622,
    "povero": 3623,
    "portò": 3624,
    "quell'": 3625,
    "ribu": 3626,
    "rum": 3627,
    "scon": 3628,
    "saranno": 3629,
    "scriver": 3630,
    "signori,": 3631,
    "stantino": 3632,
    "tu,": 3633,
    "ugu": 3634,
    "uti,": 3635,
    "vali": 3636,
    "v'è": 3637,
    "varii": 3638,
    "zzi,": 3639,
    "ì,": 3640,
    "Casti": 3641,
    "Calicu": 3642,
    "Donna": 3643,
    "ES": 3644,
    "Federigo": 3645,
    "Go": 3646,
    "Matte": 3647,
    "Nuo": 3648,
    "Spagna,": 3649,
    "adunque,": 3650,
    "ancora,": 3651,
    "ardo": 3652,
    "arro": 3653,
    "bro": 3654,
    "batti": 3655,
    "cel": 3656,
    "catto": 3657,
    "cavallo,": 3658,
    "chiaro": 3659,
    "cora": 3660,
    "confe": 3661,
    "confu": 3662,
    "corte,": 3663,
    "costume": 3664,
    "danza": 3665,
    "d'aver": 3666,
    "d'intorno": 3667,
    "dente,": 3668,
    "dicendo:": 3669,
    "disse,": 3670,
    "ducati": 3671,
    "edifi": 3672,
    "espe": 3673,
    "fasti": 3674,
    "farne": 3675,
    "fede,": 3676,
    "forza,": 3677,
    "fortuna,": 3678,
    "ggere": 3679,
    "giuo": 3680,
    "grandi,": 3681,
    "llo": 3682,
    "l'al": 3683,
    "l'autori": 3684,
    "male,": 3685,
    "maravigli": 3686,
    "mezzo,": 3687,
    "minori": 3688,
    "molto,": 3689,
    "nazione": 3690,
    "nimico": 3691,
    "occhio": 3692,
    "ordinò": 3693,
    "prelati": 3694,
    "seguire": 3695,
    "sicur": 3696,
    "sopra,": 3697,
    "speci": 3698,
    "spezi": 3699,
    "suppli": 3700,
    "tario": 3701,
    "tenuti": 3702,
    "ttò": 3703,
    "tutto,": 3704,
    "vino": 3705,
    "vasi": 3706,
    "volse": 3707,
    "Ap": 3708,
    "Ben": 3709,
    "Baio": 3710,
    "Colon": 3711,
    "Fra": 3712,
    "Fiand": 3713,
    "ZI": 3714,
    "auto": 3715,
    "abitano": 3716,
    "archite": 3717,
    "artiglieri": 3718,
    "avver": 3719,
    "cella": 3720,
    "cagioni": 3721,
    "carono": 3722,
    "cercando": 3723,
    "ch’era": 3724,
    "colore": 3725,
    "contrario,": 3726,
    "correndo": 3727,
    "duo": 3728,
    "debi": 3729,
    "difficile": 3730,
    "difficoltà": 3731,
    "epi": 3732,
    "elfi": 3733,
    "eravi": 3734,
    "etiam": 3735,
    "fatiche": 3736,
    "fermo": 3737,
    "ferire": 3738,
    "gentile": 3739,
    "giunto": 3740,
    "gradi": 3741,
    "grosse": 3742,
    "inare": 3743,
    "l'arte": 3744,
    "levante": 3745,
    "mbra": 3746,
    "peggio": 3747,
    "pensare": 3748,
    "persua": 3749,
    "portare": 3750,
    "resist": 3751,
    "seguendo": 3752,
    "sore": 3753,
    "steri": 3754,
    "togli": 3755,
    "toll": 3756,
    "trecento": 3757,
    "ultimamente": 3758,
    "va;": 3759,
    "veggi": 3760,
    "zi,": 3761,
    ").": 3762,
    "Baioth": 3763,
    "Cicili": 3764,
    "Et": 3765,
    "Euro": 3766,
    "Gran": 3767,
    "Genova,": 3768,
    "Ha": 3769,
    "Luna": 3770,
    "Ma,": 3771,
    "Mol": 3772,
    "Prete": 3773,
    "VIII": 3774,
    "alcuna,": 3775,
    "andato": 3776,
    "capitan": 3777,
    "cavalc": 3778,
    "coni": 3779,
    "d'avere": 3780,
    "d’Inghilterra": 3781,
    "enzia,": 3782,
    "eremo": 3783,
    "ferro": 3784,
    "ir": 3785,
    "inven": 3786,
    "incontanente": 3787,
    "lí": 3788,
    "legi": 3789,
    "liberamente": 3790,
    "libero": 3791,
    "luce": 3792,
    "mercanzi": 3793,
    "mostrar": 3794,
    "noy": 3795,
    "odio": 3796,
    "p.": 3797,
    "picca": 3798,
    "presenta": 3799,
    "risol": 3800,
    "rotto": 3801,
    "rup": 3802,
    "sel": 3803,
    "sforza": 3804,
    "sa.": 3805,
    "sacche": 3806,
    "scrittori": 3807,
    "se.": 3808,
    "segni": 3809,
    "sensi": 3810,
    "sima": 3811,
    "solda": 3812,
    "sudditi": 3813,
    "terra.": 3814,
    "tornare": 3815,
    "tumul": 3816,
    "ubi": 3817,
    "umana": 3818,
    "uno,": 3819,
    "voci": 3820,
    "volea": 3821,
    "Avendo": 3822,
    "Biancifiore": 3823,
    "CH": 3824,
    "Catal": 3825,
    "Figliuo": 3826,
    "Giorgio": 3827,
    "Pol": 3828,
    "Pistoia": 3829,
    "Queste": 3830,
    "Sole": 3831,
    "Tartari,": 3832,
    "Toscana": 3833,
    "alza": 3834,
    "assedia": 3835,
    "avessino": 3836,
    "avevamo": 3837,
    "brie": 3838,
    "bbia": 3839,
    "cani": 3840,
    "casti": 3841,
    "cattoli": 3842,
    "cittadino": 3843,
    "condusse": 3844,
    "cupi": 3845,
    "d'acqua": 3846,
    "dall'altra": 3847,
    "diamo": 3848,
    "distru": 3849,
    "diedero": 3850,
    "d’A": 3851,
    "eravamo": 3852,
    "fabbri": 3853,
    "fiume,": 3854,
    "forte,": 3855,
    "incen": 3856,
    "insti": 3857,
    "legni": 3858,
    "marono": 3859,
    "manifesta": 3860,
    "mena": 3861,
    "misericordia": 3862,
    "moder": 3863,
    "mondo.": 3864,
    "morto,": 3865,
    "nascono": 3866,
    "nego": 3867,
    "obe": 3868,
    "over": 3869,
    "parimente": 3870,
    "pietà": 3871,
    "prezzo": 3872,
    "prime": 3873,
    "restitui": 3874,
    "ricchezze": 3875,
    "scar": 3876,
    "scuo": 3877,
    "seguitando": 3878,
    "servizio": 3879,
    "soldano": 3880,
    "spesa": 3881,
    "ssa,": 3882,
    "tre,": 3883,
    "tagli": 3884,
    "tenea": 3885,
    "tornarono": 3886,
    "ttamente": 3887,
    "varia": 3888,
    "vanta": 3889,
    "vicin": 3890,
    "vor": 3891,
    "--------": 3892,
    "Alfon": 3893,
    "Baiothnoy": 3894,
    "Costu": 3895,
    "DEL": 3896,
    "For": 3897,
    "LA": 3898,
    "Luigi": 3899,
    "NI": 3900,
    "addietro": 3901,
    "ammazza": 3902,
    "amore,": 3903,
    "ano;": 3904,
    "antico": 3905,
    "battaglie": 3906,
    "castella": 3907,
    "ché,": 3908,
    "cio,": 3909,
    "dallo": 3910,
    "dite": 3911,
    "divo": 3912,
    "dice:": 3913,
    "duca,": 3914,
    "feste": 3915,
    "fossono": 3916,
    "fra'": 3917,
    "fue": 3918,
    "mai,": 3919,
    "mandare": 3920,
    "masna": 3921,
    "mbre,": 3922,
    "merita": 3923,
    "migliori": 3924,
    "om": 3925,
    "onora": 3926,
    "opport": 3927,
    "pati": 3928,
    "persu": 3929,
    "pieni": 3930,
    "piacer": 3931,
    "poté": 3932,
    "principe,": 3933,
    "quattrocento": 3934,
    "quindici": 3935,
    "restò": 3936,
    "risolu": 3937,
    "riputazione": 3938,
    "rispe": 3939,
    "risto,": 3940,
    "sappi": 3941,
    "sarebbono": 3942,
    "sicuro": 3943,
    "stria": 3944,
    "stessi": 3945,
    "stretti": 3946,
    "trio": 3947,
    "tú": 3948,
    "trar": 3949,
    "trovandosi": 3950,
    "vece": 3951,
    "veva": 3952,
    "vedere,": 3953,
    "28": 3954,
    "Buon": 3955,
    "D'": 3956,
    "Dice": 3957,
    "Domeni": 3958,
    "Ferrara": 3959,
    "Genovesi": 3960,
    "Men": 3961,
    "Matteo": 3962,
    "Nilo": 3963,
    "Raffaello": 3964,
    "Siena": 3965,
    "Signore": 3966,
    "Sofí": 3967,
    "adopera": 3968,
    "alora": 3969,
    "allegrezza": 3970,
    "andammo": 3971,
    "arbi": 3972,
    "aveva,": 3973,
    "benefici": 3974,
    "benissimo": 3975,
    "bolo": 3976,
    "cercare": 3977,
    "che·": 3978,
    "chiesa,": 3979,
    "ch’erano": 3980,
    "condizione": 3981,
    "conosciuto": 3982,
    "danna": 3983,
    "dist": 3984,
    "dini,": 3985,
    "diritto": 3986,
    "domesti": 3987,
    "dottrina": 3988,
    "d’un": 3989,
    "entrar": 3990,
    "erba": 3991,
    "fedel": 3992,
    "ficato": 3993,
    "fossi": 3994,
    "furon": 3995,
    "ggiare": 3996,
    "imi": 3997,
    "inganna": 3998,
    "l'hanno": 3999,
    "l'armi": 4000,
    "l'autorità": 4001,
    "mba": 4002,
    "mad": 4003,
    "mamente": 4004,
    "mento.": 4005,
    "moneta": 4006,
    "nasc": 4007,
    "ora,": 4008,
    "particu": 4009,
    "peccato": 4010,
    "presta": 4011,
    "pul": 4012,
    "quisi": 4013,
    "regno,": 4014,
    "riusci": 4015,
    "savi": 4016,
    "ssero,": 4017,
    "suf": 4018,
    "temendo": 4019,
    "termin": 4020,
    "tratto": 4021,
    "ttan": 4022,
    "viniziani,": 4023,
    "voca": 4024,
    "·lloro": 4025,
    "27": 4026,
    "Bra": 4027,
    "Cin": 4028,
    "Genti": 4029,
    "II.": 4030,
    "Leone": 4031,
    "ONE": 4032,
    "Porto": 4033,
    "Ra": 4034,
    "abbandona": 4035,
    "abbiano": 4036,
    "accidente": 4037,
    "altri.": 4038,
    "ammo": 4039,
    "anne": 4040,
    "animo,": 4041,
    "arlo": 4042,
    "bontà": 4043,
    "campi": 4044,
    "ci.": 4045,
    "consul": 4046,
    "condotti": 4047,
    "consiglia": 4048,
    "cosa.": 4049,
    "cresci": 4050,
    "croce": 4051,
    "debito": 4052,
    "dentro,": 4053,
    "do.": 4054,
    "dop": 4055,
    "dubita": 4056,
    "erono": 4057,
    "fare.": 4058,
    "fatto.": 4059,
    "ggiun": 4060,
    "ignoran": 4061,
    "illustri": 4062,
    "l'uomo": 4063,
    "lode": 4064,
    "morì": 4065,
    "nipote": 4066,
    "ostina": 4067,
    "partiti": 4068,
    "perocchè": 4069,
    "pongono": 4070,
    "quelli,": 4071,
    "religio": 4072,
    "riano": 4073,
    "ricu": 4074,
    "rore": 4075,
    "segua": 4076,
    "servigio": 4077,
    "sione,": 4078,
    "sommamente": 4079,
    "spada": 4080,
    "stella": 4081,
    "stelle": 4082,
    "stia": 4083,
    "tandosi": 4084,
    "tiva": 4085,
    "trattare": 4086,
    "tus": 4087,
    "ufficio": 4088,
    "unione": 4089,
    "valore": 4090,
    "veduti": 4091,
    "26": 4092,
    "Cro": 4093,
    "Firenze.": 4094,
    "MCCC": 4095,
    "Ris": 4096,
    "Ruberto": 4097,
    "Sta": 4098,
    "Sí": 4099,
    "TTO": 4100,
    "Ve": 4101,
    "Verona": 4102,
    "at": 4103,
    "abbru": 4104,
    "am,": 4105,
    "ambasciadore": 4106,
    "appeti": 4107,
    "avversa": 4108,
    "ba,": 4109,
    "battaglia,": 4110,
    "bilmente": 4111,
    "boli": 4112,
    "cuni": 4113,
    "caci": 4114,
    "case,": 4115,
    "casi": 4116,
    "camera,": 4117,
    "cresc": 4118,
    "cresce": 4119,
    "crudeli": 4120,
    "era.": 4121,
    "fazione": 4122,
    "facciata": 4123,
    "farà": 4124,
    "fiate": 4125,
    "figliuoli,": 4126,
    "foglie": 4127,
    "gioie": 4128,
    "grosso": 4129,
    "imperatore,": 4130,
    "intender": 4131,
    "leghe": 4132,
    "licenza": 4133,
    "marina": 4134,
    "ministra": 4135,
    "pe,": 4136,
    "parola": 4137,
    "perni": 4138,
    "pianta": 4139,
    "piú,": 4140,
    "poveri": 4141,
    "ponendo": 4142,
    "ponente": 4143,
    "prigioni": 4144,
    "reggi": 4145,
    "repu": 4146,
    "reputa": 4147,
    "ricevuti": 4148,
    "spalle": 4149,
    "spoglia": 4150,
    "stanze": 4151,
    "tenuta": 4152,
    "usare": 4153,
    "usato": 4154,
    "vedemmo": 4155,
    "vennono": 4156,
    "volevano": 4157,
    "Batti": 4158,
    "CON": 4159,
    "Die": 4160,
    "En": 4161,
    "Frances": 4162,
    "Russi": 4163,
    "Tre": 4164,
    "azioni": 4165,
    "accidenti": 4166,
    "alber": 4167,
    "ane,": 4168,
    "animali,": 4169,
    "appena": 4170,
    "assedio": 4171,
    "avveni": 4172,
    "cavano": 4173,
    "carico": 4174,
    "compagno": 4175,
    "contem": 4176,
    "considerando": 4177,
    "debba": 4178,
    "disposi": 4179,
    "disegni": 4180,
    "duta": 4181,
    "eglino": 4182,
    "eno,": 4183,
    "facile": 4184,
    "fecto": 4185,
    "fu,": 4186,
    "giusta": 4187,
    "istoria": 4188,
    "illa": 4189,
    "impossibile": 4190,
    "imprese": 4191,
    "incredi": 4192,
    "into": 4193,
    "lfo": 4194,
    "l’altra": 4195,
    "l’imperatore": 4196,
    "meravi": 4197,
    "montagna": 4198,
    "mula": 4199,
    "nacque": 4200,
    "o.": 4201,
    "partí": 4202,
    "perder": 4203,
    "pittura": 4204,
    "poterono": 4205,
    "principalmente": 4206,
    "proposto": 4207,
    "regge": 4208,
    "sess": 4209,
    "sae": 4210,
    "sangu": 4211,
    "stribu": 4212,
    "tempera": 4213,
    "trovando": 4214,
    "volu": 4215,
    "18": 4216,
    "29": 4217,
    "AR": 4218,
    "Aristo": 4219,
    "Arri": 4220,
    "Cristo,": 4221,
    "Cardinal": 4222,
    "Giovanni,": 4223,
    "Guido": 4224,
    "Lau": 4225,
    "Tomma": 4226,
    "Veneziani": 4227,
    "adi": 4228,
    "abbrac": 4229,
    "accusa": 4230,
    "agosto,": 4231,
    "allegra": 4232,
    "amante": 4233,
    "bali": 4234,
    "bur": 4235,
    "celli": 4236,
    "cessa": 4237,
    "cause": 4238,
    "celeb": 4239,
    "chiese": 4240,
    "commo": 4241,
    "concio": 4242,
    "condizioni": 4243,
    "cosí,": 4244,
    "d'altri": 4245,
    "da.": 4246,
    "depen": 4247,
    "dicesse": 4248,
    "discen": 4249,
    "em": 4250,
    "essendosi": 4251,
    "fedeli": 4252,
    "gan": 4253,
    "gino": 4254,
    "grandissime": 4255,
    "grandissimi": 4256,
    "importan": 4257,
    "introdu": 4258,
    "lle": 4259,
    "l'avesse": 4260,
    "l'aveva": 4261,
    "lago": 4262,
    "luoco": 4263,
    "l’altro": 4264,
    "mere": 4265,
    "mata": 4266,
    "mbro": 4267,
    "meco": 4268,
    "medesimamente": 4269,
    "monte,": 4270,
    "ncipi": 4271,
    "nun": 4272,
    "origine": 4273,
    "parlato": 4274,
    "polo": 4275,
    "porte": 4276,
    "promesse": 4277,
    "pros": 4278,
    "quam": 4279,
    "quarto": 4280,
    "ricco": 4281,
    "suffici": 4282,
    "testa,": 4283,
    "tornando": 4284,
    "tornato": 4285,
    "trovava": 4286,
    "ttano": 4287,
    "vando": 4288,
    "vedre": 4289,
    "venga": 4290,
    "ventura": 4291,
    "vivo": 4292,
    "vittoria,": 4293,
    "vostre": 4294,
    "vostri": 4295,
    "volta,": 4296,
    "Barb": 4297,
    "Cairo": 4298,
    "Così": 4299,
    "Dante": 4300,
    "Europa": 4301,
    "Iddi": 4302,
    "Inghi": 4303,
    "Noi": 4304,
    "Pan": 4305,
    "Paulo": 4306,
    "Sar": 4307,
    "Ted": 4308,
    "Verona,": 4309,
    "apresso": 4310,
    "accioché": 4311,
    "ador": 4312,
    "aggiu": 4313,
    "ambizione": 4314,
    "animale": 4315,
    "apertamente": 4316,
    "appella": 4317,
    "arte,": 4318,
    "avea,": 4319,
    "camente": 4320,
    "care,": 4321,
    "ceré": 4322,
    "comune,": 4323,
    "comandamento": 4324,
    "compagnia,": 4325,
    "contenta": 4326,
    "contenti": 4327,
    "convene": 4328,
    "damente": 4329,
    "dico,": 4330,
    "dicevano": 4331,
    "dire:": 4332,
    "essere,": 4333,
    "fo,": 4334,
    "facessero": 4335,
    "facemmo": 4336,
    "febb": 4337,
    "felici": 4338,
    "figlio": 4339,
    "fratelli": 4340,
    "genti,": 4341,
    "giunse": 4342,
    "grazia,": 4343,
    "guas": 4344,
    "h,": 4345,
    "illi": 4346,
    "l'un": 4347,
    "legno": 4348,
    "mesco": 4349,
    "mettersi": 4350,
    "ministri": 4351,
    "monti,": 4352,
    "nome,": 4353,
    "nova": 4354,
    "nutri": 4355,
    "ob": 4356,
    "one.": 4357,
    "parlare,": 4358,
    "particolarmente": 4359,
    "persuad": 4360,
    "pigliano": 4361,
    "porta,": 4362,
    "prie": 4363,
    "propin": 4364,
    "que’": 4365,
    "quod": 4366,
    "razione": 4367,
    "remi": 4368,
    "rilie": 4369,
    "rimane": 4370,
    "sanno": 4371,
    "saria": 4372,
    "secola": 4373,
    "setti": 4374,
    "spiritu": 4375,
    "ssime,": 4376,
    "stesse": 4377,
    "subitamente": 4378,
    "superfici": 4379,
    "tedeschi": 4380,
    "testimoni": 4381,
    "testimonio": 4382,
    "tiranno": 4383,
    "tuoi": 4384,
    "utilità": 4385,
    "veg": 4386,
    "verno": 4387,
    "vettovaglie": 4388,
    "viceré": 4389,
    "25": 4390,
    "DELL": 4391,
    "Min": 4392,
    "Michelagnolo": 4393,
    "Pes": 4394,
    "Pado": 4395,
    "QU": 4396,
    "Sforza": 4397,
    "Ungheria": 4398,
    "amare": 4399,
    "arebbe": 4400,
    "altre,": 4401,
    "amici,": 4402,
    "aspettare": 4403,
    "botte": 4404,
    "cchio,": 4405,
    "chiamati": 4406,
    "cominciando": 4407,
    "consola": 4408,
    "confedera": 4409,
    "dé": 4410,
    "dicea": 4411,
    "dieta": 4412,
    "difendere": 4413,
    "dovea": 4414,
    "d’una": 4415,
    "erano,": 4416,
    "erie": 4417,
    "es,": 4418,
    "essimo": 4419,
    "facea": 4420,
    "fatta,": 4421,
    "fem": 4422,
    "fece,": 4423,
    "generalmente": 4424,
    "ido": 4425,
    "impeto": 4426,
    "instru": 4427,
    "levato": 4428,
    "licenzia": 4429,
    "lo;": 4430,
    "loda": 4431,
    "loro:": 4432,
    "lunghi": 4433,
    "l’anno": 4434,
    "mato": 4435,
    "meriti": 4436,
    "montagne": 4437,
    "oscu": 4438,
    "onia": 4439,
    "opera,": 4440,
    "ovvero": 4441,
    "pane": 4442,
    "passione": 4443,
    "pazi": 4444,
    "parere": 4445,
    "pene": 4446,
    "piacere,": 4447,
    "possino": 4448,
    "procedere": 4449,
    "quindi": 4450,
    "quadro": 4451,
    "quest’": 4452,
    "rari": 4453,
    "ragione,": 4454,
    "rii": 4455,
    "ria.": 4456,
    "ricevuta": 4457,
    "risponde": 4458,
    "rocca": 4459,
    "romana": 4460,
    "sdegno": 4461,
    "sma": 4462,
    "squad": 4463,
    "sti,": 4464,
    "scritta": 4465,
    "significa": 4466,
    "sito": 4467,
    "sia.": 4468,
    "tempio": 4469,
    "tesoro": 4470,
    "tolse": 4471,
    "trion": 4472,
    "usi": 4473,
    "vani": 4474,
    "vul": 4475,
    "visione": 4476,
    "visto": 4477,
    "vizio": 4478,
    "voll": 4479,
    "xi": 4480,
    "'è": 4481,
    "(che": 4482,
    "Certo": 4483,
    "Dove": 4484,
    "Ella": 4485,
    "Ferdinando": 4486,
    "Giuliano": 4487,
    "Grecia": 4488,
    "Iddio,": 4489,
    "Italia.": 4490,
    "Pio": 4491,
    "Viniziani": 4492,
    "________________": 4493,
    "acquisto": 4494,
    "affi": 4495,
    "ale.": 4496,
    "ango": 4497,
    "andati": 4498,
    "anime": 4499,
    "ardire": 4500,
    "assolu": 4501,
    "bo,": 4502,
    "bate": 4503,
    "bbedi": 4504,
    "bellini": 4505,
    "cagione,": 4506,
    "campo,": 4507,
    "capo,": 4508,
    "coli,": 4509,
    "commen": 4510,
    "compra": 4511,
    "condur": 4512,
    "consuetudine": 4513,
    "deliberazione": 4514,
    "digli": 4515,
    "dimeno": 4516,
    "difender": 4517,
    "dispiacere": 4518,
    "effetti": 4519,
    "enta": 4520,
    "eserciti": 4521,
    "esperienza": 4522,
    "fallo": 4523,
    "filosofi": 4524,
    "giú": 4525,
    "grazie": 4526,
    "ign": 4527,
    "incomincia": 4528,
    "insegna": 4529,
    "larga": 4530,
    "levare": 4531,
    "muni": 4532,
    "minor": 4533,
    "ondo": 4534,
    "onde,": 4535,
    "pel": 4536,
    "paes": 4537,
    "patti": 4538,
    "piaci": 4539,
    "piccoli": 4540,
    "pover": 4541,
    "popola": 4542,
    "prí": 4543,
    "prende": 4544,
    "processo": 4545,
    "prudenza": 4546,
    "príncipi": 4547,
    "raf": 4548,
    "regola": 4549,
    "rido": 4550,
    "risti": 4551,
    "scan": 4552,
    "scritti": 4553,
    "scrive": 4554,
    "senso": 4555,
    "seppe": 4556,
    "servire": 4557,
    "solo,": 4558,
    "stanzia": 4559,
    "strada": 4560,
    "studi": 4561,
    "tavola,": 4562,
    "terre,": 4563,
    "ttono": 4564,
    "vecchia": 4565,
    "vegna": 4566,
    "vivono": 4567,
    "vicina": 4568,
    "vogli": 4569,
    "volga": 4570,
    "1.": 4571,
    "24": 4572,
    "</": 4573,
    "Af": 4574,
    "Alfonso": 4575,
    "Borgo": 4576,
    "Donna,": 4577,
    "E,": 4578,
    "GNO": 4579,
    "Montezuma": 4580,
    "Ta": 4581,
    "accomo": 4582,
    "accresci": 4583,
    "acquista": 4584,
    "alte": 4585,
    "anza,": 4586,
    "antiche": 4587,
    "arre": 4588,
    "assero": 4589,
    "bellissime": 4590,
    "cta": 4591,
    "cat": 4592,
    "cielo,": 4593,
    "co;": 4594,
    "coi": 4595,
    "copri": 4596,
    "conduce": 4597,
    "condurre": 4598,
    "confina": 4599,
    "considerare": 4600,
    "costi": 4601,
    "devo": 4602,
    "detto.": 4603,
    "esi,": 4604,
    "ecco": 4605,
    "erbe": 4606,
    "femin": 4607,
    "finché": 4608,
    "franc": 4609,
    "fratello,": 4610,
    "genero": 4611,
    "gioni,": 4612,
    "giusto": 4613,
    "giustizia,": 4614,
    "isole": 4615,
    "intendendo": 4616,
    "l'in": 4617,
    "letta": 4618,
    "liberali": 4619,
    "lui;": 4620,
    "miei,": 4621,
    "morti,": 4622,
    "muovere": 4623,
    "novo": 4624,
    "occiden": 4625,
    "onorato": 4626,
    "onore,": 4627,
    "pl": 4628,
    "pasto": 4629,
    "partirsi": 4630,
    "passata": 4631,
    "peccati": 4632,
    "perdono": 4633,
    "perduto": 4634,
    "podes": 4635,
    "raguna": 4636,
    "riforma": 4637,
    "s.": 4638,
    "sai": 4639,
    "scen": 4640,
    "sentenzia": 4641,
    "sua.": 4642,
    "tel": 4643,
    "tone": 4644,
    "tavole": 4645,
    "talora": 4646,
    "tore.": 4647,
    "tollera": 4648,
    "ttanta": 4649,
    "universale": 4650,
    "uscire": 4651,
    "vella": 4652,
    "v’": 4653,
    "valente": 4654,
    "vendere": 4655,
    "»;": 4656,
    "Cha": 4657,
    "Florio": 4658,
    "Francia.": 4659,
    "Maestà": 4660,
    "Roma.": 4661,
    "Salv.": 4662,
    "Signor": 4663,
    "Tau": 4664,
    "Ugolo": 4665,
    "amen": 4666,
    "afferma": 4667,
    "alea": 4668,
    "altera": 4669,
    "amo,": 4670,
    "anco,": 4671,
    "anni.": 4672,
    "arbori": 4673,
    "brieve": 4674,
    "cera": 4675,
    "cavaliere,": 4676,
    "chino": 4677,
    "chio,": 4678,
    "cip": 4679,
    "cittá,": 4680,
    "cognosci": 4681,
    "conqui": 4682,
    "dandosi": 4683,
    "debole": 4684,
    "dipi": 4685,
    "distribu": 4686,
    "divino": 4687,
    "dua": 4688,
    "dubitando": 4689,
    "effica": 4690,
    "esor": 4691,
    "esso,": 4692,
    "facol": 4693,
    "ferito": 4694,
    "fiorentini,": 4695,
    "fiorentino": 4696,
    "fondo": 4697,
    "fummo": 4698,
    "grano": 4699,
    "gazioni": 4700,
    "gentiluomo": 4701,
    "giudic": 4702,
    "giudizio": 4703,
    "gliel": 4704,
    "gnar": 4705,
    "gonfaloniere": 4706,
    "gusto": 4707,
    "hu": 4708,
    "ira": 4709,
    "iddii": 4710,
    "imperio,": 4711,
    "libri": 4712,
    "lupo": 4713,
    "madre,": 4714,
    "maestri": 4715,
    "more,": 4716,
    "mortali": 4717,
    "narrò": 4718,
    "navili": 4719,
    "nominato": 4720,
    "onne": 4721,
    "padigli": 4722,
    "palagio": 4723,
    "pezzo": 4724,
    "penso": 4725,
    "pieto": 4726,
    "poche": 4727,
    "poco,": 4728,
    "potestá": 4729,
    "predica": 4730,
    "presu": 4731,
    "promette": 4732,
    "provincia,": 4733,
    "racconta": 4734,
    "repli": 4735,
    "religione,": 4736,
    "riso": 4737,
    "ruba": 4738,
    "sando": 4739,
    "sco,": 4740,
    "s'ap": 4741,
    "scopri": 4742,
    "scudi": 4743,
    "sedere": 4744,
    "sessanta": 4745,
    "sole,": 4746,
    "stano": 4747,
    "suo.": 4748,
    "tare,": 4749,
    "tema": 4750,
    "testo": 4751,
    "tici": 4752,
    "truovano": 4753,
    "ttino": 4754,
    "uffici": 4755,
    "usata": 4756,
    "vedendosi": 4757,
    "vendono": 4758,
    "verso,": 4759,
    "vivi": 4760,
    "zar": 4761,
    "1,": 4762,
    "<B>": 4763,
    "</B>": 4764,
    "Alla": 4765,
    "Baver": 4766,
    "Clemente": 4767,
    "Costui": 4768,
    "Fiandra": 4769,
    "Filocolo": 4770,
    "III.": 4771,
    "LIB": 4772,
    "Lucca": 4773,
    "Maggio": 4774,
    "Magnifi": 4775,
    "Mario": 4776,
    "Navarra": 4777,
    "Ora,": 4778,
    "Otta": 4779,
    "Quanto": 4780,
    "Quelli": 4781,
    "Salvia": 4782,
    "Spagnuo": 4783,
    "abbino": 4784,
    "abitazioni": 4785,
    "accu": 4786,
    "affli": 4787,
    "aldo": 4788,
    "all'altro": 4789,
    "almente,": 4790,
    "ampli": 4791,
    "amico,": 4792,
    "amicizia": 4793,
    "asso": 4794,
    "bandi": 4795,
    "cario": 4796,
    "carsi": 4797,
    "cavall": 4798,
    "chiamare": 4799,
    "città;": 4800,
    "conchiu": 4801,
    "continente": 4802,
    "costei": 4803,
    "cur": 4804,
    "dante": 4805,
    "dunque,": 4806,
    "denzia": 4807,
    "dino,": 4808,
    "disce": 4809,
    "disegna": 4810,
    "disidera": 4811,
    "domandò": 4812,
    "empi": 4813,
    "fanti,": 4814,
    "farebbe": 4815,
    "fatica,": 4816,
    "ferir": 4817,
    "ficare": 4818,
    "fisi": 4819,
    "franzesi,": 4820,
    "giardi": 4821,
    "giornata": 4822,
    "giugno": 4823,
    "gotti": 4824,
    "inci": 4825,
    "insi": 4826,
    "industria": 4827,
    "ingegni": 4828,
    "intelli": 4829,
    "l'artiglieri": 4830,
    "lad": 4831,
    "loco": 4832,
    "longo": 4833,
    "lontana": 4834,
    "maniera,": 4835,
    "matrimonio": 4836,
    "mesi,": 4837,
    "mediante": 4838,
    "multi": 4839,
    "nemici,": 4840,
    "nostro,": 4841,
    "onati": 4842,
    "onori": 4843,
    "ornamenti": 4844,
    "ornamento": 4845,
    "panno": 4846,
    "pesti": 4847,
    "pio,": 4848,
    "plo": 4849,
    "patr": 4850,
    "parer": 4851,
    "partir": 4852,
    "passando": 4853,
    "passate": 4854,
    "perduta": 4855,
    "pianto": 4856,
    "potestà": 4857,
    "privile": 4858,
    "principi,": 4859,
    "proprie": 4860,
    "qui,": 4861,
    "ramento": 4862,
    "ritornare": 4863,
    "romore": 4864,
    "sapi": 4865,
    "scher": 4866,
    "sede": 4867,
    "soggio": 4868,
    "solenne": 4869,
    "sottili": 4870,
    "spagnuoli": 4871,
    "stino": 4872,
    "sterio": 4873,
    "tato,": 4874,
    "tempor": 4875,
    "tende": 4876,
    "tolto": 4877,
    "tramontana": 4878,
    "ttare": 4879,
    "ttor": 4880,
    "ttua": 4881,
    "un’altra": 4882,
    "valenti": 4883,
    "vestito": 4884,
    "vid": 4885,
    "viaggio,": 4886,
    "vinti": 4887,
    "volo": 4888,
    "vorrei": 4889,
    "'m": 4890,
    "FI": 4891,
    "Fiorenza,": 4892,
    "Ges": 4893,
    "PO": 4894,
    "Sansov": 4895,
    "Tommaso": 4896,
    "ante,": 4897,
    "anticamente": 4898,
    "ascen": 4899,
    "asci": 4900,
    "bere": 4901,
    "bò": 4902,
    "basta": 4903,
    "c.": 4904,
    "cciò": 4905,
    "capitano,": 4906,
    "caritá": 4907,
    "colpi": 4908,
    "commune": 4909,
    "congregazione": 4910,
    "corpo,": 4911,
    "dè": 4912,
    "denari": 4913,
    "destra": 4914,
    "dette,": 4915,
    "etter": 4916,
    "ene,": 4917,
    "enza.": 4918,
    "erai": 4919,
    "errore": 4920,
    "espugna": 4921,
    "fen": 4922,
    "faccendo": 4923,
    "fanno,": 4924,
    "favor": 4925,
    "fermar": 4926,
    "giuris": 4927,
    "gnando": 4928,
    "gnati": 4929,
    "governatore,": 4930,
    "isto": 4931,
    "informa": 4932,
    "intende": 4933,
    "lendo": 4934,
    "l'aiuto": 4935,
    "l'arme": 4936,
    "legati,": 4937,
    "l’imperadore": 4938,
    "malva": 4939,
    "mangiar": 4940,
    "metà": 4941,
    "menzione.": 4942,
    "mico,": 4943,
    "moti": 4944,
    "mov": 4945,
    "morire,": 4946,
    "naturalmente": 4947,
    "nemico": 4948,
    "nostra,": 4949,
    "onesta": 4950,
    "onsi": 4951,
    "pelle": 4952,
    "pagare": 4953,
    "peniten": 4954,
    "piacevoli": 4955,
    "piedi,": 4956,
    "poichè": 4957,
    "popoli,": 4958,
    "portate": 4959,
    "predi": 4960,
    "prepara": 4961,
    "pressa": 4962,
    "priori": 4963,
    "propor": 4964,
    "publica,": 4965,
    "punta": 4966,
    "quell’": 4967,
    "rino": 4968,
    "ruo": 4969,
    "ram": 4970,
    "recu": 4971,
    "ricca": 4972,
    "ricevere": 4973,
    "ssu": 4974,
    "seguito": 4975,
    "serva": 4976,
    "soldo": 4977,
    "sovra": 4978,
    "splendo": 4979,
    "spaven": 4980,
    "spezie": 4981,
    "sse;": 4982,
    "stimo": 4983,
    "storo": 4984,
    "strani": 4985,
    "telli": 4986,
    "tana,": 4987,
    "tio": 4988,
    "tro,": 4989,
    "trover": 4990,
    "tur,": 4991,
    "uccelli": 4992,
    "unche": 4993,
    "uomini.": 4994,
    "ves": 4995,
    "vano;": 4996,
    "venezi": 4997,
    "z,": 4998,
    "zie,": 4999,
    "?\"": 5000,
    "Are": 5001,
    "Alber": 5002,
    "Alle": 5003,
    "Avvenne": 5004,
    "Bon": 5005,
    "Chiesa.": 5006,
    "Delle": 5007,
    "Domenico": 5008,
    "Gon": 5009,
    "II,": 5010,
    "Indie": 5011,
    "Manfre": 5012,
    "Medi": 5013,
    "Moscovia": 5014,
    "Nar": 5015,
    "Pad": 5016,
    "Parigi": 5017,
    "Ridol": 5018,
    "Romani,": 5019,
    "Scri": 5020,
    "Siena,": 5021,
    "Signore,": 5022,
    "Turco": 5023,
    "Va": 5024,
    "VII.": 5025,
    "acquistare": 5026,
    "acquistato": 5027,
    "aspetto": 5028,
    "bilità": 5029,
    "cra": 5030,
    "cap.": 5031,
    "chiav": 5032,
    "ch’egli": 5033,
    "circui": 5034,
    "continovo": 5035,
    "contrada": 5036,
    "conveniente": 5037,
    "corti": 5038,
    "drie": 5039,
    "denza,": 5040,
    "due,": 5041,
    "etto": 5042,
    "ellano": 5043,
    "eranno": 5044,
    "falla": 5045,
    "femine": 5046,
    "fonte": 5047,
    "forestieri,": 5048,
    "fugg": 5049,
    "futu": 5050,
    "gel": 5051,
    "genove": 5052,
    "giovene": 5053,
    "gliene": 5054,
    "greci": 5055,
    "guardi": 5056,
    "guerra.": 5057,
    "ire": 5058,
    "istorie": 5059,
    "imperator": 5060,
    "incontra": 5061,
    "indietro": 5062,
    "instanza": 5063,
    "infinita": 5064,
    "l'ha": 5065,
    "l'opera": 5066,
    "l'ora": 5067,
    "lama": 5068,
    "lettere,": 5069,
    "lontani": 5070,
    "lunghe": 5071,
    "l’autoritá": 5072,
    "maestra": 5073,
    "mangiano": 5074,
    "mangiare,": 5075,
    "marito,": 5076,
    "me.": 5077,
    "misono": 5078,
    "misura": 5079,
    "mmo,": 5080,
    "mogli": 5081,
    "multipli": 5082,
    "naturale,": 5083,
    "ni,": 5084,
    "novità": 5085,
    "offesa": 5086,
    "onia,": 5087,
    "padrone": 5088,
    "parendogli": 5089,
    "particolare": 5090,
    "particolari": 5091,
    "passano": 5092,
    "passarono": 5093,
    "pericolo,": 5094,
    "proba": 5095,
    "putati": 5096,
    "ritornar": 5097,
    "ritratto": 5098,
    "saputo": 5099,
    "scrittura": 5100,
    "soccor": 5101,
    "sospetto,": 5102,
    "sostenere": 5103,
    "specialmente": 5104,
    "spezialmente": 5105,
    "superio": 5106,
    "tello": 5107,
    "ta:": 5108,
    "tempo.": 5109,
    "trasse": 5110,
    "ttato": 5111,
    "uscir": 5112,
    "vio,": 5113,
    "veleno": 5114,
    "viera": 5115,
    "vivere,": 5116,
    "ziosi": 5117,
    "zuffa": 5118,
    "zzano": 5119,
    "ò.": 5120,
    "(come": 5121,
    "Bernardo": 5122,
    "Castello": 5123,
    "Cir": 5124,
    "Hanno": 5125,
    "LE": 5126,
    "LIBRO": 5127,
    "Mess": 5128,
    "Pe": 5129,
    "Princi": 5130,
    "Rispose": 5131,
    "SE": 5132,
    "Spi": 5133,
    "Terra,": 5134,
    "accia": 5135,
    "accioc": 5136,
    "aprile": 5137,
    "armi,": 5138,
    "astu": 5139,
    "aspettando": 5140,
    "bassa": 5141,
    "be,": 5142,
    "bisogni": 5143,
    "bisognava": 5144,
    "cessi": 5145,
    "cun": 5146,
    "ca.": 5147,
    "casse": 5148,
    "cchi,": 5149,
    "chiari": 5150,
    "ciano": 5151,
    "cibo": 5152,
    "cie,": 5153,
    "cito": 5154,
    "creduto": 5155,
    "danni": 5156,
    "dano,": 5157,
    "dirà": 5158,
    "diventa": 5159,
    "entrarono": 5160,
    "entrati": 5161,
    "esto,": 5162,
    "fate": 5163,
    "faceano": 5164,
    "forestieri": 5165,
    "freddo": 5166,
    "fuggendo": 5167,
    "gava": 5168,
    "giudice": 5169,
    "giudicato": 5170,
    "globo": 5171,
    "gna.": 5172,
    "impresa,": 5173,
    "ingra": 5174,
    "innocen": 5175,
    "inganno": 5176,
    "l'ho": 5177,
    "l'opere": 5178,
    "lavorare": 5179,
    "luoghi,": 5180,
    "m.": 5181,
    "menzione,": 5182,
    "molesta": 5183,
    "morto.": 5184,
    "movimento": 5185,
    "nobili,": 5186,
    "ore,": 5187,
    "pelli": 5188,
    "partire": 5189,
    "perpetuo": 5190,
    "piede": 5191,
    "poeti": 5192,
    "pontefici": 5193,
    "portarono": 5194,
    "potersi": 5195,
    "pruo": 5196,
    "pratiche": 5197,
    "preso,": 5198,
    "presente,": 5199,
    "profi": 5200,
    "qualsi": 5201,
    "qualsivoglia": 5202,
    "questa,": 5203,
    "rante": 5204,
    "reg": 5205,
    "ridendo": 5206,
    "rola": 5207,
    "sato": 5208,
    "scelera": 5209,
    "senno": 5210,
    "sentito": 5211,
    "sforz": 5212,
    "sollecitudine": 5213,
    "spagnuo": 5214,
    "spero": 5215,
    "svizzeri": 5216,
    "tru": 5217,
    "teolo": 5218,
    "teste": 5219,
    "tentare": 5220,
    "tremila": 5221,
    "uli": 5222,
    "umili": 5223,
    "universal": 5224,
    "valle": 5225,
    "v'erano": 5226,
    "vedute": 5227,
    "venivano": 5228,
    "\n\n                ": 5229,
    "\",": 5230,
    "DELLA": 5231,
    "Fin": 5232,
    "GI": 5233,
    "Gh": 5234,
    "Girola": 5235,
    "Lione": 5236,
    "Milano.": 5237,
    "Onde,": 5238,
    "Pisani,": 5239,
    "Ponte": 5240,
    "Sala": 5241,
    "SIGNO": 5242,
    "Sagr": 5243,
    "Sagr.": 5244,
    "Tar": 5245,
    "Toscana,": 5246,
    "VI.": 5247,
    "Veri": 5248,
    "ade": 5249,
    "a·": 5250,
    "abbraccia": 5251,
    "abitanti": 5252,
    "accade": 5253,
    "aggra": 5254,
    "attra": 5255,
    "averne": 5256,
    "avverti": 5257,
    "bara": 5258,
    "barone": 5259,
    "bass": 5260,
    "briga": 5261,
    "buono,": 5262,
    "ceri": 5263,
    "cle": 5264,
    "cadde": 5265,
    "ce.": 5266,
    "cercar": 5267,
    "chiaramente": 5268,
    "cotali": 5269,
    "coll’": 5270,
    "credeva": 5271,
    "d'altre": 5272,
    "d'otto": 5273,
    "d'Ara": 5274,
    "dato,": 5275,
    "degne": 5276,
    "deboli": 5277,
    "difetto": 5278,
    "diletto": 5279,
    "dina": 5280,
    "dignità": 5281,
    "disider": 5282,
    "donò": 5283,
    "ellino": 5284,
    "errori": 5285,
    "esamina": 5286,
    "ffe": 5287,
    "fanciullo": 5288,
    "farli": 5289,
    "fatti,": 5290,
    "ferma,": 5291,
    "fermò": 5292,
    "fine.": 5293,
    "fiori": 5294,
    "fondamento": 5295,
    "gento,": 5296,
    "illumina": 5297,
    "immedia": 5298,
    "inato": 5299,
    "la;": 5300,
    "lunghezza": 5301,
    "l’uno": 5302,
    "magnificen": 5303,
    "mercanzie": 5304,
    "mostrava": 5305,
    "mutazioni": 5306,
    "nessuna": 5307,
    "noto": 5308,
    "noia": 5309,
    "omni": 5310,
    "partendo": 5311,
    "pensato": 5312,
    "perco": 5313,
    "peso": 5314,
    "piene": 5315,
    "pisani": 5316,
    "piaceri": 5317,
    "pitture": 5318,
    "pole": 5319,
    "provisione": 5320,
    "quarta": 5321,
    "rane": 5322,
    "regno.": 5323,
    "rende": 5324,
    "ribile": 5325,
    "ricom": 5326,
    "risposto": 5327,
    "spon": 5328,
    "sati": 5329,
    "sentenza": 5330,
    "simigli": 5331,
    "singu": 5332,
    "soldati,": 5333,
    "solito": 5334,
    "ssimo.": 5335,
    "statua": 5336,
    "statue": 5337,
    "sulle": 5338,
    "sète": 5339,
    "tazione": 5340,
    "teneano": 5341,
    "tranqu": 5342,
    "travagli": 5343,
    "v'era": 5344,
    "valoroso": 5345,
    "venera": 5346,
    "venticinque": 5347,
    "veritá": 5348,
    "vestiti": 5349,
    "vigo": 5350,
    "vincere": 5351,
    "vinto": 5352,
    "vita.": 5353,
    "vollono": 5354,
    "zia.": 5355,
    "\n\n   ": 5356,
    "56": 5357,
    "Africa": 5358,
    "Camillo": 5359,
    "Ercole": 5360,
    "Francesco,": 5361,
    "Germania,": 5362,
    "Gian": 5363,
    "Giun": 5364,
    "I,": 5365,
    "Lautre": 5366,
    "MI": 5367,
    "Michele": 5368,
    "Passa": 5369,
    "Paolo": 5370,
    "REN": 5371,
    "ST": 5372,
    "Sav": 5373,
    "Simp.": 5374,
    "UO": 5375,
    "Visconti": 5376,
    "adu": 5377,
    "age": 5378,
    "amor": 5379,
    "adesso": 5380,
    "aggion": 5381,
    "apparis": 5382,
    "arne": 5383,
    "arbitrio": 5384,
    "attribu": 5385,
    "avessono": 5386,
    "avemo": 5387,
    "bologn": 5388,
    "cco,": 5389,
    "calami": 5390,
    "celebra": 5391,
    "copio": 5392,
    "core": 5393,
    "cognizione": 5394,
    "come,": 5395,
    "cono,": 5396,
    "convenne": 5397,
    "convien": 5398,
    "conciosia": 5399,
    "contraria": 5400,
    "danti": 5401,
    "darono": 5402,
    "d'Inghilterra": 5403,
    "decimo": 5404,
    "digi": 5405,
    "dimenti": 5406,
    "dimento": 5407,
    "differenti": 5408,
    "diligente": 5409,
    "dispre": 5410,
    "dolci": 5411,
    "dovessero": 5412,
    "fes": 5413,
    "fame,": 5414,
    "fami": 5415,
    "facoltà": 5416,
    "fastidio": 5417,
    "fatte,": 5418,
    "femina": 5419,
    "ga.": 5420,
    "genito": 5421,
    "gentil": 5422,
    "gie": 5423,
    "glorioso": 5424,
    "ilmente": 5425,
    "immo": 5426,
    "imbasciadori": 5427,
    "intaglia": 5428,
    "investi": 5429,
    "intendo": 5430,
    "io.": 5431,
    "italiani": 5432,
    "lá": 5433,
    "l'or": 5434,
    "leggiad": 5435,
    "messere": 5436,
    "m'è": 5437,
    "madonna": 5438,
    "mezza": 5439,
    "modità": 5440,
    "morta": 5441,
    "nimici,": 5442,
    "nobiltà": 5443,
    "nostri,": 5444,
    "omini": 5445,
    "offendere": 5446,
    "orien": 5447,
    "pag": 5448,
    "pera,": 5449,
    "perdita": 5450,
    "persone,": 5451,
    "pianu": 5452,
    "preghi": 5453,
    "prover": 5454,
    "pubbliche": 5455,
    "quelle,": 5456,
    "rgli": 5457,
    "ragionevole": 5458,
    "reo": 5459,
    "richied": 5460,
    "riverenza": 5461,
    "sapo": 5462,
    "senato": 5463,
    "sente": 5464,
    "sicuramente": 5465,
    "signore.": 5466,
    "singo": 5467,
    "sospi": 5468,
    "stampa": 5469,
    "stato.": 5470,
    "stretta": 5471,
    "superficie": 5472,
    "tero": 5473,
    "tali,": 5474,
    "tenevano": 5475,
    "tia": 5476,
    "trarre": 5477,
    "trovai": 5478,
    "ttere": 5479,
    "ute,": 5480,
    "uscita": 5481,
    "uscito": 5482,
    "vana": 5483,
    "vedo": 5484,
    "verità,": 5485,
    "vinci": 5486,
    "zioni.": 5487,
    "Att": 5488,
    "Alcuni": 5489,
    "Bartolo": 5490,
    "Comin": 5491,
    "Erano": 5492,
    "Egitto": 5493,
    "Ghibellini": 5494,
    "Guelfi": 5495,
    "IV": 5496,
    "Ier": 5497,
    "Lombardia,": 5498,
    "Lucca,": 5499,
    "Mal": 5500,
    "Moscovia,": 5501,
    "Piero,": 5502,
    "Regno": 5503,
    "SIMO": 5504,
    "Savoi": 5505,
    "Sicili": 5506,
    "Tolo": 5507,
    "Torna": 5508,
    "Uber": 5509,
    "Ugolotto": 5510,
    "ata": 5511,
    "ava": 5512,
    "avari": 5513,
    "addosso": 5514,
    "aiuti": 5515,
    "alloggi": 5516,
    "andali": 5517,
    "armati": 5518,
    "arrivò": 5519,
    "attacca": 5520,
    "attendere": 5521,
    "avanza": 5522,
    "barche": 5523,
    "braccia,": 5524,
    "brevi": 5525,
    "brigata": 5526,
    "camino": 5527,
    "cammina": 5528,
    "cavalcare": 5529,
    "chiamar": 5530,
    "chiamava": 5531,
    "civi": 5532,
    "civile": 5533,
    "cotale": 5534,
    "comandamenti": 5535,
    "combattendo": 5536,
    "compagni,": 5537,
    "conosco": 5538,
    "corni": 5539,
    "corro": 5540,
    "cortese": 5541,
    "cose.": 5542,
    "d'Ar": 5543,
    "dargli": 5544,
    "degl’": 5545,
    "diremo": 5546,
    "discorso": 5547,
    "diserto": 5548,
    "dori,": 5549,
    "dove,": 5550,
    "ede": 5551,
    "entrato": 5552,
    "falsi": 5553,
    "fice": 5554,
    "fiata": 5555,
    "finestre": 5556,
    "fiumi,": 5557,
    "francesi": 5558,
    "fronte": 5559,
    "fur": 5560,
    "ganti": 5561,
    "giac": 5562,
    "giani": 5563,
    "gridando": 5564,
    "guardare": 5565,
    "invita": 5566,
    "incredibile": 5567,
    "indul": 5568,
    "indulgen": 5569,
    "ingegno,": 5570,
    "intese": 5571,
    "interpre": 5572,
    "lava": 5573,
    "lazioni": 5574,
    "lasciarono": 5575,
    "lavorato": 5576,
    "lavorò": 5577,
    "le;": 5578,
    "levata": 5579,
    "libertà,": 5580,
    "mare.": 5581,
    "maestro,": 5582,
    "manifesto": 5583,
    "marti": 5584,
    "menzione": 5585,
    "mercanti": 5586,
    "meser": 5587,
    "mezzogiorno": 5588,
    "migliaia": 5589,
    "mosse": 5590,
    "natura,": 5591,
    "naturali": 5592,
    "nocchi": 5593,
    "nuovamente": 5594,
    "ostante": 5595,
    "ono.": 5596,
    "oriente": 5597,
    "origin": 5598,
    "pensar": 5599,
    "pensò": 5600,
    "pensava": 5601,
    "però,": 5602,
    "pittore": 5603,
    "più,": 5604,
    "poscia": 5605,
    "potenzia": 5606,
    "privati": 5607,
    "progre": 5608,
    "proi": 5609,
    "quattromila": 5610,
    "rne": 5611,
    "rego": 5612,
    "rei": 5613,
    "ricerca": 5614,
    "ripu": 5615,
    "risposero": 5616,
    "rispondere": 5617,
    "rovin": 5618,
    "rompere": 5619,
    "smo": 5620,
    "sona": 5621,
    "spie": 5622,
    "sacerdoti": 5623,
    "secolo": 5624,
    "signoria,": 5625,
    "sospetti": 5626,
    "sperando": 5627,
    "straordina": 5628,
    "sub": 5629,
    "sum": 5630,
    "tella": 5631,
    "tù": 5632,
    "tico": 5633,
    "troppa": 5634,
    "ttone": 5635,
    "uficio": 5636,
    "umane": 5637,
    "us,": 5638,
    "usar": 5639,
    "veggiamo": 5640,
    "viver": 5641,
    "voglia,": 5642,
    "volto": 5643,
    "##": 5644,
    "2.": 5645,
    "23": 5646,
    "Bel": 5647,
    "Bocca": 5648,
    "Berna": 5649,
    "Boe": 5650,
    "Capi": 5651,
    "Constantino": 5652,
    "Isma": 5653,
    "Milane": 5654,
    "Oh": 5655,
    "Parigi,": 5656,
    "Perché,": 5657,
    "Proven": 5658,
    "Sole,": 5659,
    "Trento": 5660,
    "XXX": 5661,
    "abbandon": 5662,
    "alb": 5663,
    "altramente": 5664,
    "anze": 5665,
    "arebbono": 5666,
    "aspra": 5667,
    "assaltare": 5668,
    "averlo": 5669,
    "biasi": 5670,
    "bol": 5671,
    "caldo": 5672,
    "canoni": 5673,
    "cavalleria": 5674,
    "cena": 5675,
    "chi.": 5676,
    "commesso": 5677,
    "commissione": 5678,
    "conci": 5679,
    "crudele": 5680,
    "custo": 5681,
    "desti": 5682,
    "dá": 5683,
    "d'An": 5684,
    "d'O": 5685,
    "d'altra": 5686,
    "d'argento": 5687,
    "decreto": 5688,
    "dena": 5689,
    "denti,": 5690,
    "dimor": 5691,
    "dimost": 5692,
    "distin": 5693,
    "eloqu": 5694,
    "enim": 5695,
    "erei": 5696,
    "esce": 5697,
    "esecuzione": 5698,
    "essersi": 5699,
    "estima": 5700,
    "ff": 5701,
    "febbra": 5702,
    "felicità": 5703,
    "fieramente": 5704,
    "fiorentino,": 5705,
    "fornire": 5706,
    "fortezze": 5707,
    "gnon": 5708,
    "ggia,": 5709,
    "ggiunse": 5710,
    "gnano": 5711,
    "guari": 5712,
    "impa": 5713,
    "infermi": 5714,
    "infinito": 5715,
    "ingiuria": 5716,
    "institui": 5717,
    "interesse": 5718,
    "l'as": 5719,
    "lai": 5720,
    "lata": 5721,
    "lasciati": 5722,
    "levarsi": 5723,
    "lingu": 5724,
    "mante": 5725,
    "mantenere": 5726,
    "memoria,": 5727,
    "molesti": 5728,
    "nascere": 5729,
    "naviga": 5730,
    "ogge": 5731,
    "offeri": 5732,
    "oni.": 5733,
    "operazioni": 5734,
    "orno": 5735,
    "parlando": 5736,
    "penna": 5737,
    "picciolo": 5738,
    "ponente,": 5739,
    "possessioni": 5740,
    "preten": 5741,
    "promettendo": 5742,
    "proposta": 5743,
    "provincie,": 5744,
    "prudenti": 5745,
    "quer": 5746,
    "r,": 5747,
    "rone": 5748,
    "raggi": 5749,
    "rami": 5750,
    "rapi": 5751,
    "refra": 5752,
    "rem": 5753,
    "rimanente": 5754,
    "rina,": 5755,
    "smar": 5756,
    "scusa": 5757,
    "sedia": 5758,
    "semplice": 5759,
    "sicurtà": 5760,
    "sinistra": 5761,
    "somigli": 5762,
    "sott": 5763,
    "sovente": 5764,
    "spagno": 5765,
    "stanza,": 5766,
    "su,": 5767,
    "toni": 5768,
    "tavano": 5769,
    "tarsi": 5770,
    "terreno": 5771,
    "tissimo": 5772,
    "tormenti": 5773,
    "tuzione": 5774,
    "ubbidienza": 5775,
    "vecchio,": 5776,
    "vegg": 5777,
    "venuto,": 5778,
    "vestimenti": 5779,
    "villani": 5780,
    "volonta": 5781,
    "\n\n              ": 5782,
    "33": 5783,
    "AB": 5784,
    "Aveva": 5785,
    "ANNI": 5786,
    "Benti": 5787,
    "Boni": 5788,
    "Bru": 5789,
    "Cav": 5790,
    "Cristi": 5791,
    "Cima": 5792,
    "Ecc": 5793,
    "Far": 5794,
    "Galea": 5795,
    "Gra": 5796,
    "Girolamo": 5797,
    "Guas": 5798,
    "India": 5799,
    "Ismael": 5800,
    "Lucche": 5801,
    "MON": 5802,
    "Magnifico": 5803,
    "Numi": 5804,
    "Narsin": 5805,
    "Nov": 5806,
    "Nondimeno": 5807,
    "Oltra": 5808,
    "Pia": 5809,
    "Pietro,": 5810,
    "SO": 5811,
    "Scipi": 5812,
    "Ste": 5813,
    "Tauris": 5814,
    "Tutte": 5815,
    "VIII.": 5816,
    "alu": 5817,
    "allato": 5818,
    "ammaestra": 5819,
    "amato": 5820,
    "antichi,": 5821,
    "appetito": 5822,
    "arren": 5823,
    "aspettar": 5824,
    "avvegna": 5825,
    "avere,": 5826,
    "bamba": 5827,
    "bre,": 5828,
    "baroni,": 5829,
    "battere": 5830,
    "benefi": 5831,
    "cesse": 5832,
    "clu": 5833,
    "cadu": 5834,
    "campagna": 5835,
    "capella": 5836,
    "carta": 5837,
    "cardinale,": 5838,
    "cavar": 5839,
    "cciar": 5840,
    "certo,": 5841,
    "chessa": 5842,
    "colpe": 5843,
    "cominciamento": 5844,
    "conferma": 5845,
    "converti": 5846,
    "cosci": 5847,
    "costoro,": 5848,
    "costuma": 5849,
    "creato": 5850,
    "croci": 5851,
    "d'amore": 5852,
    "decreti": 5853,
    "dell'altre": 5854,
    "dell'arte": 5855,
    "desidero": 5856,
    "disso": 5857,
    "distante": 5858,
    "divenne": 5859,
    "divini": 5860,
    "esegui": 5861,
    "farò": 5862,
    "figure,": 5863,
    "frate,": 5864,
    "furore": 5865,
    "gambe": 5866,
    "giar": 5867,
    "glia.": 5868,
    "grandemente": 5869,
    "guasta": 5870,
    "han": 5871,
    "ie,": 5872,
    "ius": 5873,
    "invidia": 5874,
    "l'altra,": 5875,
    "largo": 5876,
    "legitti": 5877,
    "mbu": 5878,
    "mada": 5879,
    "maniere": 5880,
    "medico": 5881,
    "mezzi": 5882,
    "mercan": 5883,
    "mirabile": 5884,
    "mos": 5885,
    "monache": 5886,
    "monia": 5887,
    "mormo": 5888,
    "nando": 5889,
    "ner": 5890,
    "nata": 5891,
    "nomin": 5892,
    "novi": 5893,
    "novelle,": 5894,
    "nuovo,": 5895,
    "onesti": 5896,
    "opere,": 5897,
    "orecchie": 5898,
    "prin": 5899,
    "parenta": 5900,
    "partirono": 5901,
    "perdona": 5902,
    "peradore": 5903,
    "percioché,": 5904,
    "perpetua": 5905,
    "piu": 5906,
    "podestà": 5907,
    "possano": 5908,
    "protestanti": 5909,
    "questione": 5910,
    "ragionamento": 5911,
    "rando,": 5912,
    "regioni": 5913,
    "ripa": 5914,
    "rimedi": 5915,
    "ringra": 5916,
    "roba": 5917,
    "ruina": 5918,
    "sbi": 5919,
    "sun": 5920,
    "samente,": 5921,
    "sappia": 5922,
    "sed": 5923,
    "sete": 5924,
    "soleva": 5925,
    "sorella": 5926,
    "spedi": 5927,
    "ssi.": 5928,
    "stero": 5929,
    "stor": 5930,
    "tane": 5931,
    "terra;": 5932,
    "totalmente": 5933,
    "tolta": 5934,
    "torni": 5935,
    "torri": 5936,
    "tortura": 5937,
    "traffi": 5938,
    "trib": 5939,
    "trovammo": 5940,
    "turi": 5941,
    "tur;": 5942,
    "usan": 5943,
    "uscì": 5944,
    "vamente": 5945,
    "vedesse": 5946,
    "velocità": 5947,
    "vicine": 5948,
    "vittorio": 5949,
    "voli,": 5950,
    "zzare": 5951,
    "\n\n                                ": 5952,
    "      ": 5953,
    "Ago": 5954,
    "Augu": 5955,
    "Bavero": 5956,
    "Biancifiore,": 5957,
    "Calav": 5958,
    "Camba": 5959,
    "Carlo,": 5960,
    "Carra": 5961,
    "Castel": 5962,
    "Ciro": 5963,
    "Consi": 5964,
    "DELLO": 5965,
    "E'": 5966,
    "Federico": 5967,
    "Firenze;": 5968,
    "ITO": 5969,
    "Nuova": 5970,
    "Ottavi": 5971,
    "PER": 5972,
    "PI": 5973,
    "Ram": 5974,
    "Sol": 5975,
    "Sopra": 5976,
    "Tutta": 5977,
    "ZIONE": 5978,
    "ate": 5979,
    "aband": 5980,
    "acquistò": 5981,
    "adoper": 5982,
    "altezza": 5983,
    "altro.": 5984,
    "amava": 5985,
    "amanti": 5986,
    "amendue": 5987,
    "ammirazione": 5988,
    "ana.": 5989,
    "ancorché": 5990,
    "andare,": 5991,
    "andata": 5992,
    "aperto": 5993,
    "arrivato": 5994,
    "arrivammo": 5995,
    "assai.": 5996,
    "atque": 5997,
    "avendone": 5998,
    "aventura": 5999,
    "bona": 6000,
    "bone": 6001,
    "bellissimi": 6002,
    "benivol": 6003,
    "bianchi": 6004,
    "bisogno,": 6005,
    "cadere": 6006,
    "camin": 6007,
    "cacique": 6008,
    "cambi": 6009,
    "capitoli": 6010,
    "ch,": 6011,
    "chin": 6012,
    "chiamò": 6013,
    "ch’e’": 6014,
    "ch’io": 6015,
    "cominciano": 6016,
    "compassione": 6017,
    "confusione": 6018,
    "contempla": 6019,
    "costumi,": 6020,
    "d'Are": 6021,
    "debbono": 6022,
    "dechiara": 6023,
    "dezza": 6024,
    "dicia": 6025,
    "dii": 6026,
    "dietro,": 6027,
    "differenza": 6028,
    "disputa": 6029,
    "dolente": 6030,
    "doni,": 6031,
    "doveano": 6032,
    "dovette": 6033,
    "dum": 6034,
    "durò": 6035,
    "dute": 6036,
    "enato": 6037,
    "erá": 6038,
    "fanta": 6039,
    "fera": 6040,
    "fun": 6041,
    "faremo": 6042,
    "frica,": 6043,
    "furia": 6044,
    "giudicare": 6045,
    "gliele": 6046,
    "gratitudine": 6047,
    "ita": 6048,
    "imperiale": 6049,
    "incominciò": 6050,
    "inimici,": 6051,
    "l'avea": 6052,
    "l'onore": 6053,
    "l'oste": 6054,
    "laude": 6055,
    "leggendo": 6056,
    "levati": 6057,
    "lis": 6058,
    "m'ha": 6059,
    "mandata": 6060,
    "mandate": 6061,
    "mattina,": 6062,
    "morte.": 6063,
    "movimenti": 6064,
    "nipo": 6065,
    "no.": 6066,
    "obbli": 6067,
    "ozio": 6068,
    "occor": 6069,
    "occorre": 6070,
    "onato": 6071,
    "ordinata": 6072,
    "pono": 6073,
    "ppi": 6074,
    "puoi": 6075,
    "palmi": 6076,
    "parole:": 6077,
    "passato,": 6078,
    "patria,": 6079,
    "pervenne": 6080,
    "piccole": 6081,
    "podere": 6082,
    "pregando": 6083,
    "promise": 6084,
    "rl": 6085,
    "rla": 6086,
    "racco": 6087,
    "reali": 6088,
    "reggimento": 6089,
    "riempi": 6090,
    "risposta,": 6091,
    "sacco": 6092,
    "scrittu": 6093,
    "seco,": 6094,
    "setten": 6095,
    "seguaci": 6096,
    "seguitare": 6097,
    "signoreggia": 6098,
    "sorte,": 6099,
    "spin": 6100,
    "spirito": 6101,
    "ssima.": 6102,
    "stanzi": 6103,
    "superbi": 6104,
    "tela": 6105,
    "te:": 6106,
    "temere": 6107,
    "tornar": 6108,
    "varono": 6109,
    "veste": 6110,
    "vendi": 6111,
    "vicario": 6112,
    "via.": 6113,
    "volgar": 6114,
    "                                                ": 6115,
    "(e": 6116,
    ");": 6117,
    "11": 6118,
    "4.": 6119,
    "40": 6120,
    "Ambro": 6121,
    "Apostoli": 6122,
    "ANDELLO": 6123,
    "Alessandria": 6124,
    "Appresso": 6125,
    "Aristotile": 6126,
    "BANDELLO": 6127,
    "Battista": 6128,
    "Bonifa": 6129,
    "CE": 6130,
    "Calicut": 6131,
    "Catalani": 6132,
    "Ché": 6133,
    "Cimabu": 6134,
    "Costoro": 6135,
    "Dal": 6136,
    "Dico": 6137,
    "Fo": 6138,
    "Ferondo": 6139,
    "Franceschi": 6140,
    "Furono": 6141,
    "Gas": 6142,
    "Gesù": 6143,
    "Gonza": 6144,
    "Inghilesi": 6145,
    "Lib": 6146,
    "Lib.": 6147,
    "Lorenzo,": 6148,
    "Oce": 6149,
    "Plin": 6150,
    "Pavia,": 6151,
    "Persia": 6152,
    "Porta": 6153,
    "Quello": 6154,
    "Res": 6155,
    "Santitá": 6156,
    "Spirito": 6157,
    "Tutti": 6158,
    "Uno": 6159,
    "Ungheria,": 6160,
    "Vinegia": 6161,
    "ZA": 6162,
    "asten": 6163,
    "accresc": 6164,
    "affati": 6165,
    "altrove": 6166,
    "an,": 6167,
    "andone": 6168,
    "andolo": 6169,
    "anima,": 6170,
    "aperta": 6171,
    "assino": 6172,
    "assass": 6173,
    "assedi": 6174,
    "bande": 6175,
    "bella,": 6176,
    "benchè": 6177,
    "berre": 6178,
    "cale": 6179,
    "ccar": 6180,
    "cell": 6181,
    "cina": 6182,
    "caso,": 6183,
    "carestia": 6184,
    "cerchio": 6185,
    "coro": 6186,
    "collegati": 6187,
    "color": 6188,
    "cominciorono": 6189,
    "cominciato": 6190,
    "crudeltà": 6191,
    "d,": 6192,
    "d'essi": 6193,
    "diletta": 6194,
    "diligenzia": 6195,
    "discip": 6196,
    "domina": 6197,
    "dono,": 6198,
    "dormire": 6199,
    "dubio": 6200,
    "d’ogni": 6201,
    "edificata": 6202,
    "ele,": 6203,
    "endogli": 6204,
    "fora": 6205,
    "garz": 6206,
    "genna": 6207,
    "gli.": 6208,
    "grandezza,": 6209,
    "greco": 6210,
    "ip": 6211,
    "importanza": 6212,
    "indo": 6213,
    "ingino": 6214,
    "intelligen": 6215,
    "ju": 6216,
    "lass": 6217,
    "latini": 6218,
    "lasciata": 6219,
    "lezione": 6220,
    "legger": 6221,
    "lio,": 6222,
    "libertá": 6223,
    "lungi": 6224,
    "magistrati": 6225,
    "magnifico": 6226,
    "mano.": 6227,
    "medio": 6228,
    "modo:": 6229,
    "mutare": 6230,
    "mutazione": 6231,
    "n'era": 6232,
    "n'è": 6233,
    "necessaria": 6234,
    "necessitá": 6235,
    "niun": 6236,
    "noi.": 6237,
    "openi": 6238,
    "opinioni": 6239,
    "oratori": 6240,
    "parati": 6241,
    "pater": 6242,
    "parlamento": 6243,
    "perfec": 6244,
    "pitto": 6245,
    "piace,": 6246,
    "ponimento": 6247,
    "portavano": 6248,
    "profe": 6249,
    "publico": 6250,
    "può,": 6251,
    "quaresi": 6252,
    "quadri": 6253,
    "quando,": 6254,
    "quiete": 6255,
    "rallegra": 6256,
    "rappresen": 6257,
    "reale": 6258,
    "ri;": 6259,
    "rifi": 6260,
    "rim": 6261,
    "ricano": 6262,
    "ridusse": 6263,
    "rilievo": 6264,
    "ringrazi": 6265,
    "ritrasse": 6266,
    "romano,": 6267,
    "ste,": 6268,
    "scalco": 6269,
    "setta": 6270,
    "sentire": 6271,
    "siate": 6272,
    "solenni": 6273,
    "sopradetto": 6274,
    "spendere": 6275,
    "stà": 6276,
    "sugge": 6277,
    "susci": 6278,
    "sua;": 6279,
    "suole": 6280,
    "tris": 6281,
    "tasse": 6282,
    "tardi": 6283,
    "toglie": 6284,
    "tori.": 6285,
    "trans": 6286,
    "trovata": 6287,
    "tt'": 6288,
    "tti.": 6289,
    "tudini": 6290,
    "udire": 6291,
    "udita": 6292,
    "uscio": 6293,
    "vati": 6294,
    "vantaggio": 6295,
    "venissero": 6296,
    "vidi": 6297,
    "voto": 6298,
    "volontá": 6299,
    "zzione": 6300,
    "zzar": 6301,
    "           ": 6302,
    "             ": 6303,
    "21": 6304,
    "37": 6305,
    "5.": 6306,
    "50": 6307,
    "Ascel": 6308,
    "Ancora": 6309,
    "CAPITO": 6310,
    "CAPITOLO": 6311,
    "Col": 6312,
    "Cosimo": 6313,
    "Conte": 6314,
    "Cornel": 6315,
    "Fini": 6316,
    "Gamba": 6317,
    "Gianni": 6318,
    "Guar": 6319,
    "Ispa": 6320,
    "Innocen": 6321,
    "Indiani,": 6322,
    "Lasc": 6323,
    "Madonna": 6324,
    "Mantova": 6325,
    "Mentre": 6326,
    "Oim": 6327,
    "Pando": 6328,
    "Rosso": 6329,
    "Ruber": 6330,
    "SER": 6331,
    "Sarsi": 6332,
    "Tal": 6333,
    "Ten": 6334,
    "Vincen": 6335,
    "abbatt": 6336,
    "accol": 6337,
    "acconcia": 6338,
    "affermando": 6339,
    "alto,": 6340,
    "alcuni,": 6341,
    "all'altra": 6342,
    "ascia": 6343,
    "auda": 6344,
    "avviso": 6345,
    "avanti,": 6346,
    "avenne": 6347,
    "avesse,": 6348,
    "bac": 6349,
    "bales": 6350,
    "barca": 6351,
    "bbiamo": 6352,
    "benigni": 6353,
    "cammino,": 6354,
    "carichi": 6355,
    "catuno": 6356,
    "cende": 6357,
    "centomila": 6358,
    "cercava": 6359,
    "chiunque": 6360,
    "cole,": 6361,
    "cognoscere": 6362,
    "compera": 6363,
    "consegu": 6364,
    "conte,": 6365,
    "concesso": 6366,
    "congiura": 6367,
    "conobbe": 6368,
    "conseglio": 6369,
    "cortegiano": 6370,
    "drap": 6371,
    "dam": 6372,
    "dap": 6373,
    "dare,": 6374,
    "dev": 6375,
    "dersi": 6376,
    "divisione": 6377,
    "duemila": 6378,
    "dì,": 6379,
    "e;": 6380,
    "evi": 6381,
    "entr": 6382,
    "esercizio": 6383,
    "essen": 6384,
    "fè": 6385,
    "facul": 6386,
    "favella": 6387,
    "fanter": 6388,
    "farvi": 6389,
    "fece.": 6390,
    "fede.": 6391,
    "ferenza": 6392,
    "fossa": 6393,
    "frati,": 6394,
    "gri,": 6395,
    "gato,": 6396,
    "gesima": 6397,
    "giù": 6398,
    "giova": 6399,
    "giudicio,": 6400,
    "gne,": 6401,
    "governator": 6402,
    "greca": 6403,
    "guardia,": 6404,
    "guardie": 6405,
    "ignu": 6406,
    "immediate": 6407,
    "intanto": 6408,
    "indugio": 6409,
    "intendeva": 6410,
    "intorno,": 6411,
    "l'av": 6412,
    "l'oro": 6413,
    "lasciate": 6414,
    "leg": 6415,
    "leggieri": 6416,
    "lingue": 6417,
    "luglio": 6418,
    "l’istesso": 6419,
    "mati": 6420,
    "malincon": 6421,
    "mandava": 6422,
    "marzo": 6423,
    "maravigliosa": 6424,
    "metto": 6425,
    "mettesse": 6426,
    "miseramente": 6427,
    "momento": 6428,
    "mossi": 6429,
    "monaco": 6430,
    "morí": 6431,
    "mus": 6432,
    "muover": 6433,
    "narrare": 6434,
    "natural": 6435,
    "necessarie": 6436,
    "novella,": 6437,
    "oneste": 6438,
    "onorata": 6439,
    "onorati": 6440,
    "operare": 6441,
    "operazione": 6442,
    "opposi": 6443,
    "ordinare": 6444,
    "paesani": 6445,
    "partendosi": 6446,
    "paura,": 6447,
    "pezza": 6448,
    "pensiero,": 6449,
    "pietá": 6450,
    "piaceva": 6451,
    "plebei": 6452,
    "portando": 6453,
    "potessi": 6454,
    "predetto": 6455,
    "prela": 6456,
    "presero": 6457,
    "profon": 6458,
    "pronti": 6459,
    "rare,": 6460,
    "ragona": 6461,
    "rica": 6462,
    "riprese": 6463,
    "riten": 6464,
    "ritornando": 6465,
    "romana,": 6466,
    "sdegna": 6467,
    "sesto": 6468,
    "s'erano": 6469,
    "sacrificio": 6470,
    "sancta": 6471,
    "scoperto": 6472,
    "semina": 6473,
    "seguì": 6474,
    "seno": 6475,
    "senz": 6476,
    "settembre": 6477,
    "spetta": 6478,
    "s’era": 6479,
    "tine": 6480,
    "t'ho": 6481,
    "talvolta": 6482,
    "tione": 6483,
    "tron": 6484,
    "trae": 6485,
    "tra’": 6486,
    "universo": 6487,
    "vada": 6488,
    "vangeli": 6489,
    "veloci": 6490,
    "vento,": 6491,
    "viso,": 6492,
    "vittua": 6493,
    "viol": 6494,
    "vitupero": 6495,
    "volete": 6496,
    "ww": 6497,
    "       ": 6498,
    "36": 6499,
    "A'": 6500,
    "Abra": 6501,
    "CHE": 6502,
    "CI:": 6503,
    "COR": 6504,
    "Cairo,": 6505,
    "Carta": 6506,
    "Circa": 6507,
    "Colonna": 6508,
    "Cremon": 6509,
    "Dis": 6510,
    "Dio.": 6511,
    "Enrico": 6512,
    "Feli": 6513,
    "GRE": 6514,
    "Giove": 6515,
    "Greci": 6516,
    "Grecia,": 6517,
    "Idio": 6518,
    "India,": 6519,
    "Lam": 6520,
    "Lan": 6521,
    "Lattan": 6522,
    "Lasceremo": 6523,
    "Mer": 6524,
    "MONDO": 6525,
    "Marco,": 6526,
    "Nor": 6527,
    "Nicuo": 6528,
    "Perugia,": 6529,
    "Sforza,": 6530,
    "Sin": 6531,
    "State": 6532,
    "Satur": 6533,
    "TTA": 6534,
    "agosto": 6535,
    "alloggiamento": 6536,
    "altresí": 6537,
    "altri;": 6538,
    "ambasciator": 6539,
    "anese": 6540,
    "anamente": 6541,
    "andassero": 6542,
    "appicca": 6543,
    "appro": 6544,
    "ardente": 6545,
    "arsi,": 6546,
    "atteso": 6547,
    "augu": 6548,
    "autore": 6549,
    "avviene": 6550,
    "bba": 6551,
    "c,": 6552,
    "cara,": 6553,
    "capitani,": 6554,
    "cardinali,": 6555,
    "casa.": 6556,
    "cattivi": 6557,
    "civili": 6558,
    "colpo": 6559,
    "conforto": 6560,
    "conosciuta": 6561,
    "contrari": 6562,
    "conveniva": 6563,
    "cortesia": 6564,
    "cospetto": 6565,
    "derano": 6566,
    "d'alcuni": 6567,
    "d'essere": 6568,
    "darli": 6569,
    "di'": 6570,
    "dichia": 6571,
    "difesa,": 6572,
    "difficoltá": 6573,
    "dispiac": 6574,
    "disposto": 6575,
    "dissono": 6576,
    "discordie": 6577,
    "disposizione": 6578,
    "diversità": 6579,
    "doloro": 6580,
    "d’Inghilterra,": 6581,
    "d’arme": 6582,
    "d’aver": 6583,
    "episco": 6584,
    "erebbono": 6585,
    "ero.": 6586,
    "essa,": 6587,
    "esserci": 6588,
    "essione,": 6589,
    "facessi": 6590,
    "farla": 6591,
    "fare;": 6592,
    "finita": 6593,
    "franz": 6594,
    "fuggir": 6595,
    "gallo": 6596,
    "ggi,": 6597,
    "giudica": 6598,
    "grato": 6599,
    "guadagna": 6600,
    "istessa": 6601,
    "imagina": 6602,
    "iure": 6603,
    "lanci": 6604,
    "l'aver": 6605,
    "l'avere": 6606,
    "l'essere": 6607,
    "l'armata": 6608,
    "lasciano": 6609,
    "lavoro": 6610,
    "levarono": 6611,
    "levante,": 6612,
    "loggia": 6613,
    "logi": 6614,
    "luogo.": 6615,
    "là,": 6616,
    "l’a": 6617,
    "l’una": 6618,
    "merci": 6619,
    "mese,": 6620,
    "mpe": 6621,
    "matura": 6622,
    "mai.": 6623,
    "mana": 6624,
    "materie": 6625,
    "mene": 6626,
    "merito": 6627,
    "mescola": 6628,
    "mila,": 6629,
    "misti": 6630,
    "monio,": 6631,
    "monsignor": 6632,
    "mostrato": 6633,
    "nes": 6634,
    "n'ho": 6635,
    "navi,": 6636,
    "nell'altre": 6637,
    "nozze": 6638,
    "nullo": 6639,
    "obbe": 6640,
    "ottanta": 6641,
    "obedi": 6642,
    "occupato": 6643,
    "onesto": 6644,
    "onorar": 6645,
    "paesi,": 6646,
    "pagar": 6647,
    "pacifi": 6648,
    "partori": 6649,
    "parte.": 6650,
    "partiene": 6651,
    "pedoni": 6652,
    "pezzi": 6653,
    "pensieri,": 6654,
    "perde": 6655,
    "personalmente": 6656,
    "picciola": 6657,
    "piccioli": 6658,
    "posa": 6659,
    "pontefice.": 6660,
    "porto,": 6661,
    "posto,": 6662,
    "possiamo": 6663,
    "precipi": 6664,
    "pregio": 6665,
    "prezio": 6666,
    "prendendo": 6667,
    "prestamente": 6668,
    "proposito,": 6669,
    "prosperi": 6670,
    "quest'opera": 6671,
    "quisti": 6672,
    "raccogli": 6673,
    "ragionare": 6674,
    "republica,": 6675,
    "resistenza": 6676,
    "riche": 6677,
    "ridotto": 6678,
    "rifor": 6679,
    "ritratti": 6680,
    "spre": 6681,
    "saga": 6682,
    "scaccia": 6683,
    "secoli": 6684,
    "sempre,": 6685,
    "sento": 6686,
    "sentimento": 6687,
    "sera,": 6688,
    "servono": 6689,
    "servir": 6690,
    "servitú": 6691,
    "silen": 6692,
    "siro": 6693,
    "siete": 6694,
    "soldi": 6695,
    "spetti": 6696,
    "speranza,": 6697,
    "sposa": 6698,
    "té": 6699,
    "taci": 6700,
    "tai": 6701,
    "tamen": 6702,
    "tese": 6703,
    "temmo": 6704,
    "ti:": 6705,
    "tirar": 6706,
    "tina,": 6707,
    "tormento": 6708,
    "tramontana,": 6709,
    "ttura,": 6710,
    "u,": 6711,
    "uscí": 6712,
    "vest": 6713,
    "vapo": 6714,
    "vaso": 6715,
    "varietà": 6716,
    "vedere.": 6717,
    "venute": 6718,
    "veruno": 6719,
    "vescovi,": 6720,
    "vidde": 6721,
    "viv": 6722,
    "vivan": 6723,
    "ville": 6724,
    "violen": 6725,
    "vost": 6726,
    "·llui": 6727,
    "\t\t": 6728,
    "Ad": 6729,
    "Alberto": 6730,
    "Buondel": 6731,
    "Cus": 6732,
    "Cater": 6733,
    "Comune,": 6734,
    "Eccell": 6735,
    "Fri": 6736,
    "Ferrara,": 6737,
    "Francia;": 6738,
    "GLI": 6739,
    "Galil": 6740,
    "Galeazzo": 6741,
    "Galilæ": 6742,
    "Ho": 6743,
    "Mam": 6744,
    "Moro": 6745,
    "Mau": 6746,
    "OR": 6747,
    "Oltre": 6748,
    "PRI": 6749,
    "Pen": 6750,
    "Perugini": 6751,
    "Pistoia,": 6752,
    "Qual": 6753,
    "Resta": 6754,
    "Romagna,": 6755,
    "Sci": 6756,
    "Sarac": 6757,
    "Salaba": 6758,
    "Sansovino": 6759,
    "Secondo": 6760,
    "Signori,": 6761,
    "Tuni": 6762,
    "Turchi": 6763,
    "Una": 6764,
    "VITA": 6765,
    "aë": 6766,
    "accosta": 6767,
    "accompagnato": 6768,
    "alquante": 6769,
    "alz": 6770,
    "alcuno.": 6771,
    "altrimenti,": 6772,
    "amorevole": 6773,
    "anzi,": 6774,
    "appunto": 6775,
    "arca": 6776,
    "artiglierie": 6777,
    "assono": 6778,
    "aspettava": 6779,
    "assalto": 6780,
    "avuti": 6781,
    "avarizia": 6782,
    "avevan": 6783,
    "barbu": 6784,
    "bbene": 6785,
    "bello,": 6786,
    "benigna": 6787,
    "cano,": 6788,
    "cche,": 6789,
    "cere,": 6790,
    "cesa": 6791,
    "cla": 6792,
    "cagion": 6793,
    "cane": 6794,
    "canz": 6795,
    "capelli": 6796,
    "cci,": 6797,
    "cesi,": 6798,
    "chil": 6799,
    "ciano,": 6800,
    "cima": 6801,
    "ciascuno,": 6802,
    "circo": 6803,
    "circuito": 6804,
    "com’": 6805,
    "concorre": 6806,
    "concilio.": 6807,
    "conclusione": 6808,
    "conosciuti": 6809,
    "considerato": 6810,
    "coperta": 6811,
    "correr": 6812,
    "crescere": 6813,
    "cristiana": 6814,
    "curio": 6815,
    "d'I": 6816,
    "d'Italia": 6817,
    "de;": 6818,
    "debita": 6819,
    "desiderava": 6820,
    "di.": 6821,
    "dichiara": 6822,
    "dife": 6823,
    "dire.": 6824,
    "diate": 6825,
    "dimostrare": 6826,
    "disegno,": 6827,
    "disordine": 6828,
    "divide": 6829,
    "divisa": 6830,
    "dore.": 6831,
    "dovevano": 6832,
    "dubito": 6833,
    "ensi": 6834,
    "esempli": 6835,
    "falli": 6836,
    "facc": 6837,
    "facilità": 6838,
    "fermarono": 6839,
    "figliuol": 6840,
    "finito": 6841,
    "fondata": 6842,
    "forz": 6843,
    "freno": 6844,
    "fuit": 6845,
    "furio": 6846,
    "generali": 6847,
    "ggiando": 6848,
    "giardino": 6849,
    "giornate": 6850,
    "gner": 6851,
    "go.": 6852,
    "governo,": 6853,
    "grafia": 6854,
    "impicca": 6855,
    "inconveni": 6856,
    "instanzia": 6857,
    "inimico": 6858,
    "insieme.": 6859,
    "interro": 6860,
    "isola,": 6861,
    "l'af": 6862,
    "l'intelle": 6863,
    "l'ultima": 6864,
    "larghe": 6865,
    "letto,": 6866,
    "leggere": 6867,
    "lingua,": 6868,
    "luglio,": 6869,
    "maggio,": 6870,
    "mandano": 6871,
    "marmo,": 6872,
    "masnadi": 6873,
    "medes": 6874,
    "membra": 6875,
    "medesimi,": 6876,
    "menar": 6877,
    "merce": 6878,
    "mercante": 6879,
    "metteva": 6880,
    "minacci": 6881,
    "misericor": 6882,
    "modesti": 6883,
    "moderni": 6884,
    "mondo;": 6885,
    "nega": 6886,
    "nimico,": 6887,
    "nominata": 6888,
    "occupare": 6889,
    "ottimamente": 6890,
    "parente": 6891,
    "parentado": 6892,
    "passioni": 6893,
    "piano,": 6894,
    "piccol": 6895,
    "pigliando": 6896,
    "pittura,": 6897,
    "polvere": 6898,
    "portata": 6899,
    "portati": 6900,
    "posetur;": 6901,
    "potete": 6902,
    "prego": 6903,
    "privato": 6904,
    "principal": 6905,
    "propose": 6906,
    "prudente": 6907,
    "punto,": 6908,
    "reposetur;": 6909,
    "restar": 6910,
    "rettori": 6911,
    "reputazione": 6912,
    "ribelli": 6913,
    "ripos": 6914,
    "riva": 6915,
    "ritornarono": 6916,
    "robe": 6917,
    "rubella": 6918,
    "sano,": 6919,
    "sano.": 6920,
    "sò": 6921,
    "sacra": 6922,
    "sangue,": 6923,
    "sarò": 6924,
    "sbigotti": 6925,
    "scienza": 6926,
    "se;": 6927,
    "seta": 6928,
    "segretamente": 6929,
    "sena": 6930,
    "sene,": 6931,
    "similitudine": 6932,
    "soper": 6933,
    "specie": 6934,
    "ssono,": 6935,
    "supera": 6936,
    "sufficiente": 6937,
    "tri,": 6938,
    "tagliare": 6939,
    "tedeschi,": 6940,
    "teni": 6941,
    "tenebre": 6942,
    "tesori": 6943,
    "tisi": 6944,
    "tocc": 6945,
    "toli": 6946,
    "tosc": 6947,
    "tral": 6948,
    "trattar": 6949,
    "tua,": 6950,
    "ture,": 6951,
    "ubbidi": 6952,
    "umera": 6953,
    "unt": 6954,
    "varsi": 6955,
    "veduto,": 6956,
    "ventimila": 6957,
    "verrà": 6958,
    "vettovaglie,": 6959,
    "visse": 6960,
    "vicini,": 6961,
    "viene,": 6962,
    "virtù,": 6963,
    "virtú,": 6964,
    "vocato": 6965,
    "zio.": 6966,
    "zzato": 6967,
    "          ": 6968,
    "7,": 6969,
    "9.": 6970,
    "Adunque": 6971,
    "Agnolo": 6972,
    "Br": 6973,
    "Bian": 6974,
    "CL": 6975,
    "Clau": 6976,
    "Caland": 6977,
    "Cicilia,": 6978,
    "Claudio": 6979,
    "DA": 6980,
    "ET": 6981,
    "Ecco": 6982,
    "Filippo,": 6983,
    "GRECI:": 6984,
    "Gae": 6985,
    "Mediter": 6986,
    "Mediterrane": 6987,
    "Pero": 6988,
    "Pin": 6989,
    "Prato": 6990,
    "Puglia": 6991,
    "Puglia,": 6992,
    "QUI": 6993,
    "Romagna": 6994,
    "Sve": 6995,
    "Salam": 6996,
    "Sanesi": 6997,
    "Similmente": 6998,
    "Simone": 6999,
    "Tana": 7000,
    "Tito": 7001,
    "Trento,": 7002,
    "Viniziani,": 7003,
    "XXI": 7004,
    "abon": 7005,
    "amando": 7006,
    "astro": 7007,
    "a·lloro": 7008,
    "acer": 7009,
    "acquistar": 7010,
    "addu": 7011,
    "ali.": 7012,
    "aliena": 7013,
    "allegro": 7014,
    "allora,": 7015,
    "altresì": 7016,
    "apparten": 7017,
    "arabi": 7018,
    "argomento": 7019,
    "attendendo": 7020,
    "attendeva": 7021,
    "avevo": 7022,
    "avendosi": 7023,
    "avrei": 7024,
    "avventura": 7025,
    "bianco": 7026,
    "cela": 7027,
    "cami": 7028,
    "cassa": 7029,
    "cancelli": 7030,
    "carn": 7031,
    "chied": 7032,
    "chieri": 7033,
    "ch’avea": 7034,
    "cinto": 7035,
    "cogna": 7036,
    "cognosc": 7037,
    "colonne": 7038,
    "combatte": 7039,
    "comprendere": 7040,
    "cominciata": 7041,
    "condan": 7042,
    "consti": 7043,
    "conversa": 7044,
    "confessa": 7045,
    "confesso": 7046,
    "corna": 7047,
    "corru": 7048,
    "così,": 7049,
    "crebbe": 7050,
    "credu": 7051,
    "cristiani.": 7052,
    "cuore,": 7053,
    "cupidità": 7054,
    "dra": 7055,
    "d'agosto,": 7056,
    "d'altro": 7057,
    "defen": 7058,
    "dele": 7059,
    "destru": 7060,
    "dilett": 7061,
    "dizioni": 7062,
    "diame": 7063,
    "diavolo": 7064,
    "dignitá": 7065,
    "disco": 7066,
    "disciplina": 7067,
    "divisi": 7068,
    "domeni": 7069,
    "donz": 7070,
    "dumila": 7071,
    "ducati,": 7072,
    "d’oro": 7073,
    "elefanti": 7074,
    "esono": 7075,
    "esequi": 7076,
    "essendovi": 7077,
    "eterna": 7078,
    "fai": 7079,
    "favole": 7080,
    "facciate": 7081,
    "falsa": 7082,
    "fiam": 7083,
    "fieri": 7084,
    "figurati": 7085,
    "fratelli,": 7086,
    "frequ": 7087,
    "fresca": 7088,
    "garono": 7089,
    "garsi": 7090,
    "gamba": 7091,
    "geo": 7092,
    "geva": 7093,
    "ggion": 7094,
    "giurisdizione": 7095,
    "giustifica": 7096,
    "gl'iddii": 7097,
    "glieria": 7098,
    "glielmo": 7099,
    "gloria,": 7100,
    "gona,": 7101,
    "guadagno": 7102,
    "guardando": 7103,
    "guerra;": 7104,
    "iono": 7105,
    "irre": 7106,
    "illo,": 7107,
    "impedimento": 7108,
    "inquisi": 7109,
    "intollera": 7110,
    "invia": 7111,
    "ko": 7112,
    "lani,": 7113,
    "lti": 7114,
    "l'occhio": 7115,
    "l'ultimo": 7116,
    "l'asse": 7117,
    "l'artiglierie": 7118,
    "l'istesso": 7119,
    "lagrime,": 7120,
    "lasciava": 7121,
    "leghe,": 7122,
    "lecito": 7123,
    "liti": 7124,
    "libro,": 7125,
    "linea": 7126,
    "lo'": 7127,
    "lusin": 7128,
    "l’animo": 7129,
    "l’in": 7130,
    "mau": 7131,
    "maggiormente": 7132,
    "magistrato": 7133,
    "materia,": 7134,
    "meraviglia": 7135,
    "moglie.": 7136,
    "necessitato": 7137,
    "nessun": 7138,
    "numero,": 7139,
    "omici": 7140,
    "ossa": 7141,
    "onor": 7142,
    "onore.": 7143,
    "onorevole": 7144,
    "orazione": 7145,
    "pesta": 7146,
    "pato": 7147,
    "paese.": 7148,
    "palazzi": 7149,
    "parmi": 7150,
    "paro,": 7151,
    "parlò": 7152,
    "partimmo": 7153,
    "partito,": 7154,
    "petto,": 7155,
    "pena,": 7156,
    "perturba": 7157,
    "poner": 7158,
    "ponte,": 7159,
    "porali": 7160,
    "prima.": 7161,
    "provisi": 7162,
    "procede": 7163,
    "proibi": 7164,
    "proprii": 7165,
    "pura": 7166,
    "punte": 7167,
    "quæ": 7168,
    "rendo": 7169,
    "rmi": 7170,
    "ra.": 7171,
    "racqui": 7172,
    "rani": 7173,
    "randosi": 7174,
    "regi": 7175,
    "relazione": 7176,
    "reverenzia": 7177,
    "ricol": 7178,
    "riparo": 7179,
    "ricevuto,": 7180,
    "ricorda": 7181,
    "rimaso": 7182,
    "ritirò": 7183,
    "romani,": 7184,
    "sla": 7185,
    "s'io": 7186,
    "savia": 7187,
    "scandal": 7188,
    "scrivere,": 7189,
    "seguenti": 7190,
    "seguir": 7191,
    "seguitato": 7192,
    "semplici": 7193,
    "sentì": 7194,
    "sentiva": 7195,
    "sforzo": 7196,
    "sità": 7197,
    "sinodo": 7198,
    "soldato": 7199,
    "suoi.": 7200,
    "superiore": 7201,
    "tono": 7202,
    "tune": 7203,
    "talché": 7204,
    "terrestre": 7205,
    "tratt": 7206,
    "trice": 7207,
    "tò,": 7208,
    "udienza": 7209,
    "unzia": 7210,
    "uniti": 7211,
    "vagliono": 7212,
    "vegn": 7213,
    "vecchie": 7214,
    "vede,": 7215,
    "venire,": 7216,
    "veruna": 7217,
    "vicino,": 7218,
    "vittuaglia": 7219,
    "voce,": 7220,
    "vuoi": 7221,
    "ziona": 7222,
    "ía": 7223,
    "”,": 7224,
    "\n   ": 7225,
    "150": 7226,
    "55": 7227,
    "6.": 7228,
    "Ave": 7229,
    "Alessandro,": 7230,
    "Angelo": 7231,
    "Andreu": 7232,
    "Bran": 7233,
    "Bernabò": 7234,
    "Castru": 7235,
    "Cata": 7236,
    "Chiesa;": 7237,
    "Cicilia": 7238,
    "Croce": 7239,
    "Duomo": 7240,
    "Deh,": 7241,
    "Ducc": 7242,
    "Fieso": 7243,
    "Florio,": 7244,
    "GO": 7245,
    "Giulio,": 7246,
    "Lando": 7247,
    "ME": 7248,
    "Machiav": 7249,
    "Magno": 7250,
    "Massimi": 7251,
    "Mantova,": 7252,
    "Milano;": 7253,
    "Monfer": 7254,
    "Musta": 7255,
    "Mustaf": 7256,
    "Om": 7257,
    "Pas": 7258,
    "Pavia": 7259,
    "Perino": 7260,
    "Perugia": 7261,
    "Piac": 7262,
    "SA": 7263,
    "Salviati": 7264,
    "Scipione": 7265,
    "Signori": 7266,
    "Simpli": 7267,
    "Tedeschi": 7268,
    "Tombu": 7269,
    "Urbino,": 7270,
    "VO": 7271,
    "Vec": 7272,
    "Ved": 7273,
    "Vergine": 7274,
    "XI.": 7275,
    "XVI": 7276,
    "XII.": 7277,
    "abu": 7278,
    "aposto": 7279,
    "abbondante": 7280,
    "acciocché": 7281,
    "aderi": 7282,
    "aiu": 7283,
    "almanco": 7284,
    "altrui,": 7285,
    "ambe": 7286,
    "angu": 7287,
    "antecesso": 7288,
    "antica,": 7289,
    "appartiene": 7290,
    "appli": 7291,
    "appresso,": 7292,
    "arco": 7293,
    "argento": 7294,
    "arono.": 7295,
    "avano,": 7296,
    "avendolo": 7297,
    "balestra": 7298,
    "battuto": 7299,
    "bili.": 7300,
    "borghi": 7301,
    "c'": 7302,
    "cte": 7303,
    "capace": 7304,
    "cato,": 7305,
    "cacciati": 7306,
    "campani": 7307,
    "carne,": 7308,
    "castellano": 7309,
    "cavagli": 7310,
    "cavare": 7311,
    "ch'i": 7312,
    "chiese,": 7313,
    "chiare": 7314,
    "ch’aveano": 7315,
    "coda": 7316,
    "colei": 7317,
    "costrin": 7318,
    "combatterono": 7319,
    "comunemente": 7320,
    "cone": 7321,
    "convi": 7322,
    "congrega": 7323,
    "conosceva": 7324,
    "considerazione": 7325,
    "contessa": 7326,
    "convenevole": 7327,
    "così:": 7328,
    "dessono": 7329,
    "d'acqua,": 7330,
    "d'animo": 7331,
    "d'uomini": 7332,
    "d'Araona": 7333,
    "d'argento,": 7334,
    "danno,": 7335,
    "deputati": 7336,
    "decima": 7337,
    "deliberazione,": 7338,
    "dell'acqua": 7339,
    "dell'altro": 7340,
    "dell'anno": 7341,
    "derà": 7342,
    "determinato": 7343,
    "diman": 7344,
    "dimostrando": 7345,
    "dipen": 7346,
    "diso": 7347,
    "dissimo": 7348,
    "discosta": 7349,
    "discrezione": 7350,
    "dov'": 7351,
    "d’avere": 7352,
    "d’essere": 7353,
    "ebbe,": 7354,
    "eo": 7355,
    "e·": 7356,
    "ecli": 7357,
    "ento": 7358,
    "escono": 7359,
    "est,": 7360,
    "esperienzia": 7361,
    "esserne": 7362,
    "estrema": 7363,
    "famosi": 7364,
    "famoso": 7365,
    "fanciulle": 7366,
    "farle": 7367,
    "fermi": 7368,
    "ferro,": 7369,
    "figliuola,": 7370,
    "finestra": 7371,
    "finire": 7372,
    "fol": 7373,
    "forme": 7374,
    "franchi": 7375,
    "furno": 7376,
    "fuggire,": 7377,
    "fuggirono": 7378,
    "fuggiti": 7379,
    "furono,": 7380,
    "generazione": 7381,
    "gger": 7382,
    "ghino": 7383,
    "giunsero": 7384,
    "gl'Indi": 7385,
    "gnarsi": 7386,
    "gnolo,": 7387,
    "gol": 7388,
    "golfo": 7389,
    "grandissima,": 7390,
    "grandissimo,": 7391,
    "gravezza": 7392,
    "gridare": 7393,
    "ha,": 7394,
    "iuo": 7395,
    "illustrissimo": 7396,
    "impu": 7397,
    "imagin": 7398,
    "impedimenti": 7399,
    "inclinazione": 7400,
    "incontro,": 7401,
    "lacri": 7402,
    "lasc": 7403,
    "lesi,": 7404,
    "leggi,": 7405,
    "lito": 7406,
    "liberare": 7407,
    "lini,": 7408,
    "luci": 7409,
    "l’altre": 7410,
    "l’oste": 7411,
    "magnifica": 7412,
    "madama": 7413,
    "maestà": 7414,
    "mandi": 7415,
    "mancamento": 7416,
    "maumett": 7417,
    "mbo,": 7418,
    "medici": 7419,
    "meglio,": 7420,
    "mia.": 7421,
    "milita": 7422,
    "ministro": 7423,
    "mostri": 7424,
    "modo.": 7425,
    "mortale": 7426,
    "navigazione": 7427,
    "neque": 7428,
    "nell'altra": 7429,
    "note": 7430,
    "novembre": 7431,
    "olio": 7432,
    "offese": 7433,
    "offender": 7434,
    "oggidí": 7435,
    "oppre": 7436,
    "oppri": 7437,
    "opportuni": 7438,
    "ordinar": 7439,
    "ordinario": 7440,
    "oste,": 7441,
    "osservato": 7442,
    "pelo": 7443,
    "padroni": 7444,
    "passasse": 7445,
    "penti": 7446,
    "percos": 7447,
    "perfetto": 7448,
    "permesso": 7449,
    "pesci,": 7450,
    "piè,": 7451,
    "poti": 7452,
    "populi": 7453,
    "posizione": 7454,
    "poteano": 7455,
    "poterlo": 7456,
    "ppo,": 7457,
    "premio": 7458,
    "prendono": 7459,
    "prigione,": 7460,
    "primieramente": 7461,
    "privilegi": 7462,
    "proponimento": 7463,
    "proxi": 7464,
    "proprio,": 7465,
    "puose": 7466,
    "puoté": 7467,
    "quaresima": 7468,
    "ragone": 7469,
    "reci": 7470,
    "regione": 7471,
    "regna": 7472,
    "restato": 7473,
    "regina": 7474,
    "restarono": 7475,
    "riferi": 7476,
    "ritro": 7477,
    "ridotta": 7478,
    "riguardo": 7479,
    "rimanendo": 7480,
    "rimanesse": 7481,
    "risoluto": 7482,
    "ritira": 7483,
    "russi": 7484,
    "scomuni": 7485,
    "sessione": 7486,
    "smon": 7487,
    "sperare": 7488,
    "s'a": 7489,
    "s'in": 7490,
    "sasso": 7491,
    "sapesse": 7492,
    "scale": 7493,
    "scrivendo": 7494,
    "secca": 7495,
    "segn": 7496,
    "sentir": 7497,
    "serra": 7498,
    "si;": 7499,
    "sito,": 7500,
    "simigliante": 7501,
    "so;": 7502,
    "sosti": 7503,
    "sotterra": 7504,
    "splen": 7505,
    "spavento": 7506,
    "ssione,": 7507,
    "stri,": 7508,
    "stipen": 7509,
    "subli": 7510,
    "sui": 7511,
    "t:": 7512,
    "trin": 7513,
    "tarono": 7514,
    "teri": 7515,
    "tici,": 7516,
    "timi": 7517,
    "tranquilli": 7518,
    "tta.": 7519,
    "usur": 7520,
    "udir": 7521,
    "unc": 7522,
    "usale": 7523,
    "usando": 7524,
    "valli": 7525,
    "vedrà": 7526,
    "vertú": 7527,
    "vilu": 7528,
    "vinse": 7529,
    "vola": 7530,
    "voti": 7531,
    "volsero": 7532,
    "voleano": 7533,
    "volentieri,": 7534,
    "zucch": 7535,
    "—;": 7536,
    "0,": 7537,
    "156": 7538,
    "7.": 7539,
    "8,": 7540,
    "Ac": 7541,
    "Ambrogio": 7542,
    "Basi": 7543,
    "Barberia,": 7544,
    "Bartolomeo": 7545,
    "Benedetto": 7546,
    "Bernardino": 7547,
    "Cremona,": 7548,
    "Dipoi": 7549,
    "Diego": 7550,
    "Duca,": 7551,
    "E’": 7552,
    "Fil": 7553,
    "GA": 7554,
    "Giam": 7555,
    "IIII": 7556,
    "INE": 7557,
    "LU": 7558,
    "Lorena": 7559,
    "MEN": 7560,
    "Mora": 7561,
    "Masu": 7562,
    "Maestá": 7563,
    "Martino": 7564,
    "Mori,": 7565,
    "Nelle": 7566,
    "Neri": 7567,
    "Napoli.": 7568,
    "Nova": 7569,
    "Otto": 7570,
    "ONI": 7571,
    "Pal": 7572,
    "Parti": 7573,
    "Prato,": 7574,
    "Padre": 7575,
    "Prospero": 7576,
    "Raven": 7577,
    "Rin": 7578,
    "Sardi": 7579,
    "Son": 7580,
    "Saler": 7581,
    "Sinan": 7582,
    "Spagnuoli,": 7583,
    "Stef": 7584,
    "Tan": 7585,
    "Tauris,": 7586,
    "Troia": 7587,
    "Ubal": 7588,
    "Urbino": 7589,
    "XIII.": 7590,
    "XVIII.": 7591,
    "Zei": 7592,
    "asi": 7593,
    "ast": 7594,
    "ata,": 7595,
    "azz": 7596,
    "abbassa": 7597,
    "acconci": 7598,
    "adun": 7599,
    "aia": 7600,
    "alquan": 7601,
    "all'altre": 7602,
    "allar": 7603,
    "ambasciatore": 7604,
    "andoli": 7605,
    "ano:": 7606,
    "aprile,": 7607,
    "arla": 7608,
    "ardito": 7609,
    "armati,": 7610,
    "armato": 7611,
    "artefici,": 7612,
    "articoli": 7613,
    "aspro": 7614,
    "assegna": 7615,
    "attorno": 7616,
    "autorità,": 7617,
    "avessimo": 7618,
    "basa": 7619,
    "beato": 7620,
    "benivolenza": 7621,
    "bestia": 7622,
    "bi,": 7623,
    "biasima": 7624,
    "cess": 7625,
    "cacciar": 7626,
    "campagna,": 7627,
    "cardinal": 7628,
    "cavalcando": 7629,
    "cerimoni": 7630,
    "ch'avea": 7631,
    "che'": 7632,
    "che·lla": 7633,
    "cifi": 7634,
    "cipa": 7635,
    "ciare": 7636,
    "ciati": 7637,
    "cittadino,": 7638,
    "clemen": 7639,
    "collegio": 7640,
    "comporta": 7641,
    "com'io": 7642,
    "combattere,": 7643,
    "compagno,": 7644,
    "comparazione": 7645,
    "condanna": 7646,
    "confin": 7647,
    "congion": 7648,
    "contribu": 7649,
    "conoscer": 7650,
    "contadini": 7651,
    "coperti": 7652,
    "cose;": 7653,
    "costa,": 7654,
    "costui,": 7655,
    "credenza": 7656,
    "d'Arno": 7657,
    "data,": 7658,
    "dea,": 7659,
    "debbia": 7660,
    "debbo": 7661,
    "dell'animo": 7662,
    "dell'uno": 7663,
    "dendosi": 7664,
    "desina": 7665,
    "detti,": 7666,
    "dicen": 7667,
    "dilazione": 7668,
    "diti": 7669,
    "diverso": 7670,
    "divin": 7671,
    "dicembre": 7672,
    "dicemmo": 7673,
    "differi": 7674,
    "dilette": 7675,
    "diligentemente": 7676,
    "diminui": 7677,
    "dipignere": 7678,
    "discordia": 7679,
    "dispu": 7680,
    "disagio": 7681,
    "discendenti": 7682,
    "doge": 7683,
    "donare": 7684,
    "dono.": 7685,
    "dottore": 7686,
    "drappi": 7687,
    "effetto,": 7688,
    "elezione": 7689,
    "entemente": 7690,
    "entrate": 7691,
    "esclu": 7692,
    "essem": 7693,
    "fr": 7694,
    "famosa": 7695,
    "femina,": 7696,
    "fermare": 7697,
    "fiere": 7698,
    "fili": 7699,
    "fici,": 7700,
    "ficii": 7701,
    "filosofia": 7702,
    "filosofo": 7703,
    "finalmente,": 7704,
    "fondamenti": 7705,
    "formato": 7706,
    "fortezza,": 7707,
    "fresco,": 7708,
    "fretta": 7709,
    "fusse,": 7710,
    "gante": 7711,
    "gello": 7712,
    "gara": 7713,
    "gari": 7714,
    "ggiato": 7715,
    "giunti": 7716,
    "governi": 7717,
    "grazia.": 7718,
    "guel": 7719,
    "improv": 7720,
    "impedire": 7721,
    "incar": 7722,
    "indegna": 7723,
    "infa": 7724,
    "inanzi,": 7725,
    "infermità": 7726,
    "innamorato": 7727,
    "interamente": 7728,
    "intesa": 7729,
    "intervenne": 7730,
    "jus": 7731,
    "l'am": 7732,
    "l'avevano": 7733,
    "l'altro.": 7734,
    "l'assedio": 7735,
    "larmente": 7736,
    "levano": 7737,
    "lire": 7738,
    "luce,": 7739,
    "lupi": 7740,
    "l’aria": 7741,
    "mele": 7742,
    "mmi": 7743,
    "magn": 7744,
    "maggiori,": 7745,
    "male.": 7746,
    "manten": 7747,
    "manifestamente": 7748,
    "maravigliosamente": 7749,
    "matrimoni": 7750,
    "mbe,": 7751,
    "medic": 7752,
    "medesima,": 7753,
    "menarono": 7754,
    "mercato": 7755,
    "mercatante": 7756,
    "mercatanti,": 7757,
    "meritamente": 7758,
    "miglia.": 7759,
    "miracoli": 7760,
    "miseria": 7761,
    "modello": 7762,
    "mossa": 7763,
    "motto": 7764,
    "move": 7765,
    "nese": 7766,
    "narrato": 7767,
    "necessità,": 7768,
    "nell'animo": 7769,
    "noci": 7770,
    "odo": 7771,
    "occup": 7772,
    "oggetti": 7773,
    "ogn'": 7774,
    "ond'": 7775,
    "oppor": 7776,
    "opinione,": 7777,
    "orecchi": 7778,
    "ornati": 7779,
    "ottimo": 7780,
    "prono": 7781,
    "paia": 7782,
    "padri,": 7783,
    "palazzo,": 7784,
    "parli": 7785,
    "persuadere": 7786,
    "pia,": 7787,
    "pittori": 7788,
    "piazza,": 7789,
    "pompa": 7790,
    "poneva": 7791,
    "pontificato": 7792,
    "popolani": 7793,
    "porco": 7794,
    "porge": 7795,
    "potria": 7796,
    "potrò": 7797,
    "potè": 7798,
    "potentissimo": 7799,
    "pregava": 7800,
    "preti": 7801,
    "proca": 7802,
    "propia": 7803,
    "pruova": 7804,
    "pure,": 7805,
    "putti": 7806,
    "pubblico": 7807,
    "quattor": 7808,
    "quattro,": 7809,
    "rino,": 7810,
    "rauna": 7811,
    "ragionar": 7812,
    "ragionamento,": 7813,
    "repubblica": 7814,
    "repubbliche": 7815,
    "rete": 7816,
    "retto": 7817,
    "reame,": 7818,
    "reliquie": 7819,
    "renti": 7820,
    "resistere": 7821,
    "rigi": 7822,
    "ritrovò": 7823,
    "riviera": 7824,
    "rivolta": 7825,
    "rifiuta": 7826,
    "riser": 7827,
    "rivolto": 7828,
    "ruppe": 7829,
    "sfo": 7830,
    "sana": 7831,
    "sapienza": 7832,
    "scia,": 7833,
    "scritto,": 7834,
    "scrittore": 7835,
    "seicento": 7836,
    "sicchè": 7837,
    "simili,": 7838,
    "sover": 7839,
    "sodisfazione": 7840,
    "soffer": 7841,
    "strano": 7842,
    "stabile": 7843,
    "stettero": 7844,
    "stesso,": 7845,
    "studia": 7846,
    "sue,": 7847,
    "supre": 7848,
    "suol": 7849,
    "t;": 7850,
    "tæ": 7851,
    "tempi.": 7852,
    "teologi": 7853,
    "tondo": 7854,
    "tonio": 7855,
    "trascor": 7856,
    "tratti": 7857,
    "tristi": 7858,
    "ttera": 7859,
    "tutt'": 7860,
    "tur.": 7861,
    "umanità": 7862,
    "uni,": 7863,
    "unico": 7864,
    "uscendo": 7865,
    "vvi": 7866,
    "vansi": 7867,
    "veduta,": 7868,
    "veggendosi": 7869,
    "vene": 7870,
    "verbo": 7871,
    "vergogno": 7872,
    "vescovo,": 7873,
    "vigi": 7874,
    "villa,": 7875,
    "volere,": 7876,
    "volessero": 7877,
    "volume": 7878,
    "è.": 7879,
    "(14": 7880,
    "8.": 7881,
    "Ala": 7882,
    "Alora": 7883,
    "Altri": 7884,
    "Angeli": 7885,
    "Arrigu": 7886,
    "Boccaccio": 7887,
    "Ce": 7888,
    "Cim": 7889,
    "Cra": 7890,
    "Calicut,": 7891,
    "Cimabue": 7892,
    "Clemente,": 7893,
    "Coperni": 7894,
    "Cusco,": 7895,
    "Dan": 7896,
    "Dunque": 7897,
    "Dicono": 7898,
    "ESSER": 7899,
    "Giano": 7900,
    "Gis": 7901,
    "Ippo": 7902,
    "LXXXI": 7903,
    "MESSER": 7904,
    "Magna": 7905,
    "Malabar": 7906,
    "Messina,": 7907,
    "Minonna": 7908,
    "Molte": 7909,
    "Negli": 7910,
    "Navarra,": 7911,
    "Pegu": 7912,
    "Pla": 7913,
    "Pra": 7914,
    "Pur": 7915,
    "Pago": 7916,
    "Pandolfo": 7917,
    "Papa,": 7918,
    "Principe": 7919,
    "RIS": 7920,
    "Ruberto,": 7921,
    "Sor": 7922,
    "Stro": 7923,
    "Sebasti": 7924,
    "Signoria": 7925,
    "Spagna.": 7926,
    "Suma": 7927,
    "VER": 7928,
    "Van": 7929,
    "Vesco": 7930,
    "Via": 7931,
    "Valdar": 7932,
    "Vir": 7933,
    "Vinezia": 7934,
    "Viscon": 7935,
    "XVI.": 7936,
    "_--": 7937,
    "agu": 7938,
    "agua": 7939,
    "amari": 7940,
    "abbiate": 7941,
    "abitare": 7942,
    "acque,": 7943,
    "accostò": 7944,
    "adora": 7945,
    "affron": 7946,
    "albergo": 7947,
    "alcuna.": 7948,
    "alloggiamenti": 7949,
    "ansi": 7950,
    "anti,": 7951,
    "andai": 7952,
    "andosi,": 7953,
    "apostolica": 7954,
    "apparecchi": 7955,
    "aro,": 7956,
    "arbori,": 7957,
    "armate": 7958,
    "aspre": 7959,
    "astica": 7960,
    "asciu": 7961,
    "attese": 7962,
    "autem": 7963,
    "avversi": 7964,
    "bando": 7965,
    "bio,": 7966,
    "bria": 7967,
    "basso,": 7968,
    "bbon": 7969,
    "bellezza,": 7970,
    "bile.": 7971,
    "bocche": 7972,
    "bottega": 7973,
    "celli,": 7974,
    "cello": 7975,
    "cl": 7976,
    "caporali": 7977,
    "canne": 7978,
    "capitolo": 7979,
    "carboni": 7980,
    "caro,": 7981,
    "case.": 7982,
    "cavagli,": 7983,
    "ccie": 7984,
    "ch'e'": 7985,
    "ch'elli": 7986,
    "che.": 7987,
    "che;": 7988,
    "circonferenza": 7989,
    "comandato": 7990,
    "costretto": 7991,
    "co·lloro": 7992,
    "commessa": 7993,
    "commodità": 7994,
    "compara": 7995,
    "conesta": 7996,
    "concorren": 7997,
    "condotte": 7998,
    "consentimento": 7999,
    "conservare": 8000,
    "contentezza": 8001,
    "contiene": 8002,
    "continuando": 8003,
    "credendosi": 8004,
    "cupidi": 8005,
    "dessi": 8006,
    "dessino": 8007,
    "desta": 8008,
    "dren": 8009,
    "d'Italia,": 8010,
    "d'andare": 8011,
    "d'anni": 8012,
    "dei,": 8013,
    "derebbe": 8014,
    "desinare": 8015,
    "desiderando": 8016,
    "desse,": 8017,
    "dichi": 8018,
    "dipoi,": 8019,
    "diedono": 8020,
    "difficili": 8021,
    "dispensa": 8022,
    "disposti": 8023,
    "diserti": 8024,
    "disiderio": 8025,
    "disordini": 8026,
    "divise": 8027,
    "domandato": 8028,
    "dolcezza": 8029,
    "dottori": 8030,
    "drieto": 8031,
    "dubitare": 8032,
    "ecci": 8033,
    "emen": 8034,
    "equi": 8035,
    "ecclesiastica": 8036,
    "eleggere": 8037,
    "eletti": 8038,
    "eramente,": 8039,
    "eschi,": 8040,
    "esti,": 8041,
    "estremo": 8042,
    "fere": 8043,
    "fò": 8044,
    "fama,": 8045,
    "famili": 8046,
    "fabrica": 8047,
    "facessino": 8048,
    "facesse,": 8049,
    "falso": 8050,
    "farmi": 8051,
    "festa,": 8052,
    "fi,": 8053,
    "fosso": 8054,
    "formar": 8055,
    "forze,": 8056,
    "franzese": 8057,
    "gendosi": 8058,
    "gero": 8059,
    "gate": 8060,
    "gaz": 8061,
    "gennaio": 8062,
    "genovesi": 8063,
    "giganti": 8064,
    "giovani,": 8065,
    "giunta": 8066,
    "gl’Inghilesi": 8067,
    "governare": 8068,
    "grado,": 8069,
    "grani": 8070,
    "gravissimo": 8071,
    "infelice": 8072,
    "infin": 8073,
    "ingen": 8074,
    "ingegna": 8075,
    "inginocchi": 8076,
    "innumera": 8077,
    "innamora": 8078,
    "intento": 8079,
    "interessi": 8080,
    "interviene": 8081,
    "invenzione": 8082,
    "lì": 8083,
    "l'altre,": 8084,
    "l'ambasciadore": 8085,
    "l'anime": 8086,
    "lam": 8087,
    "lassa": 8088,
    "latte": 8089,
    "lancie": 8090,
    "larghezza": 8091,
    "legato,": 8092,
    "lei.": 8093,
    "lido": 8094,
    "lità": 8095,
    "lieta": 8096,
    "lodato": 8097,
    "longa": 8098,
    "lontano,": 8099,
    "l’arcivescovo": 8100,
    "l’ordine": 8101,
    "macchie": 8102,
    "magno": 8103,
    "mate": 8104,
    "maggiore.": 8105,
    "magnificenza": 8106,
    "mancare": 8107,
    "mandasse": 8108,
    "maraviglia,": 8109,
    "meo,": 8110,
    "menato": 8111,
    "mentare": 8112,
    "mercé": 8113,
    "mezzogiorno,": 8114,
    "milizia": 8115,
    "mirabili": 8116,
    "monaci": 8117,
    "monastero": 8118,
    "mortalità": 8119,
    "mostr": 8120,
    "nere": 8121,
    "n'ha": 8122,
    "nazioni,": 8123,
    "nacqu": 8124,
    "nascon": 8125,
    "notabili": 8126,
    "olo,": 8127,
    "omo": 8128,
    "officio": 8129,
    "onque": 8130,
    "onimo": 8131,
    "ordinate": 8132,
    "ordinato,": 8133,
    "osservare": 8134,
    "pane,": 8135,
    "panni,": 8136,
    "plu": 8137,
    "patto": 8138,
    "papa.": 8139,
    "parso": 8140,
    "paresse": 8141,
    "parlamento,": 8142,
    "particella": 8143,
    "passaggio": 8144,
    "persecu": 8145,
    "persever": 8146,
    "pesca": 8147,
    "pisani,": 8148,
    "pienamente": 8149,
    "piutto": 8150,
    "piuttosto": 8151,
    "piú.": 8152,
    "possesso": 8153,
    "potrá": 8154,
    "prei": 8155,
    "presi,": 8156,
    "prieghi": 8157,
    "primo,": 8158,
    "princ": 8159,
    "principio,": 8160,
    "processi": 8161,
    "prospetti": 8162,
    "provedere": 8163,
    "promesso,": 8164,
    "provve": 8165,
    "prudenzia": 8166,
    "quantità,": 8167,
    "quattordici": 8168,
    "quinta": 8169,
    "quivi,": 8170,
    "rsi,": 8171,
    "rame": 8172,
    "raccontare": 8173,
    "ragionamenti,": 8174,
    "ragionevolmente": 8175,
    "remo": 8176,
    "resolu": 8177,
    "ristrin": 8178,
    "ritenne": 8179,
    "riamo": 8180,
    "ricani": 8181,
    "ricchezza": 8182,
    "rimanere": 8183,
    "rotti": 8184,
    "rà,": 8185,
    "sde": 8186,
    "spia": 8187,
    "s'accor": 8188,
    "s'egli": 8189,
    "sara": 8190,
    "sala,": 8191,
    "salvati": 8192,
    "sapete,": 8193,
    "scala": 8194,
    "scultura": 8195,
    "secondo,": 8196,
    "sembi": 8197,
    "serba": 8198,
    "servigi": 8199,
    "servito": 8200,
    "settembre,": 8201,
    "sicuri": 8202,
    "significare": 8203,
    "singola": 8204,
    "solla": 8205,
    "solita": 8206,
    "sotto,": 8207,
    "sperava": 8208,
    "splendi": 8209,
    "splendore": 8210,
    "standosi": 8211,
    "stagione": 8212,
    "stati,": 8213,
    "stupi": 8214,
    "ségui": 8215,
    "tendo": 8216,
    "tera": 8217,
    "talor": 8218,
    "tempo;": 8219,
    "tenda": 8220,
    "tenute": 8221,
    "terri": 8222,
    "terreni": 8223,
    "tiro": 8224,
    "torono": 8225,
    "travaglia": 8226,
    "trie": 8227,
    "trovi": 8228,
    "ttica,": 8229,
    "tumulto": 8230,
    "uccisi": 8231,
    "um,": 8232,
    "vele": 8233,
    "vaghe": 8234,
    "vass": 8235,
    "vate": 8236,
    "veggio": 8237,
    "ventura,": 8238,
    "vite": 8239,
    "vivo,": 8240,
    "viltà": 8241,
    "virtu": 8242,
    "voci,": 8243,
    "volgarmente": 8244,
    "               ": 8245,
    "\";": 8246,
    "(il": 8247,
    "22": 8248,
    "3,": 8249,
    "34": 8250,
    "Amore": 8251,
    "ANI": 8252,
    "Ascelino": 8253,
    "Barberia": 8254,
    "Bonifazio": 8255,
    "Bramini": 8256,
    "Cane": 8257,
    "CONTA": 8258,
    "Candi": 8259,
    "Candinas": 8260,
    "Capitolo": 8261,
    "Castruccio": 8262,
    "Chaam": 8263,
    "Chili": 8264,
    "Cinzia": 8265,
    "Coroman": 8266,
    "Costantino": 8267,
    "Contin": 8268,
    "Corte": 8269,
    "Cornelio": 8270,
    "Coromandel": 8271,
    "De'": 8272,
    "Don": 8273,
    "Ene": 8274,
    "Etio": 8275,
    "Figliuolo": 8276,
    "Finalmente": 8277,
    "Floren": 8278,
    "GIO": 8279,
    "Gentili": 8280,
    "Giampa": 8281,
    "Innocenzio": 8282,
    "Lon": 8283,
    "Mac": 8284,
    "Meli": 8285,
    "Machiavelli": 8286,
    "Maggiore,": 8287,
    "Massimili": 8288,
    "Miner": 8289,
    "Molti": 8290,
    "Montezuma,": 8291,
    "Ner": 8292,
    "Nilo,": 8293,
    "Numidia": 8294,
    "Ori": 8295,
    "Oimè,": 8296,
    "Ottaviano": 8297,
    "Pala": 8298,
    "Popolo": 8299,
    "Portogallo": 8300,
    "Re,": 8301,
    "Ridolfo": 8302,
    "Sp": 8303,
    "Suo": 8304,
    "Svizz": 8305,
    "Salabaetto": 8306,
    "Scrittura": 8307,
    "Soder": 8308,
    "TTORE": 8309,
    "Uberto": 8310,
    "Venne": 8311,
    "Venezia,": 8312,
    "Vicen": 8313,
    "Vinegia,": 8314,
    "XXII": 8315,
    "Zu": 8316,
    "ada": 8317,
    "agi": 8318,
    "aria,": 8319,
    "aviene": 8320,
    "aviso": 8321,
    "azione": 8322,
    "abba": 8323,
    "abitato": 8324,
    "abitazione": 8325,
    "accordo,": 8326,
    "accrescimento": 8327,
    "aduna": 8328,
    "adosso": 8329,
    "altare": 8330,
    "alcuna;": 8331,
    "all'incontro": 8332,
    "allegrezza,": 8333,
    "allor": 8334,
    "alquanto,": 8335,
    "alucchi": 8336,
    "amata": 8337,
    "amata,": 8338,
    "andorono": 8339,
    "ardere": 8340,
    "argu": 8341,
    "arti,": 8342,
    "artificio": 8343,
    "aspi": 8344,
    "auttori": 8345,
    "avvel": 8346,
    "bino": 8347,
    "bassi": 8348,
    "balestri": 8349,
    "balia": 8350,
    "balipa": 8351,
    "barbar": 8352,
    "barbari": 8353,
    "bei": 8354,
    "bene.": 8355,
    "bianca": 8356,
    "bocca,": 8357,
    "cama": 8358,
    "capri": 8359,
    "cacciare": 8360,
    "cambia": 8361,
    "cambio": 8362,
    "campagne": 8363,
    "canna": 8364,
    "capita": 8365,
    "cappelle": 8366,
    "carni": 8367,
    "cherebbe": 8368,
    "ched": 8369,
    "chezza": 8370,
    "che·l": 8371,
    "chiamavano": 8372,
    "cias": 8373,
    "circun": 8374,
    "comodo": 8375,
    "cotanto": 8376,
    "colori,": 8377,
    "commodo": 8378,
    "communi": 8379,
    "communemente": 8380,
    "compari": 8381,
    "conciosiaché": 8382,
    "confess": 8383,
    "conforme": 8384,
    "conservar": 8385,
    "consiglieri": 8386,
    "contasto": 8387,
    "contento,": 8388,
    "controver": 8389,
    "corona,": 8390,
    "corrono": 8391,
    "coronato": 8392,
    "credette": 8393,
    "credito": 8394,
    "creatura": 8395,
    "crescendo": 8396,
    "cresciuto": 8397,
    "culi": 8398,
    "curo": 8399,
    "còl": 8400,
    "d'Or": 8401,
    "d'alcuna": 8402,
    "d'esso": 8403,
    "d'o": 8404,
    "d'Arezzo": 8405,
    "dentro.": 8406,
    "destina": 8407,
    "destre": 8408,
    "desiderare": 8409,
    "desse.": 8410,
    "dicio": 8411,
    "dix": 8412,
    "diecimila": 8413,
    "diffini": 8414,
    "dirò,": 8415,
    "discorsi": 8416,
    "disordina": 8417,
    "diversa": 8418,
    "divozione": 8419,
    "dog": 8420,
    "doman": 8421,
    "dotta": 8422,
    "dovete": 8423,
    "duro": 8424,
    "d’arme,": 8425,
    "ebb": 8426,
    "ebbi": 8427,
    "eccellenza": 8428,
    "entrando": 8429,
    "entrano": 8430,
    "eredi": 8431,
    "eretici": 8432,
    "eso,": 8433,
    "espri": 8434,
    "estende": 8435,
    "esercito.": 8436,
    "fel": 8437,
    "fro": 8438,
    "facto": 8439,
    "famiglie": 8440,
    "fanciulla": 8441,
    "favola": 8442,
    "feroci": 8443,
    "fic": 8444,
    "figlia": 8445,
    "fila": 8446,
    "fosse.": 8447,
    "francesi,": 8448,
    "francese": 8449,
    "fuggí": 8450,
    "fuori.": 8451,
    "gasti": 8452,
    "galee,": 8453,
    "getto": 8454,
    "gente.": 8455,
    "gentile,": 8456,
    "gentiluomini,": 8457,
    "gersi": 8458,
    "ghibel": 8459,
    "gine,": 8460,
    "giugnendo": 8461,
    "giudicando": 8462,
    "giuoco": 8463,
    "grave,": 8464,
    "guasto": 8465,
    "guida": 8466,
    "hoc": 8467,
    "hæ": 8468,
    "idea": 8469,
    "isti": 8470,
    "imperiali": 8471,
    "importanti": 8472,
    "ine,": 8473,
    "indiri": 8474,
    "inferiore": 8475,
    "ingiurie": 8476,
    "ini;": 8477,
    "inn-": 8478,
    "intelletto": 8479,
    "intendimento": 8480,
    "lana": 8481,
    "lino,": 8482,
    "luna": 8483,
    "l'ira": 8484,
    "l'opera,": 8485,
    "la:": 8486,
    "larghi": 8487,
    "lascio": 8488,
    "lega,": 8489,
    "legno,": 8490,
    "levo": 8491,
    "lia": 8492,
    "liberalità": 8493,
    "lieve": 8494,
    "l’uso": 8495,
    "mp": 8496,
    "ma.": 8497,
    "maschi": 8498,
    "mancando": 8499,
    "manco,": 8500,
    "mangiare.": 8501,
    "marmi": 8502,
    "masnade": 8503,
    "masnadieri": 8504,
    "memb": 8505,
    "meta": 8506,
    "memorie": 8507,
    "messa,": 8508,
    "mettevano": 8509,
    "miti": 8510,
    "militare": 8511,
    "mine,": 8512,
    "minuto": 8513,
    "minia": 8514,
    "miracolo": 8515,
    "molo": 8516,
    "mostro": 8517,
    "monasterio": 8518,
    "morbi": 8519,
    "mulo": 8520,
    "mura,": 8521,
    "muove": 8522,
    "nano": 8523,
    "nno": 8524,
    "negare": 8525,
    "nell'acqua": 8526,
    "nib": 8527,
    "niente,": 8528,
    "niss": 8529,
    "nipote,": 8530,
    "nocchiero": 8531,
    "notaio": 8532,
    "obbedi": 8533,
    "ori,": 8534,
    "osta": 8535,
    "otta": 8536,
    "oggimai": 8537,
    "ognun": 8538,
    "onestamente": 8539,
    "ordinati": 8540,
    "oria,": 8541,
    "ornata": 8542,
    "pp": 8543,
    "passe": 8544,
    "pace.": 8545,
    "parto": 8546,
    "particulare": 8547,
    "passare,": 8548,
    "patroni": 8549,
    "perocché": 8550,
    "peschi": 8551,
    "piane": 8552,
    "piante": 8553,
    "piangendo": 8554,
    "possessione": 8555,
    "possibile,": 8556,
    "possibili": 8557,
    "posta,": 8558,
    "potranno": 8559,
    "potevamo": 8560,
    "prede": 8561,
    "press": 8562,
    "prencipi": 8563,
    "presentò": 8564,
    "promessi": 8565,
    "publici": 8566,
    "qualitá": 8567,
    "questi,": 8568,
    "quoti": 8569,
    "rla,": 8570,
    "raccolti": 8571,
    "ragionando": 8572,
    "ragionato": 8573,
    "recare": 8574,
    "recato": 8575,
    "residenza": 8576,
    "restasse": 8577,
    "rimettere": 8578,
    "ripari": 8579,
    "ripren": 8580,
    "rise": 8581,
    "ritrovano": 8582,
    "ricco,": 8583,
    "richiese": 8584,
    "ridur": 8585,
    "riguardando": 8586,
    "rimasi": 8587,
    "riposa": 8588,
    "riposo": 8589,
    "rocca,": 8590,
    "rosso": 8591,
    "romp": 8592,
    "romper": 8593,
    "sce,": 8594,
    "schio": 8595,
    "s'ar": 8596,
    "savi,": 8597,
    "sappiamo": 8598,
    "sappiendo": 8599,
    "saviamente": 8600,
    "scienzia": 8601,
    "sebbene": 8602,
    "sedici": 8603,
    "segli": 8604,
    "sever": 8605,
    "servare": 8606,
    "serviva": 8607,
    "siano,": 8608,
    "sinda": 8609,
    "sinistro": 8610,
    "soggiunse": 8611,
    "sosp": 8612,
    "sospiri": 8613,
    "soccorrere": 8614,
    "soffi": 8615,
    "soggetto": 8616,
    "sottili,": 8617,
    "strana": 8618,
    "strumento": 8619,
    "supra": 8620,
    "sura": 8621,
    "successe": 8622,
    "successori": 8623,
    "suo;": 8624,
    "tona": 8625,
    "tone,": 8626,
    "tí": 8627,
    "tabalipa": 8628,
    "tagliar": 8629,
    "tando,": 8630,
    "tarlo": 8631,
    "teco": 8632,
    "tene,": 8633,
    "territo": 8634,
    "tico,": 8635,
    "tona,": 8636,
    "torto": 8637,
    "torno,": 8638,
    "trattati": 8639,
    "travaglio": 8640,
    "trince": 8641,
    "trovarsi": 8642,
    "ui": 8643,
    "umano": 8644,
    "unirsi": 8645,
    "usò": 8646,
    "usanza,": 8647,
    "uscirono": 8648,
    "vello": 8649,
    "vane": 8650,
    "vederlo": 8651,
    "venni": 8652,
    "venuta,": 8653,
    "venisse,": 8654,
    "venne,": 8655,
    "vestita": 8656,
    "viri": 8657,
    "vivendo": 8658,
    "vivi,": 8659,
    "vincer": 8660,
    "virtuosi": 8661,
    "volo,": 8662,
    "vogliamo": 8663,
    "vole.": 8664,
    "zano": 8665,
    "zii,": 8666,
    "zione:": 8667,
    "è!": 8668,
    "         ": 8669,
    "----------------": 8670,
    "4,": 8671,
    "77": 8672,
    "9,": 8673,
    "Am": 8674,
    "At": 8675,
    "Albi": 8676,
    "Andrea,": 8677,
    "Arnol": 8678,
    "Bil": 8679,
    "Baiothnoy,": 8680,
    "Bembo": 8681,
    "Boemia": 8682,
    "Bologne": 8683,
    "Cartagine": 8684,
    "Cavalc": 8685,
    "Cher": 8686,
    "Circassi": 8687,
    "Colonna,": 8688,
    "Constantinopoli,": 8689,
    "DU": 8690,
    "Dei": 8691,
    "D'U": 8692,
    "Egli,": 8693,
    "Emili": 8694,
    "ENTI": 8695,
    "Egitto,": 8696,
    "Europa,": 8697,
    "FIO": 8698,
    "Ferdinando,": 8699,
    "Fiandra,": 8700,
    "Figliuolo,": 8701,
    "Gotti": 8702,
    "Gazza": 8703,
    "Gentili,": 8704,
    "Giose": 8705,
    "Guglielmo": 8706,
    "ILLU": 8707,
    "ILLUST": 8708,
    "Illu": 8709,
    "Lun": 8710,
    "Legge": 8711,
    "Liber": 8712,
    "M.": 8713,
    "MD": 8714,
    "Mao": 8715,
    "Malaca": 8716,
    "Manfredi": 8717,
    "Marca": 8718,
    "Milanesi": 8719,
    "Nicolò": 8720,
    "Ogni": 8721,
    "Ove": 8722,
    "Pante": 8723,
    "Parte": 8724,
    "Pet": 8725,
    "Prima": 8726,
    "Pietra": 8727,
    "Pisa.": 8728,
    "Plinio": 8729,
    "Prete,": 8730,
    "Quindi": 8731,
    "RAN": 8732,
    "Raffaello,": 8733,
    "Ramusi": 8734,
    "Rima": 8735,
    "Sel": 8736,
    "Senato": 8737,
    "Sent": 8738,
    "Salves": 8739,
    "Trivul": 8740,
    "V,": 8741,
    "VA": 8742,
    "Valen": 8743,
    "Vecchio": 8744,
    "Vitelli": 8745,
    "Voi,": 8746,
    "XCI": 8747,
    "[3.": 8748,
    "abate": 8749,
    "atro": 8750,
    "audi": 8751,
    "abboc": 8752,
    "abbondanti": 8753,
    "acuti": 8754,
    "acceso": 8755,
    "adempi": 8756,
    "adul": 8757,
    "affatica": 8758,
    "alleg": 8759,
    "allegando": 8760,
    "altrett": 8761,
    "altrui.": 8762,
    "amministra": 8763,
    "ambasciadore,": 8764,
    "amoroso": 8765,
    "anch'egli": 8766,
    "ania,": 8767,
    "anni;": 8768,
    "anno.": 8769,
    "arum": 8770,
    "arbore,": 8771,
    "aspri": 8772,
    "assolutamente": 8773,
    "avin": 8774,
    "averia": 8775,
    "bastava": 8776,
    "bassà": 8777,
    "bbio,": 8778,
    "beffe": 8779,
    "bellissima,": 8780,
    "bita": 8781,
    "borgo": 8782,
    "braccio,": 8783,
    "cero": 8784,
    "croni": 8785,
    "cagione.": 8786,
    "calore": 8787,
    "calun": 8788,
    "calunni": 8789,
    "camere": 8790,
    "cani,": 8791,
    "catoli": 8792,
    "cavalca": 8793,
    "china": 8794,
    "ch'essi": 8795,
    "ch’ei": 8796,
    "cian": 8797,
    "cinquemila": 8798,
    "cittadella": 8799,
    "cola,": 8800,
    "cosi": 8801,
    "costri": 8802,
    "cognosce": 8803,
    "colonna": 8804,
    "com'era": 8805,
    "cone,": 8806,
    "consape": 8807,
    "condizione,": 8808,
    "conoscono": 8809,
    "conoscesse": 8810,
    "consigliato": 8811,
    "corri": 8812,
    "corsi": 8813,
    "coronazione": 8814,
    "correndo,": 8815,
    "correva": 8816,
    "creder": 8817,
    "cure": 8818,
    "cuori": 8819,
    "danni,": 8820,
    "d'Iddio": 8821,
    "d'ora": 8822,
    "d'ottobre,": 8823,
    "dall'una": 8824,
    "danne": 8825,
    "dante,": 8826,
    "dec": 8827,
    "dete": 8828,
    "deliberarono": 8829,
    "dell'ordine": 8830,
    "desideroso": 8831,
    "dierono": 8832,
    "dilibera": 8833,
    "dimandò": 8834,
    "dimeno,": 8835,
    "dimostrò": 8836,
    "disten": 8837,
    "disu": 8838,
    "dito,": 8839,
    "divenuto": 8840,
    "diceva,": 8841,
    "diciotto": 8842,
    "dimostrazione": 8843,
    "discer": 8844,
    "diviso": 8845,
    "doi": 8846,
    "domandando": 8847,
    "donato": 8848,
    "dure": 8849,
    "dubitava": 8850,
    "egre": 8851,
    "emio": 8852,
    "età,": 8853,
    "ecclesiastici": 8854,
    "eloquenza": 8855,
    "episcop": 8856,
    "era;": 8857,
    "ere;": 8858,
    "erà,": 8859,
    "esca": 8860,
    "este,": 8861,
    "ester": 8862,
    "esemplo": 8863,
    "esperienze": 8864,
    "esse.": 8865,
    "essendogli": 8866,
    "esservi": 8867,
    "essioni,": 8868,
    "estremità": 8869,
    "famigli": 8870,
    "facciano": 8871,
    "fanciullo,": 8872,
    "fattore": 8873,
    "febbraio": 8874,
    "femine,": 8875,
    "ferti": 8876,
    "fian": 8877,
    "figliuole": 8878,
    "finì": 8879,
    "fortifica": 8880,
    "frutti,": 8881,
    "ful": 8882,
    "futuro": 8883,
    "gino,": 8884,
    "gala,": 8885,
    "gallo,": 8886,
    "gesi": 8887,
    "geni": 8888,
    "generale,": 8889,
    "ggiati": 8890,
    "giam": 8891,
    "giovare": 8892,
    "giugno,": 8893,
    "giuramento": 8894,
    "gl'altri": 8895,
    "glione": 8896,
    "gnere,": 8897,
    "gnesse": 8898,
    "godere": 8899,
    "grata": 8900,
    "guadagnare": 8901,
    "guerre,": 8902,
    "hil": 8903,
    "ieri": 8904,
    "ignudi": 8905,
    "impara": 8906,
    "immagin": 8907,
    "immagina": 8908,
    "incogni": 8909,
    "inde": 8910,
    "inquie": 8911,
    "infiamma": 8912,
    "intima": 8913,
    "is,": 8914,
    "lano": 8915,
    "lli,": 8916,
    "l'avessi": 8917,
    "l'ebbe": 8918,
    "l'entrata": 8919,
    "l'esempio": 8920,
    "l'infer": 8921,
    "laudi": 8922,
    "lavori": 8923,
    "lavorava": 8924,
    "legge,": 8925,
    "legname": 8926,
    "libb": 8927,
    "libi": 8928,
    "liberi": 8929,
    "lieto": 8930,
    "lina,": 8931,
    "lumino": 8932,
    "luned": 8933,
    "mpetto": 8934,
    "m’": 8935,
    "mancò": 8936,
    "mansue": 8937,
    "mandorono": 8938,
    "mano;": 8939,
    "mediocre": 8940,
    "mercatante,": 8941,
    "mercatanzie": 8942,
    "meritano": 8943,
    "mestiero": 8944,
    "mischi": 8945,
    "miserie": 8946,
    "modi,": 8947,
    "movendo": 8948,
    "monna": 8949,
    "montò": 8950,
    "morire.": 8951,
    "mostrano": 8952,
    "mostrarono": 8953,
    "mostrarsi": 8954,
    "movesse": 8955,
    "murata": 8956,
    "muovono": 8957,
    "nò": 8958,
    "nazione,": 8959,
    "narrar": 8960,
    "naturale.": 8961,
    "nihil": 8962,
    "nobilissima": 8963,
    "nonn": 8964,
    "nostre,": 8965,
    "nuove,": 8966,
    "osti": 8967,
    "obbedienza": 8968,
    "occhi,": 8969,
    "occasione,": 8970,
    "occidente": 8971,
    "occultamente": 8972,
    "offeso": 8973,
    "on,": 8974,
    "ono;": 8975,
    "openione": 8976,
    "operato": 8977,
    "orribile": 8978,
    "oscura": 8979,
    "oscuri": 8980,
    "osservan": 8981,
    "ottenere": 8982,
    "plen": 8983,
    "parato": 8984,
    "pareri": 8985,
    "parro": 8986,
    "parti.": 8987,
    "partire,": 8988,
    "peccato,": 8989,
    "perdi": 8990,
    "pertanto": 8991,
    "perfetta": 8992,
    "pericolosa": 8993,
    "pestil": 8994,
    "pila": 8995,
    "piaghe": 8996,
    "piaciuto": 8997,
    "po,": 8998,
    "potemmo": 8999,
    "potri": 9000,
    "povera": 9001,
    "popolo.": 9002,
    "popolo;": 9003,
    "porci": 9004,
    "poste,": 9005,
    "potessono": 9006,
    "potette": 9007,
    "pratica,": 9008,
    "prelati,": 9009,
    "procacci": 9010,
    "proposte": 9011,
    "provare": 9012,
    "provato": 9013,
    "procedendo": 9014,
    "provvisione": 9015,
    "publico,": 9016,
    "publicamente": 9017,
    "quello.": 9018,
    "queste,": 9019,
    "quinto": 9020,
    "roni,": 9021,
    "rvi": 9022,
    "rad": 9023,
    "radici": 9024,
    "ramo": 9025,
    "raccomanda": 9026,
    "ragioni,": 9027,
    "rappresenta": 9028,
    "rebbono": 9029,
    "regnò": 9030,
    "res": 9031,
    "rese": 9032,
    "restano": 9033,
    "religiosi": 9034,
    "restava": 9035,
    "ridere": 9036,
    "rif": 9037,
    "rii,": 9038,
    "ripreso": 9039,
    "riscal": 9040,
    "riscuo": 9041,
    "ributta": 9042,
    "ricchezze,": 9043,
    "ricchissimo": 9044,
    "ricevuti,": 9045,
    "richiesta": 9046,
    "ricordo": 9047,
    "rimedio,": 9048,
    "riputato": 9049,
    "rispetti": 9050,
    "ritornati": 9051,
    "rot": 9052,
    "rompe": 9053,
    "ronsi": 9054,
    "sesso": 9055,
    "sú": 9056,
    "s'inten": 9057,
    "sa;": 9058,
    "saputa": 9059,
    "sariano": 9060,
    "saccheggi": 9061,
    "saluta": 9062,
    "sanesi": 9063,
    "sapete": 9064,
    "sarebbero": 9065,
    "satisfare": 9066,
    "scell": 9067,
    "scara": 9068,
    "scriv": 9069,
    "seder": 9070,
    "separati": 9071,
    "segreto": 9072,
    "seguente,": 9073,
    "selva": 9074,
    "sentendosi": 9075,
    "sentono": 9076,
    "sentí": 9077,
    "serpi": 9078,
    "settentri": 9079,
    "silla": 9080,
    "sio": 9081,
    "signore:": 9082,
    "so'": 9083,
    "soccorso,": 9084,
    "sodisfatto": 9085,
    "sofferi": 9086,
    "sola,": 9087,
    "sollecita": 9088,
    "sommità": 9089,
    "sono.": 9090,
    "sottile": 9091,
    "spavente": 9092,
    "ssero.": 9093,
    "statu": 9094,
    "stettono": 9095,
    "strada,": 9096,
    "strette": 9097,
    "stretto,": 9098,
    "successore": 9099,
    "superbia": 9100,
    "superbia,": 9101,
    "superiori": 9102,
    "svizzeri,": 9103,
    "tello,": 9104,
    "trò": 9105,
    "tac": 9106,
    "targli": 9107,
    "temeva": 9108,
    "terà": 9109,
    "territorio": 9110,
    "tirare": 9111,
    "tiranno,": 9112,
    "tornano": 9113,
    "trai": 9114,
    "trastu": 9115,
    "tradimento": 9116,
    "tregua": 9117,
    "tteri": 9118,
    "ttino,": 9119,
    "tucti": 9120,
    "tuosi": 9121,
    "tuoso": 9122,
    "ufici": 9123,
    "uccidere": 9124,
    "udito,": 9125,
    "umana,": 9126,
    "usate": 9127,
    "utile,": 9128,
    "utilitá": 9129,
    "valore,": 9130,
    "variazione": 9131,
    "vegnente": 9132,
    "vende": 9133,
    "verna": 9134,
    "verno,": 9135,
    "viddi": 9136,
    "vince": 9137,
    "vivere.": 9138,
    "volontà,": 9139,
    "volontariamente": 9140,
    "'nquisi": 9141,
    "120": 9142,
    "2,": 9143,
    "6,": 9144,
    "90": 9145,
    "Achil": 9146,
    "Ama": 9147,
    "Aqui": 9148,
    "Ascan": 9149,
    "Agostino": 9150,
    "Altezza": 9151,
    "Alessandria,": 9152,
    "Attal": 9153,
    "Barna": 9154,
    "Cala": 9155,
    "Cass": 9156,
    "Cur": 9157,
    "CCL": 9158,
    "Capo": 9159,
    "Cari": 9160,
    "Cambaia,": 9161,
    "Cane,": 9162,
    "Castiglia": 9163,
    "Caterina": 9164,
    "Cinzia,": 9165,
    "Compa": 9166,
    "Compagni": 9167,
    "Dalla": 9168,
    "Delli": 9169,
    "Delfino": 9170,
    "Dioni": 9171,
    "Discorso": 9172,
    "Duchessa": 9173,
    "ERI": 9174,
    "Epi": 9175,
    "Fon": 9176,
    "Federigo,": 9177,
    "Fraca": 9178,
    "Francesi": 9179,
    "Gher": 9180,
    "Ghire": 9181,
    "Giuliano,": 9182,
    "Gonzaga": 9183,
    "Iu": 9184,
    "Iuli": 9185,
    "Illustri": 9186,
    "Imperadore": 9187,
    "Indie,": 9188,
    "Italia;": 9189,
    "Lavin": 9190,
    "Lattanzio": 9191,
    "Litu": 9192,
    "Loi": 9193,
    "Lucchesi": 9194,
    "Marsi": 9195,
    "Mino": 9196,
    "MAG": 9197,
    "Mare": 9198,
    "Madonna,": 9199,
    "Massimiliano": 9200,
    "Morone": 9201,
    "Navi": 9202,
    "Nicuola": 9203,
    "Orvie": 9204,
    "PA": 9205,
    "Pagolo": 9206,
    "Panfilo": 9207,
    "Persia,": 9208,
    "Però,": 9209,
    "Pescara,": 9210,
    "Pintu": 9211,
    "Pinturic": 9212,
    "Provenza": 9213,
    "Quin": 9214,
    "Rossi": 9215,
    "Russia,": 9216,
    "Russiani": 9217,
    "Sac": 9218,
    "Scal": 9219,
    "Scar": 9220,
    "Solo": 9221,
    "Sì": 9222,
    "Santi,": 9223,
    "Sarsi,": 9224,
    "Sentendo": 9225,
    "Sotto": 9226,
    "Stefano": 9227,
    "TORE": 9228,
    "Toma": 9229,
    "Vandali": 9230,
    "Var": 9231,
    "Vedendo": 9232,
    "Volterra": 9233,
    "XVII.": 9234,
    "XVIII": 9235,
    "XXVII": 9236,
    "ZIO": 9237,
    "_,": 9238,
    "abandona": 9239,
    "abbondanza": 9240,
    "abiti": 9241,
    "accordare": 9242,
    "addi": 9243,
    "affezione": 9244,
    "alberi": 9245,
    "alieno": 9246,
    "alla,": 9247,
    "altare,": 9248,
    "ammoni": 9249,
    "ambasciatori,": 9250,
    "amira": 9251,
    "amistà": 9252,
    "amorosi": 9253,
    "annun": 9254,
    "ant": 9255,
    "anda,": 9256,
    "angolo": 9257,
    "arbore": 9258,
    "architetto": 9259,
    "architettura": 9260,
    "argomenti": 9261,
    "artiglierie,": 9262,
    "assalt": 9263,
    "assalirono": 9264,
    "astrono": 9265,
    "attor": 9266,
    "aut": 9267,
    "avrà": 9268,
    "avvenuto": 9269,
    "avendola": 9270,
    "avvenne,": 9271,
    "bino,": 9272,
    "bone,": 9273,
    "bastante": 9274,
    "bastanza": 9275,
    "baldo": 9276,
    "bambagio": 9277,
    "beati": 9278,
    "bianchi,": 9279,
    "bisogn": 9280,
    "blio": 9281,
    "bolla": 9282,
    "bore": 9283,
    "borsa": 9284,
    "brevissimo": 9285,
    "cando,": 9286,
    "caduto": 9287,
    "camici": 9288,
    "care.": 9289,
    "campar": 9290,
    "campi,": 9291,
    "campanile": 9292,
    "cappa": 9293,
    "cattivo": 9294,
    "cattolici": 9295,
    "cavalier": 9296,
    "centro,": 9297,
    "cercano": 9298,
    "cercò": 9299,
    "certezza": 9300,
    "ch'aveano": 9301,
    "cherico": 9302,
    "che·ssi": 9303,
    "chiamando": 9304,
    "chiami": 9305,
    "chiamare,": 9306,
    "chiamate": 9307,
    "ciasched": 9308,
    "cittadin": 9309,
    "città:": 9310,
    "cognato": 9311,
    "comodi": 9312,
    "costretti": 9313,
    "colmo": 9314,
    "coltiva": 9315,
    "combatti": 9316,
    "compar": 9317,
    "cominciar": 9318,
    "commissa": 9319,
    "compagnia.": 9320,
    "conca": 9321,
    "consenso": 9322,
    "consor": 9323,
    "contri": 9324,
    "conducono": 9325,
    "condussero": 9326,
    "confessione": 9327,
    "congregazioni": 9328,
    "conservazione": 9329,
    "considerazione,": 9330,
    "continente,": 9331,
    "contrade": 9332,
    "contrarie": 9333,
    "corrispon": 9334,
    "credere,": 9335,
    "crimin": 9336,
    "cristiano": 9337,
    "culo": 9338,
    "curando": 9339,
    "desco": 9340,
    "d'Ungheria": 9341,
    "d'Alama": 9342,
    "d'arme,": 9343,
    "dall'altro": 9344,
    "darlo": 9345,
    "darebbe": 9346,
    "dedi": 9347,
    "detesta": 9348,
    "debolezza": 9349,
    "degnità": 9350,
    "dell'altra": 9351,
    "dell'isola": 9352,
    "dell'opera": 9353,
    "dell'oro": 9354,
    "deno": 9355,
    "destrezza": 9356,
    "detta,": 9357,
    "difec": 9358,
    "dissimi": 9359,
    "diametro": 9360,
    "dicembre,": 9361,
    "dicendo,": 9362,
    "difficultà,": 9363,
    "difficultá": 9364,
    "dirsi": 9365,
    "dirimpetto": 9366,
    "diritta": 9367,
    "discreto": 9368,
    "disordi": 9369,
    "domenica": 9370,
    "dopo,": 9371,
    "dottrina,": 9372,
    "dovendo": 9373,
    "d’Ar": 9374,
    "emis": 9375,
    "ecclesiastici,": 9376,
    "eius": 9377,
    "elen": 9378,
    "ense": 9379,
    "ense,": 9380,
    "erare": 9381,
    "erità": 9382,
    "errore,": 9383,
    "escu": 9384,
    "estin": 9385,
    "esau": 9386,
    "esperienza,": 9387,
    "espugnazione": 9388,
    "essergli": 9389,
    "etre,": 9390,
    "fune": 9391,
    "famiglia,": 9392,
    "facce": 9393,
    "faccen": 9394,
    "facta": 9395,
    "facevamo": 9396,
    "false": 9397,
    "farina": 9398,
    "farlo,": 9399,
    "femmine": 9400,
    "fiero": 9401,
    "flussi": 9402,
    "folle": 9403,
    "fondare": 9404,
    "fornita": 9405,
    "fr.": 9406,
    "frau": 9407,
    "freddi": 9408,
    "fumo": 9409,
    "furo": 9410,
    "fuora,": 9411,
    "gone": 9412,
    "gor": 9413,
    "gagliarda": 9414,
    "gagliardamente": 9415,
    "gelosia": 9416,
    "ghese": 9417,
    "giace": 9418,
    "giogo": 9419,
    "giove": 9420,
    "giugne": 9421,
    "giura": 9422,
    "già,": 9423,
    "gneva": 9424,
    "governar": 9425,
    "grafi": 9426,
    "grand’": 9427,
    "gravemente": 9428,
    "graziosi": 9429,
    "grazioso": 9430,
    "greci,": 9431,
    "grido": 9432,
    "grotte": 9433,
    "grossezza": 9434,
    "i;": 9435,
    "iddii,": 9436,
    "ignoranza": 9437,
    "imagine": 9438,
    "impedito": 9439,
    "imperatore.": 9440,
    "inca": 9441,
    "insin": 9442,
    "iniqui": 9443,
    "intendere,": 9444,
    "italiani,": 9445,
    "k,": 9446,
    "l'antica": 9447,
    "l'esercito,": 9448,
    "l'uscio": 9449,
    "l'ama": 9450,
    "l'amor": 9451,
    "l'altare": 9452,
    "l'arci": 9453,
    "l'istoria": 9454,
    "lasciamo": 9455,
    "lasciasse": 9456,
    "lavorare,": 9457,
    "li;": 9458,
    "licito": 9459,
    "limos": 9460,
    "libero,": 9461,
    "logo": 9462,
    "lontane": 9463,
    "lus": 9464,
    "lungo,": 9465,
    "l’ultimo": 9466,
    "mel": 9467,
    "massima": 9468,
    "maestro.": 9469,
    "mali,": 9470,
    "mancano": 9471,
    "mantener": 9472,
    "manto": 9473,
    "marine": 9474,
    "mare;": 9475,
    "met": 9476,
    "medesimo.": 9477,
    "medicina": 9478,
    "meglio.": 9479,
    "memora": 9480,
    "menò": 9481,
    "mercanzia": 9482,
    "mica": 9483,
    "minori,": 9484,
    "misericordia,": 9485,
    "mosche": 9486,
    "mover": 9487,
    "moltipli": 9488,
    "monsignore": 9489,
    "montato": 9490,
    "monasteri": 9491,
    "mortale,": 9492,
    "muli": 9493,
    "mutato": 9494,
    "mutò": 9495,
    "nero,": 9496,
    "n'andarono": 9497,
    "nato,": 9498,
    "nave,": 9499,
    "narr": 9500,
    "nascosa": 9501,
    "negri": 9502,
    "nem": 9503,
    "nominati": 9504,
    "non,": 9505,
    "nuova,": 9506,
    "odori": 9507,
    "ova": 9508,
    "obligato": 9509,
    "occupata": 9510,
    "oltramon": 9511,
    "onem": 9512,
    "opportuno": 9513,
    "ornate": 9514,
    "osservano": 9515,
    "pesa": 9516,
    "paiono": 9517,
    "pare,": 9518,
    "pasc": 9519,
    "pate": 9520,
    "pacifica": 9521,
    "palmo": 9522,
    "parevano": 9523,
    "particulari": 9524,
    "passava": 9525,
    "pecore": 9526,
    "pecuni": 9527,
    "pelleg": 9528,
    "penetra": 9529,
    "perduto,": 9530,
    "pericoli,": 9531,
    "pernicio": 9532,
    "pesce,": 9533,
    "pietre,": 9534,
    "piazze": 9535,
    "piangere": 9536,
    "pianure": 9537,
    "picche": 9538,
    "pietra,": 9539,
    "polo,": 9540,
    "posteri": 9541,
    "pochissimi": 9542,
    "popolare": 9543,
    "portare,": 9544,
    "potere,": 9545,
    "poteva,": 9546,
    "potenti,": 9547,
    "potrebbono": 9548,
    "preci": 9549,
    "preda,": 9550,
    "prese,": 9551,
    "prezzo,": 9552,
    "priori,": 9553,
    "priego": 9554,
    "prode": 9555,
    "protesta": 9556,
    "prove": 9557,
    "proporzione": 9558,
    "proposizione": 9559,
    "provvedenza": 9560,
    "puri": 9561,
    "publiche": 9562,
    "puniti": 9563,
    "puote": 9564,
    "quai": 9565,
    "quella;": 9566,
    "quotidi": 9567,
    "rasse": 9568,
    "raun": 9569,
    "raccio": 9570,
    "raccolta": 9571,
    "reggere": 9572,
    "reina,": 9573,
    "reti": 9574,
    "regni,": 9575,
    "rici": 9576,
    "riconoscere": 9577,
    "rifu": 9578,
    "rimesso": 9579,
    "ripara": 9580,
    "riso,": 9581,
    "ricercar": 9582,
    "ricuper": 9583,
    "rilievo,": 9584,
    "ringrazia": 9585,
    "rio.": 9586,
    "rispondendo": 9587,
    "ritrovare": 9588,
    "robba": 9589,
    "romore,": 9590,
    "ruppono": 9591,
    "sve": 9592,
    "s'aveva": 9593,
    "sacro": 9594,
    "salve": 9595,
    "sancto": 9596,
    "santa,": 9597,
    "sante": 9598,
    "schiavi": 9599,
    "schiavi,": 9600,
    "scritture": 9601,
    "scultore": 9602,
    "sedere,": 9603,
    "segno,": 9604,
    "semen": 9605,
    "settanta": 9606,
    "seguirono": 9607,
    "seimila": 9608,
    "senz’": 9609,
    "serpen": 9610,
    "smarri": 9611,
    "soave": 9612,
    "soldo,": 9613,
    "solamente,": 9614,
    "sorel": 9615,
    "spese,": 9616,
    "spade": 9617,
    "spagnoli": 9618,
    "ssimi.": 9619,
    "stere": 9620,
    "stini": 9621,
    "stare,": 9622,
    "stava,": 9623,
    "stia,": 9624,
    "stir": 9625,
    "stimato": 9626,
    "sussi": 9627,
    "suto": 9628,
    "súbito": 9629,
    "tô": 9630,
    "tacer": 9631,
    "tade": 9632,
    "tati,": 9633,
    "tagliato": 9634,
    "tandolo": 9635,
    "tano.": 9636,
    "tessu": 9637,
    "tena": 9638,
    "tennero": 9639,
    "terribile": 9640,
    "testimonianza": 9641,
    "tien": 9642,
    "tirando": 9643,
    "tirate": 9644,
    "tirannia": 9645,
    "togliendo": 9646,
    "trattato,": 9647,
    "trattava": 9648,
    "tributo": 9649,
    "trovo": 9650,
    "tutte,": 9651,
    "unicamente": 9652,
    "unigenito": 9653,
    "universalmente": 9654,
    "uolo": 9655,
    "v'ho": 9656,
    "vado": 9657,
    "vago": 9658,
    "vedersi": 9659,
    "vedova": 9660,
    "vener": 9661,
    "venuti,": 9662,
    "verdi": 9663,
    "verare": 9664,
    "vettovaglia": 9665,
    "vicen": 9666,
    "vide,": 9667,
    "videro": 9668,
    "viddero": 9669,
    "visibile": 9670,
    "vo'": 9671,
    "volando": 9672,
    "volti": 9673,
    "zzò": 9674,
    "á,": 9675,
    "'mperadore": 9676,
    "117": 9677,
    "130": 9678,
    "57": 9679,
    "Adri": 9680,
    "Ale": 9681,
    "Azz": 9682,
    "Africani": 9683,
    "Alaman": 9684,
    "Angio": 9685,
    "Annib": 9686,
    "Ban": 9687,
    "Bol": 9688,
    "Baviera": 9689,
    "Baccio,": 9690,
    "Bilca": 9691,
    "Brescia,": 9692,
    "Ces": 9693,
    "Camillo,": 9694,
    "Chia": 9695,
    "Cicer": 9696,
    "Colui": 9697,
    "Conte,": 9698,
    "Constantinopoli": 9699,
    "Cortona": 9700,
    "Coromandel,": 9701,
    "Cristiani": 9702,
    "Croce,": 9703,
    "Dante,": 9704,
    "Dona": 9705,
    "Donati": 9706,
    "Duomo,": 9707,
    "Essi": 9708,
    "Ercole,": 9709,
    "FAB": 9710,
    "FINE": 9711,
    "Fac": 9712,
    "FIOREN": 9713,
    "Fiam": 9714,
    "Filocolo,": 9715,
    "Gar": 9716,
    "Ge": 9717,
    "Glo": 9718,
    "Gallina": 9719,
    "Giad": 9720,
    "Gianne": 9721,
    "Guascogna": 9722,
    "Guicciar": 9723,
    "IX.": 9724,
    "Isa": 9725,
    "Ieronimo": 9726,
    "Imperio": 9727,
    "Indi,": 9728,
    "Ispagna": 9729,
    "Italiani": 9730,
    "Lautrech": 9731,
    "MIN": 9732,
    "Mamalucchi": 9733,
    "Mansor": 9734,
    "Manu": 9735,
    "Maometto": 9736,
    "Marche": 9737,
    "Melisso": 9738,
    "Messina": 9739,
    "NE": 9740,
    "Nava": 9741,
    "Narsinga,": 9742,
    "Nicola": 9743,
    "Novellino": 9744,
    "Ohim": 9745,
    "Or,": 9746,
    "Orga": 9747,
    "Orsini": 9748,
    "Orto": 9749,
    "Pali": 9750,
    "Parma": 9751,
    "Pri": 9752,
    "PRIMO": 9753,
    "Pazzi": 9754,
    "Padova": 9755,
    "Padova,": 9756,
    "Paulo,": 9757,
    "Persi": 9758,
    "Portogallo,": 9759,
    "Quar": 9760,
    "Quiz": 9761,
    "Quizqui": 9762,
    "Regno,": 9763,
    "Rinaldo": 9764,
    "STI": 9765,
    "Schiav": 9766,
    "Sere": 9767,
    "Sil": 9768,
    "Stato": 9769,
    "SIGNORE": 9770,
    "Sansever": 9771,
    "Sansovino,": 9772,
    "Savoia": 9773,
    "Segui": 9774,
    "Stampa": 9775,
    "TU": 9776,
    "Tanto": 9777,
    "Tanai": 9778,
    "Temisti": 9779,
    "Temistitan": 9780,
    "Toscana.": 9781,
    "Vero": 9782,
    "Vil": 9783,
    "Venuta": 9784,
    "XLI": 9785,
    "_.": 9786,
    "_Di": 9787,
    "________________________________": 9788,
    "agl'": 9789,
    "aqui": 9790,
    "abbiam": 9791,
    "accidente,": 9792,
    "accogli": 9793,
    "accompagnati": 9794,
    "accrescer": 9795,
    "adversa": 9796,
    "aglia,": 9797,
    "aiutato": 9798,
    "allontan": 9799,
    "ale;": 9800,
    "alien": 9801,
    "all'ambasciadore": 9802,
    "angelo": 9803,
    "andate": 9804,
    "andola": 9805,
    "ania": 9806,
    "animi,": 9807,
    "appi": 9808,
    "apparisce": 9809,
    "aprir": 9810,
    "archi,": 9811,
    "arlo,": 9812,
    "arme.": 9813,
    "asso,": 9814,
    "assalti": 9815,
    "assicurarsi": 9816,
    "astuzia": 9817,
    "autore,": 9818,
    "aveano,": 9819,
    "avevono": 9820,
    "avevano,": 9821,
    "balla": 9822,
    "begli": 9823,
    "beri": 9824,
    "bron": 9825,
    "bato": 9826,
    "baldanza": 9827,
    "barbute": 9828,
    "bassà,": 9829,
    "bastona": 9830,
    "bev": 9831,
    "bellò": 9832,
    "benignamente": 9833,
    "berna": 9834,
    "bliote": 9835,
    "boe": 9836,
    "bonissimo": 9837,
    "brutto": 9838,
    "buon'": 9839,
    "c'è": 9840,
    "cana": 9841,
    "canti": 9842,
    "cade": 9843,
    "cagioni,": 9844,
    "caricano": 9845,
    "cazione": 9846,
    "cacciata": 9847,
    "cacciato": 9848,
    "calen": 9849,
    "califa": 9850,
    "canale": 9851,
    "canta": 9852,
    "canti,": 9853,
    "cancelliere": 9854,
    "capo.": 9855,
    "carcere": 9856,
    "carsi,": 9857,
    "carte": 9858,
    "carica": 9859,
    "causa,": 9860,
    "celesti": 9861,
    "celebre": 9862,
    "cento,": 9863,
    "centocinquanta": 9864,
    "cerchi": 9865,
    "cha": 9866,
    "cher": 9867,
    "chine": 9868,
    "chiave": 9869,
    "chiavi": 9870,
    "chiostro": 9871,
    "ciando": 9872,
    "ciar": 9873,
    "cia.": 9874,
    "cinta": 9875,
    "civili,": 9876,
    "comodità": 9877,
    "core,": 9878,
    "cognoscimento": 9879,
    "colpa,": 9880,
    "compren": 9881,
    "cometa": 9882,
    "cominciava": 9883,
    "concede": 9884,
    "conceder": 9885,
    "conceduto": 9886,
    "concilio;": 9887,
    "confederazione": 9888,
    "coniet": 9889,
    "conosciuto,": 9890,
    "consentire": 9891,
    "contradizione": 9892,
    "convento": 9893,
    "coron": 9894,
    "correvano": 9895,
    "cosa;": 9896,
    "costume,": 9897,
    "creda": 9898,
    "credo,": 9899,
    "creazione": 9900,
    "cresceva": 9901,
    "croce,": 9902,
    "dr": 9903,
    "dro": 9904,
    "d'alcun": 9905,
    "d'andar": 9906,
    "d'esse": 9907,
    "dami": 9908,
    "damig": 9909,
    "darle": 9910,
    "debbi": 9911,
    "dedica": 9912,
    "determin": 9913,
    "dell'Indie": 9914,
    "dell'altro,": 9915,
    "dell'arte,": 9916,
    "dell'esercito": 9917,
    "denari,": 9918,
    "dila": 9919,
    "diliber": 9920,
    "dissi,": 9921,
    "diaboli": 9922,
    "dicea:": 9923,
    "difese": 9924,
    "difficile,": 9925,
    "dimostrato": 9926,
    "dipinto": 9927,
    "discono": 9928,
    "discopri": 9929,
    "discosto": 9930,
    "disporre": 9931,
    "disidero": 9932,
    "disio": 9933,
    "dissolu": 9934,
    "divul": 9935,
    "dodeci": 9936,
    "doglia": 9937,
    "domandar": 9938,
    "dosso": 9939,
    "donna.": 9940,
    "doppi": 9941,
    "doppio": 9942,
    "dovessono": 9943,
    "dovettero": 9944,
    "ducento": 9945,
    "duchessa": 9946,
    "durare": 9947,
    "duti": 9948,
    "duto,": 9949,
    "ducati.": 9950,
    "e:": 9951,
    "eccellente,": 9952,
    "efficace": 9953,
    "efficacia": 9954,
    "egualmente": 9955,
    "elefante": 9956,
    "ellino,": 9957,
    "endone": 9958,
    "enze,": 9959,
    "enissimo": 9960,
    "entino,": 9961,
    "esper": 9962,
    "espressa": 9963,
    "espresso": 9964,
    "esú": 9965,
    "esercita": 9966,
    "estraordina": 9967,
    "etc.": 9968,
    "fav": 9969,
    "faceva,": 9970,
    "facultà": 9971,
    "fanti.": 9972,
    "fatti.": 9973,
    "fedeli,": 9974,
    "fermarsi": 9975,
    "fice,": 9976,
    "file": 9977,
    "fizio": 9978,
    "figura,": 9979,
    "figurativamente": 9980,
    "fisica": 9981,
    "foglia": 9982,
    "fornito": 9983,
    "forza.": 9984,
    "forzato": 9985,
    "fòro": 9986,
    "gesse": 9987,
    "gem": 9988,
    "general": 9989,
    "generò": 9990,
    "genti.": 9991,
    "gentilezza": 9992,
    "ggiata": 9993,
    "ggiatore": 9994,
    "gis": 9995,
    "gittò": 9996,
    "giovin": 9997,
    "gione,": 9998,
    "giornata,": 9999,
    "giuochi": 10000,
    "gnano,": 10001,
    "gnarono": 10002,
    "gni,": 10003,
    "gravi,": 10004,
    "grande.": 10005,
    "greco,": 10006,
    "grembo": 10007,
    "grida": 10008,
    "guelfi": 10009,
    "guider": 10010,
    "he": 10011,
    "hanno,": 10012,
    "impau": 10013,
    "imperfe": 10014,
    "importante": 10015,
    "incominciando": 10016,
    "ingratitudine": 10017,
    "inconvenienti": 10018,
    "indizio": 10019,
    "inferio": 10020,
    "ini.": 10021,
    "insegne": 10022,
    "instrumenti": 10023,
    "intero": 10024,
    "intenti": 10025,
    "isce": 10026,
    "les": 10027,
    "llo,": 10028,
    "lmente,": 10029,
    "l'abito": 10030,
    "l'era": 10031,
    "l'esser": 10032,
    "l'imperio": 10033,
    "l'una,": 10034,
    "l'affecto": 10035,
    "l'artiglierie,": 10036,
    "l'imag": 10037,
    "l'odio": 10038,
    "l'ordine,": 10039,
    "latina": 10040,
    "latino": 10041,
    "lato,": 10042,
    "lavorata": 10043,
    "leti": 10044,
    "lione": 10045,
    "lioni": 10046,
    "lieti": 10047,
    "lodare": 10048,
    "lodata": 10049,
    "longi": 10050,
    "lum": 10051,
    "lunga,": 10052,
    "muto": 10053,
    "maturi": 10054,
    "mancar": 10055,
    "maneggi": 10056,
    "manifestò": 10057,
    "maraviglioso": 10058,
    "me;": 10059,
    "metta": 10060,
    "mezzano": 10061,
    "meridi": 10062,
    "mescol": 10063,
    "minere": 10064,
    "modera": 10065,
    "mond": 10066,
    "monete": 10067,
    "montagne,": 10068,
    "mostravano": 10069,
    "musi": 10070,
    "muraglia": 10071,
    "nali": 10072,
    "nan": 10073,
    "nudi": 10074,
    "n'ebbe": 10075,
    "napole": 10076,
    "navilii": 10077,
    "neu": 10078,
    "negozio": 10079,
    "nell'altro": 10080,
    "nell'anno": 10081,
    "nell'isola": 10082,
    "nos": 10083,
    "notare": 10084,
    "noncio": 10085,
    "nonn-": 10086,
    "nulla,": 10087,
    "omai": 10088,
    "occasioni": 10089,
    "occidentali": 10090,
    "oltre,": 10091,
    "onorate": 10092,
    "oppone": 10093,
    "orti": 10094,
    "orum": 10095,
    "pagato": 10096,
    "papi": 10097,
    "passo,": 10098,
    "padrone,": 10099,
    "parten": 10100,
    "parlato,": 10101,
    "parlava": 10102,
    "parte;": 10103,
    "partisse": 10104,
    "pauro": 10105,
    "peccati,": 10106,
    "pensando,": 10107,
    "perga": 10108,
    "persi": 10109,
    "pereg": 10110,
    "periglio": 10111,
    "persona.": 10112,
    "piacendo": 10113,
    "piacevolezza": 10114,
    "piede,": 10115,
    "pigliare,": 10116,
    "pitture,": 10117,
    "plebe,": 10118,
    "pom": 10119,
    "posono": 10120,
    "poeta": 10121,
    "ponesse": 10122,
    "pontefice;": 10123,
    "pontifi": 10124,
    "popolare,": 10125,
    "porco,": 10126,
    "posti,": 10127,
    "potente,": 10128,
    "povertà": 10129,
    "præ": 10130,
    "prae": 10131,
    "prefetto": 10132,
    "preste": 10133,
    "presup": 10134,
    "precetto": 10135,
    "presenzia": 10136,
    "prigioni,": 10137,
    "principale,": 10138,
    "principe.": 10139,
    "privata": 10140,
    "prodi": 10141,
    "provedi": 10142,
    "proceder": 10143,
    "produce": 10144,
    "professione": 10145,
    "progresso": 10146,
    "pronto": 10147,
    "propinquo": 10148,
    "prosun": 10149,
    "proverbio": 10150,
    "pubblici": 10151,
    "qual,": 10152,
    "querele": 10153,
    "quia": 10154,
    "quinci": 10155,
    "quindeci": 10156,
    "rano,": 10157,
    "rame,": 10158,
    "raffren": 10159,
    "ragun": 10160,
    "ragionare,": 10161,
    "recusa": 10162,
    "regg": 10163,
    "restare": 10164,
    "religione.": 10165,
    "rendendo": 10166,
    "republica.": 10167,
    "riconcili": 10168,
    "ridotti": 10169,
    "rigo": 10170,
    "rimar": 10171,
    "riparo,": 10172,
    "ritener": 10173,
    "ritenuto": 10174,
    "ritrovar": 10175,
    "richie": 10176,
    "ricordandosi": 10177,
    "rimasa": 10178,
    "rimasero": 10179,
    "rimangono": 10180,
    "risplen": 10181,
    "risposte": 10182,
    "rispetto,": 10183,
    "risponder": 10184,
    "rispondo": 10185,
    "ritornato": 10186,
    "riverenzia": 10187,
    "robbe": 10188,
    "rosso,": 10189,
    "sandosi": 10190,
    "sca,": 10191,
    "sella": 10192,
    "spu": 10193,
    "ssene": 10194,
    "sagra": 10195,
    "savio,": 10196,
    "saetta": 10197,
    "salu": 10198,
    "sanguino": 10199,
    "sapea": 10200,
    "sapevano": 10201,
    "sapere,": 10202,
    "scandolo": 10203,
    "scandalo": 10204,
    "scaramu": 10205,
    "schiera": 10206,
    "scoperse": 10207,
    "scoprire": 10208,
    "semi": 10209,
    "seconda,": 10210,
    "secretario": 10211,
    "seguaci,": 10212,
    "seguitar": 10213,
    "seguito,": 10214,
    "sepolture": 10215,
    "servitori": 10216,
    "settimana": 10217,
    "sig": 10218,
    "siste": 10219,
    "signoreggi": 10220,
    "silenzio": 10221,
    "singolari": 10222,
    "soli,": 10223,
    "soste": 10224,
    "soggetti": 10225,
    "soldano,": 10226,
    "sopporta": 10227,
    "sopra.": 10228,
    "soverchio": 10229,
    "spalle,": 10230,
    "spogli": 10231,
    "ssia": 10232,
    "sta.": 10233,
    "stirpe": 10234,
    "stoma": 10235,
    "storie,": 10236,
    "studio,": 10237,
    "sus": 10238,
    "telli,": 10239,
    "tune,": 10240,
    "t'è": 10241,
    "taberna": 10242,
    "tanti,": 10243,
    "tarda": 10244,
    "temi": 10245,
    "temera": 10246,
    "tempes": 10247,
    "tenente": 10248,
    "tengo": 10249,
    "terrazz": 10250,
[...]
