{
  "type": "unicode_bpe",
  "token_to_id": {
    "<|poem_end|>": 0,
    "\n": 1,
    " ": 2,
    "!": 3,
    "\"": 4,
    "'": 5,
    "(": 6,
    ")": 7,
    "*": 8,
    ",": 9,
    "-": 10,
    ".": 11,
    "1": 12,
    ":": 13,
    ";": 14,
    "<": 15,
    "?": 16,
    "A": 17,
    "B": 18,
    "C": 19,
    "D": 20,
    "E": 21,
    "F": 22,
    "G": 23,
    "H": 24,
    "I": 25,
    "J": 26,
    "K": 27,
    "L": 28,
    "M": 29,
    "N": 30,
    "O": 31,
    "P": 32,
    "Q": 33,
    "R": 34,
    "S": 35,
    "T": 36,
    "U": 37,
    "V": 38,
    "Y": 39,
    "Z": 40,
    "[": 41,
    "]": 42,
    "a": 43,
    "b": 44,
    "c": 45,
    "d": 46,
    "e": 47,
    "f": 48,
    "g": 49,
    "h": 50,
    "i": 51,
    "k": 52,
    "l": 53,
    "m": 54,
    "n": 55,
    "o": 56,
    "p": 57,
    "q": 58,
    "r": 59,
    "s": 60,
    "t": 61,
    "u": 62,
    "v": 63,
    "x": 64,
    "y": 65,
    "z": 66,
    "¢": 67,
    "«": 68,
    "·": 69,
    "»": 70,
    "È": 71,
    "É": 72,
    "à": 73,
    "á": 74,
    "â": 75,
    "è": 76,
    "é": 77,
    "ê": 78,
    "ë": 79,
    "ì": 80,
    "í": 81,
    "î": 82,
    "ï": 83,
    "ò": 84,
    "ó": 85,
    "ô": 86,
    "ù": 87,
    "ú": 88,
    "û": 89,
    "ü": 90,
    "ʼ": 91,
    "–": 92,
    "—": 93,
    "‘": 94,
    "e ": 95,
    "a ": 96,
    "o ": 97,
    "i ": 98,
    "ch": 99,
    "n ": 100,
    "or": 101,
    "er": 102,
    ",\n": 103,
    "l ": 104,
    ", ": 105,
    "en": 106,
    "ar": 107,
    "an": 108,
    "co": 109,
    "che ": 110,
    "no": 111,
    ".\n": 112,
    "et": 113,
    "st": 114,
    "al": 115,
    "on": 116,
    "at": 117,
    "gi": 118,
    "er ": 119,
    "pi": 120,
    "ent": 121,
    "la ": 122,
    "mi": 123,
    "di": 124,
    "qu": 125,
    "so": 126,
    "di ": 127,
    "e,\n": 128,
    "' ": 129,
    "non ": 130,
    "ri": 131,
    "el": 132,
    "et ": 133,
    "vi": 134,
    "ss": 135,
    "or ": 136,
    "re": 137,
    "ch'": 138,
    "ol": 139,
    "de": 140,
    "ci": 141,
    "ra": 142,
    "to ": 143,
    "am": 144,
    "è ": 145,
    "l'": 146,
    "mi ": 147,
    "al ": 148,
    ";\n": 149,
    "'l ": 150,
    "e\n": 151,
    "in ": 152,
    "a,\n": 153,
    "ar ": 154,
    "po": 155,
    "ac": 156,
    "gl": 157,
    "do ": 158,
    "tr": 159,
    "o,\n": 160,
    "me ": 161,
    "d'": 162,
    "tu": 163,
    "per ": 164,
    "de ": 165,
    "si": 166,
    "gn": 167,
    "in": 168,
    "ve": 169,
    "vo": 170,
    "el ": 171,
    "su": 172,
    "ort": 173,
    "é ": 174,
    "io ": 175,
    "e.\n": 176,
    "e, ": 177,
    "par": 178,
    "ò ": 179,
    "a\n": 180,
    "se ": 181,
    ":\n": 182,
    "le": 183,
    "r ": 184,
    "o, ": 185,
    "av": 186,
    "ggi": 187,
    "per": 188,
    "lo ": 189,
    "a, ": 190,
    "con": 191,
    "un": 192,
    "si ": 193,
    "ov": 194,
    "le ": 195,
    "ant": 196,
    "se": 197,
    "ma": 198,
    "il ": 199,
    "m'": 200,
    "ra ": 201,
    "o\n": 202,
    "en ": 203,
    "sc": 204,
    "un ": 205,
    "chi ": 206,
    "te ": 207,
    "í ": 208,
    "gu": 209,
    "dol": 210,
    "a.\n": 211,
    "ma ": 212,
    "don": 213,
    "oc": 214,
    "pr": 215,
    "o.\n": 216,
    "à ": 217,
    "est": 218,
    "gli": 219,
    "cor": 220,
    "i' ": 221,
    "ver": 222,
    "ì ": 223,
    "altr": 224,
    "da ": 225,
    "ess": 226,
    "sí ": 227,
    "om": 228,
    "so ": 229,
    "pen": 230,
    "d ": 231,
    "i, ": 232,
    "ta ": 233,
    "ti ": 234,
    "ne ": 235,
    "sì ": 236,
    "la": 237,
    "li ": 238,
    "on ": 239,
    "fi": 240,
    "me": 241,
    "mor": 242,
    "s'": 243,
    "fu": 244,
    "ella ": 245,
    "ando ": 246,
    "ment": 247,
    "'n ": 248,
    "str": 249,
    "no ": 250,
    "za ": 251,
    "tut": 252,
    "te": 253,
    "ú ": 254,
    "gli ": 255,
    "ché ": 256,
    "i,\n": 257,
    "na ": 258,
    "pre": 259,
    "mio ": 260,
    "co ": 261,
    "vol": 262,
    "ce ": 263,
    "chi": 264,
    "del ": 265,
    "con ": 266,
    "gra": 267,
    "spi": 268,
    "bi": 269,
    "ass": 270,
    "du": 271,
    "E ": 272,
    "anto ": 273,
    "e 'l ": 274,
    "sa ": 275,
    "cor ": 276,
    "pu": 277,
    "ui ": 278,
    "ogn": 279,
    "Ch": 280,
    "do": 281,
    "piú ": 282,
    "ser": 283,
    "e;\n": 284,
    "sp": 285,
    "ben ": 286,
    "mia ": 287,
    "ato ": 288,
    "ed ": 289,
    "tor": 290,
    "son ": 291,
    "amor": 292,
    "ti": 293,
    "come ": 294,
    "né ": 295,
    "ell": 296,
    "mo": 297,
    "vi ": 298,
    "ch'i' ": 299,
    "man": 300,
    "occhi ": 301,
    "ven": 302,
    "for": 303,
    "po ": 304,
    "e' ": 305,
    "ente ": 306,
    "ad": 307,
    "ten": 308,
    "voi ": 309,
    "anz": 310,
    "ia ": 311,
    "ro ": 312,
    "ciò ": 313,
    "mort": 314,
    "donna ": 315,
    "?\n": 316,
    "aggi": 317,
    "ai ": 318,
    "bb": 319,
    "re ": 320,
    ": ": 321,
    "col": 322,
    "ei ": 323,
    "gg": 324,
    "ter": 325,
    "quel ": 326,
    "ha ": 327,
    "zz": 328,
    "suo ": 329,
    "a;\n": 330,
    ". ": 331,
    "fer": 332,
    "sci": 333,
    "far": 334,
    "mai ": 335,
    "fa ": 336,
    ", che ": 337,
    "acci": 338,
    "ett": 339,
    "i\n": 340,
    "ogni ": 341,
    "quest": 342,
    "cre": 343,
    "mo ": 344,
    "sse ": 345,
    "sua ": 346,
    "mor ": 347,
    "sem": 348,
    "oi ": 349,
    "e,\ne ": 350,
    "li": 351,
    "lei ": 352,
    "ù ": 353,
    "an ": 354,
    "ang": 355,
    "Amor ": 356,
    "sso": 357,
    "sent": 358,
    "una ": 359,
    "ce": 360,
    "fr": 361,
    "Amor": 362,
    "gent": 363,
    "nel ": 364,
    "'n": 365,
    "tu ": 366,
    "eo ": 367,
    "Qu": 368,
    "far ": 369,
    "ap": 370,
    "ard": 371,
    "o;\n": 372,
    "om ": 373,
    "pa": 374,
    "pur ": 375,
    "tem": 376,
    "val": 377,
    "piac": 378,
    "ved": 379,
    "– ": 380,
    "e:\n": 381,
    "fo": 382,
    "ci ": 383,
    "dolce ": 384,
    "and": 385,
    "mon": 386,
    "ate ": 387,
    "che 'l ": 388,
    "endo ": 389,
    "poi ": 390,
    "lu": 391,
    "gran ": 392,
    "tanto ": 393,
    "end": 394,
    "ove ": 395,
    "ere ": 396,
    "; ": 397,
    "fat": 398,
    "già ": 399,
    "ut": 400,
    "ch'io ": 401,
    "mer": 402,
    "cu": 403,
    "dis": 404,
    "pri": 405,
    "lor ": 406,
    "a:\n": 407,
    "tal ": 408,
    "ve ": 409,
    "gli occhi ": 410,
    "qual ": 411,
    "are ": 412,
    "ben": 413,
    "!\n": 414,
    "ec": 415,
    "tra": 416,
    "it": 417,
    "port": 418,
    "a la ": 419,
    "com": 420,
    "tant": 421,
    "fort": 422,
    "mal": 423,
    "più ": 424,
    "ag": 425,
    "e,\nche ": 426,
    "enza ": 427,
    "ne": 428,
    "vo ": 429,
    "tutto ": 430,
    "ver ": 431,
    "Ma ": 432,
    "altro ": 433,
    "gio": 434,
    "gion": 435,
    "im": 436,
    "sol ": 437,
    "t'": 438,
    "n'": 439,
    "son": 440,
    "ho ": 441,
    "vent": 442,
    "i.\n": 443,
    "sospi": 444,
    "piet": 445,
    "stro ": 446,
    "bel": 447,
    "car": 448,
    "Che ": 449,
    "ament": 450,
    "ato,\n": 451,
    "fe": 452,
    "sia ": 453,
    "quella ": 454,
    "ca": 455,
    "no,\n": 456,
    "dir ": 457,
    "ni ": 458,
    "tal": 459,
    "trov": 460,
    "ca ": 461,
    "ch'è ": 462,
    "asc": 463,
    "ave": 464,
    "poss": 465,
    "- ": 466,
    "au": 467,
    "miei ": 468,
    "pens": 469,
    "pre ": 470,
    "cer": 471,
    "ggio ": 472,
    "sper": 473,
    ". . ": 474,
    "cui ": 475,
    "par ": 476,
    "vita ": 477,
    "— ": 478,
    "a' ": 479,
    "nat": 480,
    "cort": 481,
    "esser ": 482,
    "ir ": 483,
    "de' ": 484,
    "os": 485,
    "ami": 486,
    "donn": 487,
    "enz": 488,
    "gr": 489,
    "mar": 490,
    "bel ": 491,
    "mol": 492,
    "quando ": 493,
    "á ": 494,
    "avi": 495,
    "a l'": 496,
    "fu ": 497,
    "sal": 498,
    "de la ": 499,
    "mente ": 500,
    "piang": 501,
    "va ": 502,
    "alc": 503,
    "ani": 504,
    "ata ": 505,
    "o:\n": 506,
    "ol ": 507,
    "ore\n": 508,
    "amor ": 509,
    "cci": 510,
    "com'": 511
  },
  "merges": [
    [
      "e",
      " "
    ],
    [
      "a",
      " "
    ],
    [
      "o",
      " "
    ],
    [
      "i",
      " "
    ],
    [
      "c",
      "h"
    ],
    [
      "n",
      " "
    ],
    [
      "o",
      "r"
    ],
    [
      "e",
      "r"
    ],
    [
      ",",
      "\n"
    ],
    [
      "l",
      " "
    ],
    [
      ",",
      " "
    ],
    [
      "e",
      "n"
    ],
    [
      "a",
      "r"
    ],
    [
      "a",
      "n"
    ],
    [
      "c",
      "o"
    ],
    [
      "ch",
      "e "
    ],
    [
      "n",
      "o"
    ],
    [
      ".",
      "\n"
    ],
    [
      "e",
      "t"
    ],
    [
      "s",
      "t"
    ],
    [
      "a",
      "l"
    ],
    [
      "o",
      "n"
    ],
    [
      "a",
      "t"
    ],
    [
      "g",
      "i"
    ],
    [
      "er",
      " "
    ],
    [
      "p",
      "i"
    ],
    [
      "en",
      "t"
    ],
    [
      "l",
      "a "
    ],
    [
      "m",
      "i"
    ],
    [
      "d",
      "i"
    ],
    [
      "q",
      "u"
    ],
    [
      "s",
      "o"
    ],
    [
      "d",
      "i "
    ],
    [
      "e",
      ",\n"
    ],
    [
      "'",
      " "
    ],
    [
      "no",
      "n "
    ],
    [
      "r",
      "i"
    ],
    [
      "e",
      "l"
    ],
    [
      "et",
      " "
    ],
    [
      "v",
      "i"
    ],
    [
      "s",
      "s"
    ],
    [
      "or",
      " "
    ],
    [
      "r",
      "e"
    ],
    [
      "ch",
      "'"
    ],
    [
      "o",
      "l"
    ],
    [
      "d",
      "e"
    ],
    [
      "c",
      "i"
    ],
    [
      "r",
      "a"
    ],
    [
      "t",
      "o "
    ],
    [
      "a",
      "m"
    ],
    [
      "è",
      " "
    ],
    [
      "l",
      "'"
    ],
    [
      "m",
      "i "
    ],
    [
      "a",
      "l "
    ],
    [
      ";",
      "\n"
    ],
    [
      "'",
      "l "
    ],
    [
      "e",
      "\n"
    ],
    [
      "i",
      "n "
    ],
    [
      "a",
      ",\n"
    ],
    [
      "ar",
      " "
    ],
    [
      "p",
      "o"
    ],
    [
      "a",
      "c"
    ],
    [
      "g",
      "l"
    ],
    [
      "d",
      "o "
    ],
    [
      "t",
      "r"
    ],
    [
      "o",
      ",\n"
    ],
    [
      "m",
      "e "
    ],
    [
      "d",
      "'"
    ],
    [
      "t",
      "u"
    ],
    [
      "p",
      "er "
    ],
    [
      "d",
      "e "
    ],
    [
      "s",
      "i"
    ],
    [
      "g",
      "n"
    ],
    [
      "i",
      "n"
    ],
    [
      "v",
      "e"
    ],
    [
      "v",
      "o"
    ],
    [
      "e",
      "l "
    ],
    [
      "s",
      "u"
    ],
    [
      "or",
      "t"
    ],
    [
      "é",
      " "
    ],
    [
      "i",
      "o "
    ],
    [
      "e",
      ".\n"
    ],
    [
      "e",
      ", "
    ],
    [
      "p",
      "ar"
    ],
    [
      "ò",
      " "
    ],
    [
      "a",
      "\n"
    ],
    [
      "s",
      "e "
    ],
    [
      ":",
      "\n"
    ],
    [
      "l",
      "e"
    ],
    [
      "r",
      " "
    ],
    [
      "o",
      ", "
    ],
    [
      "a",
      "v"
    ],
    [
      "g",
      "gi"
    ],
    [
      "p",
      "er"
    ],
    [
      "l",
      "o "
    ],
    [
      "a",
      ", "
    ],
    [
      "co",
      "n"
    ],
    [
      "u",
      "n"
    ],
    [
      "s",
      "i "
    ],
    [
      "o",
      "v"
    ],
    [
      "l",
      "e "
    ],
    [
      "an",
      "t"
    ],
    [
      "s",
      "e"
    ],
    [
      "m",
      "a"
    ],
    [
      "i",
      "l "
    ],
    [
      "m",
      "'"
    ],
    [
      "r",
      "a "
    ],
    [
      "o",
      "\n"
    ],
    [
      "e",
      "n "
    ],
    [
      "s",
      "c"
    ],
    [
      "u",
      "n "
    ],
    [
      "ch",
      "i "
    ],
    [
      "t",
      "e "
    ],
    [
      "í",
      " "
    ],
    [
      "g",
      "u"
    ],
    [
      "d",
      "ol"
    ],
    [
      "a",
      ".\n"
    ],
    [
      "m",
      "a "
    ],
    [
      "d",
      "on"
    ],
    [
      "o",
      "c"
    ],
    [
      "p",
      "r"
    ],
    [
      "o",
      ".\n"
    ],
    [
      "à",
      " "
    ],
    [
      "e",
      "st"
    ],
    [
      "gl",
      "i"
    ],
    [
      "c",
      "or"
    ],
    [
      "i",
      "' "
    ],
    [
      "v",
      "er"
    ],
    [
      "ì",
      " "
    ],
    [
      "al",
      "tr"
    ],
    [
      "d",
      "a "
    ],
    [
      "e",
      "ss"
    ],
    [
      "s",
      "í "
    ],
    [
      "o",
      "m"
    ],
    [
      "s",
      "o "
    ],
    [
      "p",
      "en"
    ],
    [
      "d",
      " "
    ],
    [
      "i",
      ", "
    ],
    [
      "t",
      "a "
    ],
    [
      "t",
      "i "
    ],
    [
      "n",
      "e "
    ],
    [
      "s",
      "ì "
    ],
    [
      "l",
      "a"
    ],
    [
      "l",
      "i "
    ],
    [
      "o",
      "n "
    ],
    [
      "f",
      "i"
    ],
    [
      "m",
      "e"
    ],
    [
      "m",
      "or"
    ],
    [
      "s",
      "'"
    ],
    [
      "f",
      "u"
    ],
    [
      "el",
      "la "
    ],
    [
      "an",
      "do "
    ],
    [
      "m",
      "ent"
    ],
    [
      "'",
      "n "
    ],
    [
      "st",
      "r"
    ],
    [
      "n",
      "o "
    ],
    [
      "z",
      "a "
    ],
    [
      "tu",
      "t"
    ],
    [
      "t",
      "e"
    ],
    [
      "ú",
      " "
    ],
    [
      "gl",
      "i "
    ],
    [
      "ch",
      "é "
    ],
    [
      "i",
      ",\n"
    ],
    [
      "n",
      "a "
    ],
    [
      "p",
      "re"
    ],
    [
      "mi",
      "o "
    ],
    [
      "c",
      "o "
    ],
    [
      "v",
      "ol"
    ],
    [
      "c",
      "e "
    ],
    [
      "ch",
      "i"
    ],
    [
      "de",
      "l "
    ],
    [
      "co",
      "n "
    ],
    [
      "g",
      "ra"
    ],
    [
      "s",
      "pi"
    ],
    [
      "b",
      "i"
    ],
    [
      "a",
      "ss"
    ],
    [
      "d",
      "u"
    ],
    [
      "E",
      " "
    ],
    [
      "an",
      "to "
    ],
    [
      "e ",
      "'l "
    ],
    [
      "s",
      "a "
    ],
    [
      "c",
      "or "
    ],
    [
      "p",
      "u"
    ],
    [
      "u",
      "i "
    ],
    [
      "o",
      "gn"
    ],
    [
      "C",
      "h"
    ],
    [
      "d",
      "o"
    ],
    [
      "pi",
      "ú "
    ],
    [
      "s",
      "er"
    ],
    [
      "e",
      ";\n"
    ],
    [
      "s",
      "p"
    ],
    [
      "b",
      "en "
    ],
    [
      "mi",
      "a "
    ],
    [
      "at",
      "o "
    ],
    [
      "e",
      "d "
    ],
    [
      "t",
      "or"
    ],
    [
      "so",
      "n "
    ],
    [
      "am",
      "or"
    ],
    [
      "t",
      "i"
    ],
    [
      "co",
      "me "
    ],
    [
      "n",
      "é "
    ],
    [
      "el",
      "l"
    ],
    [
      "m",
      "o"
    ],
    [
      "v",
      "i "
    ],
    [
      "ch'",
      "i' "
    ],
    [
      "m",
      "an"
    ],
    [
      "oc",
      "chi "
    ],
    [
      "v",
      "en"
    ],
    [
      "f",
      "or"
    ],
    [
      "p",
      "o "
    ],
    [
      "e",
      "' "
    ],
    [
      "ent",
      "e "
    ],
    [
      "a",
      "d"
    ],
    [
      "t",
      "en"
    ],
    [
      "vo",
      "i "
    ],
    [
      "an",
      "z"
    ],
    [
      "i",
      "a "
    ],
    [
      "r",
      "o "
    ],
    [
      "ci",
      "ò "
    ],
    [
      "m",
      "ort"
    ],
    [
      "don",
      "na "
    ],
    [
      "?",
      "\n"
    ],
    [
      "a",
      "ggi"
    ],
    [
      "a",
      "i "
    ],
    [
      "b",
      "b"
    ],
    [
      "r",
      "e "
    ],
    [
      ":",
      " "
    ],
    [
      "co",
      "l"
    ],
    [
      "e",
      "i "
    ],
    [
      "g",
      "g"
    ],
    [
      "t",
      "er"
    ],
    [
      "qu",
      "el "
    ],
    [
      "h",
      "a "
    ],
    [
      "z",
      "z"
    ],
    [
      "su",
      "o "
    ],
    [
      "a",
      ";\n"
    ],
    [
      ".",
      " "
    ],
    [
      "f",
      "er"
    ],
    [
      "s",
      "ci"
    ],
    [
      "f",
      "ar"
    ],
    [
      "ma",
      "i "
    ],
    [
      "f",
      "a "
    ],
    [
      ", ",
      "che "
    ],
    [
      "ac",
      "ci"
    ],
    [
      "et",
      "t"
    ],
    [
      "i",
      "\n"
    ],
    [
      "ogn",
      "i "
    ],
    [
      "qu",
      "est"
    ],
    [
      "c",
      "re"
    ],
    [
      "m",
      "o "
    ],
    [
      "ss",
      "e "
    ],
    [
      "su",
      "a "
    ],
    [
      "m",
      "or "
    ],
    [
      "se",
      "m"
    ],
    [
      "o",
      "i "
    ],
    [
      "e,\n",
      "e "
    ],
    [
      "l",
      "i"
    ],
    [
      "le",
      "i "
    ],
    [
      "ù",
      " "
    ],
    [
      "a",
      "n "
    ],
    [
      "an",
      "g"
    ],
    [
      "A",
      "mor "
    ],
    [
      "s",
      "so"
    ],
    [
      "s",
      "ent"
    ],
    [
      "un",
      "a "
    ],
    [
      "c",
      "e"
    ],
    [
      "f",
      "r"
    ],
    [
      "A",
      "mor"
    ],
    [
      "g",
      "ent"
    ],
    [
      "n",
      "el "
    ],
    [
      "'",
      "n"
    ],
    [
      "tu",
      " "
    ],
    [
      "e",
      "o "
    ],
    [
      "Q",
      "u"
    ],
    [
      "f",
      "ar "
    ],
    [
      "a",
      "p"
    ],
    [
      "ar",
      "d"
    ],
    [
      "o",
      ";\n"
    ],
    [
      "om",
      " "
    ],
    [
      "p",
      "a"
    ],
    [
      "pu",
      "r "
    ],
    [
      "te",
      "m"
    ],
    [
      "v",
      "al"
    ],
    [
      "pi",
      "ac"
    ],
    [
      "ve",
      "d"
    ],
    [
      "–",
      " "
    ],
    [
      "e",
      ":\n"
    ],
    [
      "f",
      "o"
    ],
    [
      "c",
      "i "
    ],
    [
      "dol",
      "ce "
    ],
    [
      "an",
      "d"
    ],
    [
      "m",
      "on"
    ],
    [
      "at",
      "e "
    ],
    [
      "che ",
      "'l "
    ],
    [
      "en",
      "do "
    ],
    [
      "po",
      "i "
    ],
    [
      "l",
      "u"
    ],
    [
      "gra",
      "n "
    ],
    [
      "t",
      "anto "
    ],
    [
      "en",
      "d"
    ],
    [
      "ov",
      "e "
    ],
    [
      "er",
      "e "
    ],
    [
      ";",
      " "
    ],
    [
      "f",
      "at"
    ],
    [
      "gi",
      "à "
    ],
    [
      "u",
      "t"
    ],
    [
      "ch'",
      "io "
    ],
    [
      "m",
      "er"
    ],
    [
      "c",
      "u"
    ],
    [
      "di",
      "s"
    ],
    [
      "p",
      "ri"
    ],
    [
      "l",
      "or "
    ],
    [
      "a",
      ":\n"
    ],
    [
      "t",
      "al "
    ],
    [
      "v",
      "e "
    ],
    [
      "gli ",
      "occhi "
    ],
    [
      "qu",
      "al "
    ],
    [
      "ar",
      "e "
    ],
    [
      "b",
      "en"
    ],
    [
      "!",
      "\n"
    ],
    [
      "e",
      "c"
    ],
    [
      "t",
      "ra"
    ],
    [
      "i",
      "t"
    ],
    [
      "p",
      "ort"
    ],
    [
      "a ",
      "la "
    ],
    [
      "co",
      "m"
    ],
    [
      "t",
      "ant"
    ],
    [
      "f",
      "ort"
    ],
    [
      "m",
      "al"
    ],
    [
      "pi",
      "ù "
    ],
    [
      "a",
      "g"
    ],
    [
      "e,\n",
      "che "
    ],
    [
      "en",
      "za "
    ],
    [
      "n",
      "e"
    ],
    [
      "v",
      "o "
    ],
    [
      "tut",
      "to "
    ],
    [
      "v",
      "er "
    ],
    [
      "M",
      "a "
    ],
    [
      "altr",
      "o "
    ],
    [
      "gi",
      "o"
    ],
    [
      "gi",
      "on"
    ],
    [
      "i",
      "m"
    ],
    [
      "so",
      "l "
    ],
    [
      "t",
      "'"
    ],
    [
      "n",
      "'"
    ],
    [
      "s",
      "on"
    ],
    [
      "h",
      "o "
    ],
    [
      "v",
      "ent"
    ],
    [
      "i",
      ".\n"
    ],
    [
      "so",
      "spi"
    ],
    [
      "pi",
      "et"
    ],
    [
      "str",
      "o "
    ],
    [
      "b",
      "el"
    ],
    [
      "c",
      "ar"
    ],
    [
      "Ch",
      "e "
    ],
    [
      "am",
      "ent"
    ],
    [
      "at",
      "o,\n"
    ],
    [
      "f",
      "e"
    ],
    [
      "si",
      "a "
    ],
    [
      "qu",
      "ella "
    ],
    [
      "c",
      "a"
    ],
    [
      "no",
      ",\n"
    ],
    [
      "di",
      "r "
    ],
    [
      "n",
      "i "
    ],
    [
      "t",
      "al"
    ],
    [
      "tr",
      "ov"
    ],
    [
      "c",
      "a "
    ],
    [
      "ch'",
      "è "
    ],
    [
      "a",
      "sc"
    ],
    [
      "a",
      "ve"
    ],
    [
      "po",
      "ss"
    ],
    [
      "-",
      " "
    ],
    [
      "a",
      "u"
    ],
    [
      "mi",
      "ei "
    ],
    [
      "pen",
      "s"
    ],
    [
      "pr",
      "e "
    ],
    [
      "c",
      "er"
    ],
    [
      "ggi",
      "o "
    ],
    [
      "s",
      "per"
    ],
    [
      ". ",
      ". "
    ],
    [
      "c",
      "ui "
    ],
    [
      "p",
      "ar "
    ],
    [
      "vi",
      "ta "
    ],
    [
      "—",
      " "
    ],
    [
      "a",
      "' "
    ],
    [
      "n",
      "at"
    ],
    [
      "c",
      "ort"
    ],
    [
      "ess",
      "er "
    ],
    [
      "i",
      "r "
    ],
    [
      "de",
      "' "
    ],
    [
      "o",
      "s"
    ],
    [
      "a",
      "mi"
    ],
    [
      "don",
      "n"
    ],
    [
      "en",
      "z"
    ],
    [
      "g",
      "r"
    ],
    [
      "m",
      "ar"
    ],
    [
      "b",
      "el "
    ],
    [
      "m",
      "ol"
    ],
    [
      "qu",
      "ando "
    ],
    [
      "á",
      " "
    ],
    [
      "a",
      "vi"
    ],
    [
      "a ",
      "l'"
    ],
    [
      "fu",
      " "
    ],
    [
      "s",
      "al"
    ],
    [
      "de ",
      "la "
    ],
    [
      "ment",
      "e "
    ],
    [
      "pi",
      "ang"
    ],
    [
      "v",
      "a "
    ],
    [
      "al",
      "c"
    ],
    [
      "an",
      "i"
    ],
    [
      "at",
      "a "
    ],
    [
      "o",
      ":\n"
    ],
    [
      "o",
      "l "
    ],
    [
      "or",
      "e\n"
    ],
    [
      "am",
      "or "
    ],
    [
      "c",
      "ci"
    ],
    [
      "co",
      "m'"
    ]
  ],
  "special_tokens": [
    "<|poem_end|>"
  ]
}
